#version: 0.2
Ġ t
ã ģ
h e
Ġ a
i n
e r
Ġt he
o n
ã Ĥ
ã ĥ
r e
Ġ o
e d
n d
Ġ w
Ġ s
a t
ã Ģ
o r
e n
i s
i t
a r
a n
Ġ c
Ġo f
a l
e s
Ġ in
Ġ f
A R
Ġ b
a s
Ġa nd
Ġ p
in g
N E
i c
r o
Ġt o
ï ¼
AR T
i on
Ġ m
S T
Ġ d
l e
ST ART
Ġ h
ä ¸
o u
Ġ S
i l
en t
ãĢ Ĥ
ãĢ ģ
Ġ C
Ġ T
Ġ 1
Ġ re
Ġ A
ãģ ®
s t
ï¼ Į
o m
e l
a m
Ġ l
L I
NE W
LI NE
NEW LINE
o l
c t
Ġw as
Ġ M
a d
Ġt h
Ġ e
Ġ n
ä º
æ ľ
u r
e t
c h
Ġ B
i v
ãģ «
Ġ on
ç ļ
at ion
Ġf or
l y
2 0
å ¹
i d
çļ Ħ
Ġ H
å ħ
i r
Ġ ì
c e
i m
i g
Ġ I
Ġ P
R A
o t
u s
u t
Ġ g
A G
P H
P AR
RA PH
PAR AG
PARAG RAPH
Ġb e
å ı
t er
ãģ Ł
r a
Ġa s
it h
o w
Ġ he
å ¤
å ľ
E C
ä »
O N
Ġ (
T I
er s
l a
TI ON
S EC
SEC TION
Ġ is
ĠT he
ãĤ ĭ
å¹ ´
Ġs t
Ġw ith
Ġ R
u n
ãĥ ¼
ãģ ¯
Ġ D
Ġ1 9
e m
. _
ãģ ¨
Ġ F
Ġ L
ãĤ Ĵ
ãģ Ĺ
å ®
v er
å Ĳ
u l
ç Ķ
Ġ G
å Ī
Ġa t
Ġb y
is t
Ġ W
Ġ 20
Ġw h
ãģ ¦
Ġ N
' s
t h
Ġa l
ãģ §
ì Ŀ
æ ĸ
o s
Ġc on
Ġth at
ro m
he r
a y
Ġa n
ãģ Į
ä ½
ãģ Ħ
Ġ J
g e
ãĥ ³
Ġ ë
Ġ E
u m
r i
es t
â Ģ
Ġd e
æ Ĺ
å į
å ¾
Ġf rom
Ġp ro
Ġh is
a in
å Ľ
o p
å Ń
ãĤ Į
Ġs e
Ġ v
Ġ it
å °
o c
a c
Ġc om
i f
a v
o d
Ġ "
it y
re s
u p
a nd
p e
ãģ ª
ar t
at e
Ġ O
æ Ī
é Ģ
u d
æ ĺ
e w
b er
i es
or t
1 9
a b
ic h
l d
s e
o re
è ¡
il l
ar d
Ġo r
ï¼ Ī
ï¼ ī
æ Ŀ
q u
Ġ K
ig h
a k
Ġ U
al l
an t
er e
u b
é ģ
ĠI n
es s
at ed
å ¸
0 0
ä¸ Ģ
äº º
a g
m ent
ä¸ Ń
Ġe x
Ġa re
Ġ r
i an
å Ĭ
ãĤ ¹
Ġc h
å¤ §
i a
åľ ¨
i p
I C
Ġw ere
L E
ãĥ¼ ãĥ
iv e
æ Ń
IC LE
ART ICLE
T he
í ķ
a p
o v
u g
ãĢĤ _
ãģ £
ä ¹
e ar
ĠS t
u nd
å ·
ar y
i al
on g
å º
ä ¼
ou r
å Į
æĹ ¥
Ġ20 1
am e
ou n
Ġ ê
æ ī
é ĥ
Ġwh ich
æ Ķ
ãĤ ī
Ġ le
el l
é ĩ
æľ Ī
Ġ 2
ãģ ĭ
ãĥ »
re d
å ±
as t
ct ion
æ ķ
Ġ y
ĠC h
ì Ĺ
ç ī
in e
ãĥ «
o g
ĠH e
è ¿
o st
u st
u c
å ¼
Ġs h
ãģ ķ
t e
or k
s o
Ġh ad
é ĸ
è Ģ
æ °
å ĩ
ic al
t her
is h
ãģ Ĥ
or d
Ġ V
å ½
ç Ľ
ãĤ Ĭ
è ¨
ãĤ ¤
ãĤ Ĥ
é Ļ
p t
ãģĹ ãģ¦
igh t
Ġ20 0
å Ĩ
r an
å ¯
ãģ ĵ
i e
ãĥ ª
Ġcom p
ë ĭ
u re
Ġ un
ir st
ãĤ ¢
Ġ k
Ġn ot
c l
u e
Ġal so
ou s
è ¦
f f
è ĩ
æ Ļ
Ġw he
ãĥ Ī
f ter
it ion
åĽ ½
ãģ Ļ
å ĭ
av e
Ġh as
Ġp la
ig n
é Ľ
æĺ ¯
ç µ
o k
r y
Ġ1 8
æľ ī
p ort
om e
m er
p er
Ġa r
ãĥ ©
Ġf irst
ãĢ Į
ãĢ į
ãģĹ ãģŁ
ãģķ ãĤĮ
a re
åľ °
i z
er v
I n
id e
æ ³
Ġcon t
å Ĵ
Ġ us
i re
at er
ç §
as s
ç Ļ
Â ł
å ¥
ic e
å ī
Ġthe ir
è¡ Į
ç «
åĩ º
ãģ£ ãģŁ
åĴ Į
ç Ĥ
Ġhe r
he d
on d
æ ²
Ġt e
r it
ëĭ ¤
w o
m an
Ġa d
or y
Ġ ro
Ġa p
ä¸ Ĭ
ĠU n
Ġit s
ãĥ ĥ
è »
ul t
Ġb ut
âĢ ĵ
Ġre s
Ġp art
ac k
ä» ¥
e ct
ow n
ou ld
Ġ 3
ãĤ ¯
Ġ í
Ġy ear
æ µ
æ Ľ
ç ´
) ,
Ġwh o
éĥ ¨
æ ł
è Ī
re e
Ġ j
a ge
im e
t o
ation s
æĪ Ĳ
ìĹ Ĳ
åŃ ¦
en ce
Ġa b
Ġc l
å Ł
è ª
Ġa c
ç ķ
æľ ¬
r ic
ou t
ãģĻ ãĤĭ
ĠT h
ug h
Ġbe c
i b
al ly
Ġa g
an g
oun t
çĶ Ł
a ch
å ĳ
ìĿ ´
å¾ Į
Ġon e
Ġh ave
Ġp er
en s
ë Ĭ
ä ¿
é Ŀ
æ ´
ou nd
é ļ
Ġth is
æ ĭ
o ver
cl ud
ç »
ä½ ľ
ìĿ ĺ
ãģ ¾
ãģ Ĩ
Ġm an
am p
la nd
l ow
ĠI t
r u
ãĤ Ī
re n
o ol
ur ing
å ł
ation al
ëĬ Ķ
i le
ad e
ãģĦ ãĤĭ
Ġw ork
æ İ
w n
äº Ĩ
å İ
ê ³
p h
il d
ç Ĳ
k e
Ġt wo
ç İ
å ĵ
Ġbe en
Ġ Y
çĶ ¨
Ġre c
ä ¾
æ Ģ
o in
ar k
ion s
ãĤ ·
æĻ Ĥ
è ®
ç ¾
ãģĤ ãĤĭ
é ķ
n e
å »
ãĥ³ ãĥ
Ġof f
Ġo ther
Ġ en
Ġin clud
ä¼ ļ
f or
Ġpla y
t s
æ ¸
å ¿
ì Ħ
å Ģ
é «
ol d
ter n
ub l
åĲ Į
Ġa fter
v el
Ġd is
i ed
ĠA l
ç ¬
e c
Ġ im
a ct
æ Į
ë ¡
u ch
g h
ä¸ į
Ġs c
at es
æ Ĭ
è µ
c es
Ġ up
em ber
åĲ į
20 1
or s
t ed
el y
ent s
çĤ º
Ġo ut
ä¸ »
åĪ Ĩ
ä» ĸ
Ġthe y
Ġcom m
åħ ¬
it e
a w
p l
Ġs he
ãĤ ¿
ch ool
Ġ19 9
ãĤ ģ
ur n
on e
å® ¶
in d
ä¸ º
ç ¤
20 0
ãģĭ ãĤī
w e
è ¯
on s
Ġn ew
Ġo ver
æĸ ¹
å §
it ed
íķ ĺ
o y
æ ¯
Ġ 4
as ed
ä» £
ãģ ı
res s
ĠD e
c ed
ĠA r
ç¬ ¬
æ ±
or n
) .
Ġd es
is s
a il
os e
æ ¥
g an
at h
ab le
iv ers
ë¡ ľ
an ce
Ġin to
Ġs p
ãĥ ķ
è ĥ
ou gh
åŃ Ĳ
h ip
l es
åľ ĭ
as e
æ ŀ
ĠR e
c k
å £
ãĥ ¬
ãĥ Ń
f er
Ġal l
Ġe v
Ġn e
ç ľ
äº ĭ
Ġ und
è §
åĲ Ī
é ¦
Ġ ra
Ġh im
ç Ń
w ard
é ĺ
Ġt ime
o od
ì ł
ãĤ ¸
Ġì Ŀ
èĩ ª
ĠM ar
f t
ç ·
o b
æ³ ķ
ãģ Ŀ
ãģ£ ãģ¦
ìĿ Ħ
ing s
Ġs erv
ç ¨
Ġ Ġ
Ġt ra
è ģ
ä¸ ĭ
é« ĺ
è ¾
ro ugh
è ³
ç ©
Ġp re
è ¥
ê °
Ġc an
ãģ į
ãĤ «
ĠN ew
Ġg ro
æ ¬
é ł
Ġ 5
Ġw ould
Ġund er
ĠC om
1 8
ĠA n
Ġs pe
å¸ Ĥ
ç Ī
s s
è ©
in al
æ° ĳ
èĢ ħ
å¤ ļ
an s
åħ ¥
Ġwhe n
ĠL e
ãģ ĳ
if e
åī į
æĶ ¿
d u
c ess
æ ¨
Ġc ol
ãģĵ ãģ¨
Ġyear s
ct ed
ç ¶
æĸ °
Ġm ore
Ġb u
i ous
ë ¥
Ġp l
è¥ ¿
ãĤ £
Ġse c
è £
ä¹ ĭ
Ġl oc
Ġag ain
ç« ĭ
i o
å® ļ
is hed
ĠS e
ak e
t on
ç ¥
w ay
è Ń
ar ly
Ġwhe re
ri b
æī Ģ
Ġb et
Ġe le
æĸ ¯
ì ľ
1 0
é ¡
ì ŀ
r am
éģ ĵ
er ed
ì §
Ġre t
ou th
æ ı
æľ Ģ
è ·
ç º
il m
ç Ł
v e
ç ½
Ġ19 8
ot h
ç ı
Ġp r
æĸ ĩ
è ²
ä½ į
Ġst ud
r ad
or ld
Ġì ŀ
Ġre g
ä» »
Ġo p
ic k
u al
è ī
æĿ ĳ
as on
o ok
Ġw e
Ġs up
Ġat t
è¦ ģ
Ġm e
re at
åĪ °
Ġp ubl
è ¢
us e
for m
Ġcon s
åį Ĺ
ä¸ ĸ
o h
Ġ 6
ãĤ Ħ
Ġin ter
we en
id ent
ol og
çī ©
å± ±
Ġk n
éķ ·
åĮ Ĺ
Ġd uring
æ Ħ
Ġin d
æķ Ļ
çī ¹
åĬ ł
ãĤ °
en er
äº İ
âĢ Ŀ
Ġon ly
ãģ Ĭ
Ġas s
Ġc ent
il y
âĢ ľ
å¹ ³
Ĥ ¬
æĸ ¼
ãģ¨ ãģĹãģ¦
Ġthe m
ran s
ãģĦ ãģŁ
Ġf e
åł ´
Ġa ct
Ġthe re
æ ©
ãģ§ ãģĤãĤĭ
åħ ¶
ĠE n
è» į
Ġm ade
00 0
Ġre p
mer ic
æµ ·
r on
d uc
é Ĺ
e nd
Ġthe n
çĶ ±
éĸ ĭ
ivers ity
Ġm ost
æ ¼
Ġ qu
Ġre m
c he
Ġfor m
ic s
íķ ľ
è ĭ
Ġs ub
Ġ19 7
f ore
or th
ãĢ ĭ
ãĢ Ĭ
ol low
åĮ ĸ
Ġm ov
Ġp ol
åı Ĭ
åº ¦
Ġth rough
Ġl ater
èĢ Į
an y
çĲ Ĩ
c ial
éĢ ļ
ãģ ©
oc k
Ġap p
Ġbet ween
ä¸ ī
ãģ« ãģ¯
at ing
Ġs o
in s
ou se
r al
ic t
over n
ãĥ ŀ
ãģ§ ãģ¯
éĸ ĵ
it ies
è¢ «
ê³ ł
ë ¦
Ġp e
i x
Ġf ound
åħ ¨
è¡ ¨
. "
in ce
ĠS h
ãģķãĤĮ ãģŁ
æľ Ł
ãĤ ³
Ġbec ame
a h
ãĥ ī
Ġre l
Ġab out
is ion
Ġs uch
ãĤ ª
Ġte am
åĭ ķ
Ġth ree
ãĥ Ĩ
Ġus ed
ãģ ¤
iv ed
Ġp res
å¾ Ĺ
ar s
e ver
al s
ĠTh is
ç Ħ
ì ĭ
Ġs y
åı ¯
ro und
a ce
åĪ ©
Ġth an
el d
å° ı
å» º
Ġf ilm
¸ °
Â ·
ãĤ ı
ç¤ ¾
Ġin v
ĠA meric
é Ł
c c
Ġs ome
Ġe nd
æĢ §
ãĤ ¦
å¤ ĸ
ĠC ol
åĲ İ
p r
ê µ
a j
ç ±
éĿ ¢
ìĿ Ģ
èĥ ½
an n
i k
ãģ Ī
ìĦ ľ
1 2
he n
oc i
at t
Ġc o
a ir
if ic
ä½ ¿
åĬ Ľ
Ġre le
vel op
ë ı
Ġ19 6
æĿ ±
l ed
Ġs chool
at ive
j ect
Ġin c
çŃ ī
Ġde c
an k
ãĥ Ĺ
ĠS he
è ½
Ġa m
ur y
Ġf am
Ġ ent
Ġ 7
æĪ ¦
Ġn um
ãĥ ¡
at her
æ ®
æ¥ Ń
p os
ãĥ ¥
Ġpro v
ì ķ
a z
æī ĭ
ar g
al e
ĠUn iversity
i er
Ġc all
åĨ ħ
Ġbe ing
é »
ãĥ Ĳ
Ġsec ond
Ġì ł
Ġw ell
Ġd o
Ī ëĭ¤
çı ¾
äº Į
em b
ul ar
em ent
å ģ
Ġac c
åĮ º
ê° Ģ
ãģ« ãĤĪ
in es
t en
å½ ĵ
å· ¥
ĠO n
ver y
am es
ot her
Ġse ason
ë ħ
Ġde f
Ġ Z
ãĥ ĩ
è ´
Į Ģ
t il
è ¶
ç ł
Ġagain st
æĺ İ
ar ri
ist ory
ow ever
Ġf ollow
Ġt rans
Ġp os
æ ĥ
çĻ º
Ġs et
é Ĥ
ìľ ¼
å¼ ı
ĠI nd
Ġ 8
in n
Ġ19 4
Ġ1 7
ãģĿ ãģ®
ãĥ £
ãĤī ãĤĮ
Ã ©
e p
ãģ ł
er m
ar l
op le
5 0
ë¥ ¼
Ġ ed
æ© Ł
ãģ¦ ãģĦãĤĭ
æ¬ ¡
Ġman y
å· ŀ
ãĤ µ
Ġap pe
1 1
Ġinclud ing
æĹ ¶
é £
y s
o ber
éĩ Į
åı °
ãģ¨ ãģª
ĠA s
t ain
ç ®
Ġbe fore
is m
Ġar t
ãĥ ĭ
åŃ ¸
i ew
å¤ ©
19 9
Ġp op
ì§ Ģ
ter s
çİ ĭ
ĠC on
ãĤ ¨
Ġs ur
as h
i ke
Ġwh ile
è· ¯
Ġs ign
å ¦
us ic
ë ĵ
åĪ ¶
æĿ ¥
è Ĳ
ĠUn ited
åħ ±
le y
åĽ ł
t y
ur ch
è Ĥ
ä½ ĵ
æľ ĥ
i am
æĹ¥ æľ¬
ut ion
ĠP ro
ãĢ ı
è¨ Ń
ãĢ İ
it s
Ġd ist
çĽ ®
Ġle ad
Ġf our
éĩ į
oh n
ct or
Ġad d
iv er
ĠìĿ ´
s on
å Ŀ
er n
Ġo wn
Ġrec ord
is e
i eld
a id
Ġde velop
ãĥ ł
are er
è ¼
Ġre ce
ar n
Ġ 9
u res
Ġun til
éĥ ½
Ġp h
i red
el f
ä¹ Ł
æ Ł
Ġ1 0
ow er
å Ĥ
ì Ĭ
t ing
Ġ est
" .
ç¾ İ
ist s
l l
Ġe m
Ġsh ow
Ġin st
Ġn o
å¾ ·
ĠS c
æŃ £
å ²
æ º
ut e
è» Ĭ
åĢ ĭ
åħ ĭ
ì ĸ
ä¸ İ
ãĤ Ń
åİ Ł
ãģª ãģ©
æ² »
Ġb ro
overn ment
ers on
Ġb oth
st em
c y
ãĥ ĸ
æ° ´
Ġs er
åĪ Ŀ
åı £
Ġm et
Ġl ife
Ġd ire
1 7
Ġkn own
Ġg o
Ġd ay
e b
âĢ Ļ
ãĤ º
åħ ĥ
Ġh igh
Ġê °
Ġm ain
åį ģ
ĠEn g
ĠCom m
" ,
Ġgro up
åı Ĺ
v ed
un e
ra ph
éĩ ĳ
å ¢
ë¦ ¬
è «
o ot
ãģĵ ãģ®
å® ī
1 5
Ġf in
è ĳ
en n
te nd
ç ³
ç ¦
ç ¸
æŃ ¤
Ġc ount
d er
Ġm on
éĻ ¢
å ķ
ëħ Ħ
Ġm od
Ġc ap
åĵ ¡
Ġ1 6
é ¢
ĠA t
Ġse ver
Ġex p
ãĥ ģ
er man
v en
Ġë °
å ĸ
æ ĵ
1 6
Ġst art
ï¼ ļ
å£ «
Ġo per
ê ²
Ġbu ild
e k
Ġpe ople
3 0
Ġc re
ĠM ay
åĽ ŀ
æł ¡
Ġb ack
èĩ ³
u ally
ĠI s
am ed
iz ed
Ġf l
ra ct
a use
Ġw rit
Ġor ig
åŁ º
çĽ ¸
Ġret urn
ê ¸°
in a
å¥ ³
Ġd if
Ġm ed
ĠF ran
ãĥ Ĭ
Ġw ill
è Ĭ
ĠJ ohn
ãĤ ĵ
us s
f ul
ç ģ
ì ļ
æ¼ Ķ
ur al
Ġch ar
è º
ì ĺ
u ro
s h
Ġ _
Ġm in
å ¡
æ Ĵ
ce pt
O n
ãĤ §
Ġì ķ
ë Ĥ
ãģª ãģĦ
ĠJ an
ãģ ¡
ì Ľ
çĲ ĥ
Ġnum ber
e x
Ġpro g
éĢ ²
Ġcall ed
Ġs m
Ġ Q
Ġare a
Ġcomp le
Ġcont in
ä¸ ª
Ġoff ic
Ġs ing
Ġ1 5
ĠF or
Ġ -
è Ļ
å§ ĭ
Ġo b
éģ ¸
iv es
ction s
ĠS chool
Ġs uc
ĠAmeric an
ç§ ĳ
æķ °
ĠC l
Ġdes ign
t he
Ġop en
p le
åŁ İ
ãĥ¼ãĥ «
Ġe arly
åĲ ĳ
ant s
æ ģ
Ġl ong
Ġbe gan
é ħ
Ġan n
åº ľ
å ³
Ġg ener
Ġs ame
ç· ļ
iss ion
Ġcon st
Ġin t
ãģ¨ ãģĦ
ãĥ ĵ
ĠJ u
ĠW orld
Ġm at
Ġsever al
Ġ '
èĭ ±
æĶ ¹
Ġpubl ic
ä½ Ĩ
c on
çķ Į
b um
ëı Ħ
ĠW ar
å½ ¢
u es
el s
ãģŁ ãĤģ
ion al
ag ue
åį Ģ
ĠS p
Ġpro du
èµ ·
ak ing
ĠB rit
Ġthe se
èĪ ĩ
m y
Ġn ame
Ġch ild
Ġsy stem
u ed
p ed
a x
Ġus e
åĵ ģ
im es
Ġm ay
ĠP h
ul l
æ´ »
Ġc areer
Ġan y
å¿ ĥ
Ġv ar
. .
et s
ç³ »
ar m
p or
Ġ19 5
r id
Ġfam ily
ìľ¼ ë¡ľ
id ed
ç Ŀ
å ŀ
u red
Ġ1 2
ìĬ ¤
is ter
ir d
åı ²
æł ¼
1 4
çĶ °
Ġj oin
ĠA d
ut h
is ed
ë ł
ug ust
il ity
Ġì Ħ
ĠSt ates
æĮ ģ
iv ing
ab l
Ġl and
Ġor gan
19 8
åı ĸ
æĭ ī
æ ¡
olog y
Ġê ²
ãģ§ ãģĤ
i or
og raph
Ġrem ain
Ġe ff
b all
æĦ ı
ib le
éĽ »
ë Ĳ
aj or
v ent
Ġs ong
Ġr un
Ġfe at
u ary
ë ©
Ġm il
en g
Ġd id
e y
a red
ĠG erman
æ §
å Ħ
ĠN ational
ìĸ ´
a i
ro ss
ĠY ork
r ist
èª ŀ
Ġsup port
æĮ ĩ
ment s
tern ational
· ¸
i ent
Ġc ity
il la
èº «
Ġcol le
ĠW h
äº ¤
Ġrele ased
ĠA fter
ra nd
åı ĳ
ĠA ugust
Ġì Ĺ
ìĹĲ ìĦľ
en e
ĠN ov
Ġal bum
Ŀ ¼
it al
Ġg overnment
ë §
Ġb el
x t
Ġser ies
et y
pt ember
âĢ Ķ
il t
å¸ ĥ
Ġn ear
Ġplay ed
Ġin f
Ġp rom
ĠA ust
äº ¬
ãĥ Ł
ĠThe y
b y
ç± ³
æ¯ Ķ
ä¿ Ŀ
in ed
Ī ĺ
Ġm usic
Ġb l
Ġa ir
ãĤ¹ ãĥĪ
åı ¸
ìĿ ¸
an ge
ãĥ ĳ
çĻ ¼
ç¥ ŀ
ĠH is
in k
Ġì ĭ
å¸ ¸
¶ Ģ
ĠSe ptember
ãĥĥ ãĤ¯
ĠJ une
Ġw on
çµ Ħ
duc ed
Ġg ame
Ġc ould
ĠO ct
a u
è Ĺ
æĶ ¾
ĠMar ch
Ġst ate
Ġpart ic
re t
Ġal ong
Ġprog ram
ç© º
éļ Ĭ
ric t
ãģ« ãģª
1 3
ãģĹãģ¦ ãģĦãĤĭ
ro p
ĠJu ly
éĽ Ĩ
ul ation
å½ ±
i um
Ġcomm un
å¯ ¾
æı Ĳ
Ġd r
å ĥ
ãģ Ľ
Ġdis c
ro l
ãģĦ ãģ¦
ĠJan uary
æ ħ
om en
ĠOct ober
ç ¿
Ġp ass
o ard
r is
Ġb ook
pr il
ar ch
Ġ19 3
Ġo cc
Ġhe ad
è¦ ĭ
Ġg u
ĠC an
å° Ķ
Ġto ok
Ġst r
ical ly
æµ ģ
Ġres ult
è ı
è¨ ĺ
ãĥª ãĥ¼
av ing
ãģ¨ãģĦ ãģĨ
m ber
åĨ Ľ
Ġspe c
ë Ŀ¼
ç į
ãģ ¿
ĠC ent
o x
æ ·
f ess
ĠS outh
çĽ ´
ĠE uro
ãĥ §
ãĤĪ ãģĨ
ill ion
Ġs ince
éĢ £
ĠB e
p art
ç ¯
ãģ °
Ġ $
ov e
ĠA pril
é ©
åĭ Ļ
éŁ ³
er y
Ġs im
Ġsuc cess
Ġsm all
íķ ´
ch n
Ġto wn
çµ Ĳ
la y
æ ¶
è İ
éĢ ł
åŀ ĭ
å° ±
å· Ŀ
emb ers
H e
Ġh ouse
Ġc ur
é ľ
k m
a ugh
Ġin s
ce mber
pe nd
ç½ ®
al es
æĽ ¸
Ġdif fer
æİ ¥
Ġpla ce
ic es
ãģ ¸
Ġp oin
ä¿ ¡
Ġ âĢĵ
ä¸ ¦
åĽ Ľ
Ġë §
å¹´ ãģ«
Ġe ach
ìĭ ľ
è¿ ĳ
om an
çĶ »
ãĤ »
Ġê ³
çĪ ¾
æ ¹
Ġcomp any
Ġest abl
æ¸ ¯
ar ge
ë °
Ġhe l
ãģ¾ ãģŁ
ĠNov ember
í ĸ
Ġn amed
Ġì §
Ġloc al
å® ĺ
ĠH owever
Ġh ome
ĠDe cember
iv al
Ġ1 4
v iew
éĩ ı
ward s
ĠO r
Ġm ajor
t le
ï¼ī ï¼Į
å¹ ¶
è¨ Ģ
ãĥĥ ãĥĪ
Ġs aid
çŁ ¥
çľ ģ
Ġa ge
å¤§ åŃ¦
ĠP r
è§ £
ren t
éģ İ
ĠĠ ĠĠ
Ġa round
ĠG e
ĠM an
Ġre port
ãĤĤ ãģ®
ãĥ¼ãĥ Ī
çĦ ¶
å§ Ķ
èŃ °
Ġrece ived
æ ¢
b le
19 7
Ġd own
Ġt r
æ į
ç® ¡
e le
ãģ ĺ
ãĥ³ãĥ ī
i ence
ĠC ity
ore d
ĠC ount
ĠA ss
a f
ian s
åĳ ½
g ed
å¤ ª
Ġo ld
Ġre f
Ġw orld
é¦ ĸ
Ġle ft
Ġb and
th ough
ãĥ ı
Ġn ow
è ±
arri ed
£ ¼
ent ly
é¦ ¬
ï¼ Ľ
Ġcl ub
Ġbec ause
å Ķ
é ¤
Ġfollow ing
p ro
Ġen g
Ġfor mer
m ed
Ġt it
in ess
ì Ĥ¬
ç ĭ
éģ ĭ
r ing
Ġb us
Ġhe ld
ĠBrit ish
Ġre st
Ġ201 0
ç´ Ħ
Ġm embers
Ġpol it
åı į
Ġc our
Ġex t
ĠU S
res ent
Ġcl ass
å³ ¶
æ £
éĢ Ļ
oun g
ĠEuro pe
Ġ19 2
la ck
Ġc amp
ãĥ Ģ
ä¾ Ĩ
è¿ Ļ
èī ²
åı ¤
è °
or m
ĠN orth
Ġdes c
amp ions
å° ĳ
ãĥ³ ãĤ°
y n
g et
ĠCol le
æľ Ŀ
Ġcent ury
Ġê ·¸
Ġl aw
éĸ ¢
Ġb orn
Ġserv ed
ord ing
Ġ1 3
m in
ĠB ro
æĶ ¯
on y
é §
om et
an e
at ely
ĠI I
ì Ļ
Ġ201 1
Ġcon c
Ġchar act
åĪ Ĺ
at or
Ġev ent
ĠAl l
eb ru
ebru ary
ãģķãĤĮ ãĤĭ
ç¤ º
Ġde ath
l ing
é Į
v ers
ç¨ ĭ
Ġre qu
Ġbu ilt
åı ·
å° į
å¯ ¹
ê³ ¼
å° Ĩ
æĽ ²
Ġl ast
åĨ į
b or
in c
å± ķ
çĤ ¹
on t
he s
Ġd et
ãĥ Ļ
Ġc ar
h am
Ġm ember
i od
os s
Ġl ine
Ġt erm
pe ct
çł Ķ
çŁ ³
Ġ201 2
ition s
Ġd ied
æŀ Ĺ
ight s
éķ ¿
Ġl arge
ĠW ill
ĠF ebruary
er t
Ġd ue
è¨ Ī
at s
ag es
Ġt ri
il le
re w
ĠG u
Ġal low
ãĥ ¢
æĽ ´
ot t
Ġf inal
ĠK ing
as ter
Ġpres ent
m e
y l
Ġm ark
ãĤ ¬
Ġst ation
æĹ ı
re en
is c
al th
ç ¹
uc k
å Ļ
å¼ Ģ
ç§ °
ç Ĭ
æŀ ľ
åĲ Ħ
Ġcon f
che s
ìŀ Ĳ
Ġ200 8
Ġbuild ing
Ġ200 9
åĭ Ŀ
oun c
å¦ Ĥ
ëĤ ĺ
ĠE d
ë ¬
id es
ro w
Ġë ĭ
i et
19 6
ãĤ¿ ãĥ¼
ç¨ ®
ç¾ ©
qu e
Ġde b
Ġmov ed
Ġ201 3
å± Ģ
Ġd em
ãĤ ½
er ing
ëĵ ¤
ru ct
ĠAust ral
p s
æ² ³
un g
ĠC ar
ä½¿ çĶ¨
Ġad v
Ġ201 4
Ġinc re
Ġcons id
Ġf ac
åħ µ
d ay
ĠA m
us ed
ì ¹
Ġed uc
Ġapp ro
ì ĥ
Ġ &
ĠP ol
Ġl ike
la im
Ġt y
le t
Ġst ill
ãģ¾ ãģ§
å° ¼
å ¨
u ff
ë ĮĢ
if ied
ĠSt ate
at ic
Ġs ix
r ation
Ġì ĺ
åħ ī
ĠCh rist
at ure
st it
v es
Ġj ust
st er
è į
ĠC al
ubl ic
ë ³
ie f
åı Ĥ
Ġì Ĥ¬
Ġchild ren
ne y
Ġv is
al k
19 4
ĠC o
ãģ ³
in ing
ë ŀ
åħ Ī
Ġv ers
iv ely
Ġ very
ãĤı ãĤĮ
Ġinclud ed
Ġl it
Ġp erson
i en
Ġpubl ished
å¼ ķ
Ġs on
iz ation
æĺ Ł
Ġì ľ
Ġcomp et
Ġle g
g y
c om
Ġan other
Ġê µ
ist or
iv en
Ġë ĮĢ
çµ ±
ĠA f
tend ed
Ġf ive
n er
Ġ201 5
åŃ Ĺ
Ġp ost
ri end
ĠB ar
ĠH ar
Ġw ater
éĩ İ
H istory
ä¸ĸ çķĮ
å¤ «
Ġth ose
æŃ »
Ġsing le
æ »
éĢ ģ
ren ch
Ġman ag
Ġper iod
ĠM in
re et
æĥ ħ
ial ly
éĺ ¿
ç© ¶
ĠThe re
åĬ ¨
Ġwith in
2 5
Ġ200 7
Ġn ational
od e
å® Ł
Ġ if
Ġres p
ë ¶Ģ
ãĥ¼ãĥ ł
Ġw ar
Ġt rad
ampions hip
Ġw ay
ãĥ³ ãĥĪ
éļ Ľ
it ary
Ġper form
Ġp o
l u
ĠColle ge
æŃ ¦
Ġf ather
çĦ ¡
Ġb ased
iv ision
ĠW est
ãĥ¼ãĥ ī
Ġis s
Ġl arg
ĠE m
Ġsh ort
Ġex per
ëĲ ĺ
æ± º
Ġl ed
Ġm ake
Ġa v
Ġ1 1
ç ¢
ãĤ ¡
æ± Ł
ä» ¶
Ġto p
oc ial
Ġë Ĥ
Ġp ower
äº Ķ
æĪ ĸ
åŃ ĺ
ĠE x
ur g
ç Ĺ
n ess
ĠM c
ãģ ļ
Ġev en
æ ¦
Ġ201 6
ak es
Ġst and
çłĶ ç©¶
è Ħ
æī ĵ
uth or
ï¼ī ãĢģ
w ork
Ġatt ack
Ġdiffer ent
Ġh and
Ġth ough
Ġloc ated
s ide
å· ´
Ġ X
ed er
æĶ¿ åºľ
iz e
ap an
ãĥ ´
Ġadd ition
om in
ond on
al ity
ĠGe or
Ġd ra
Ġann oun
ä¸ ľ
ĠT e
é Ń
Ġpop ulation
p ar
ãĥ Ŀ
ĠH er
Ġmon th
çµ Į
ç« Ļ
Ġc or
è¿ Ľ
is on
att le
inn ing
ur s
Ġappe ar
ìĿ ¼
od y
ĠE l
Ġserv ice
ounc il
Ġpro ject
Ġinclud e
Ġwh at
Ġh istory
ç ²
éģ Ķ
åĳ ĺ
ru ction
z e
o ad
Ġc rit
ard s
Ġim port
çī Ī
Ġë ³
Ġc ame
id d
Ġv illa
as k
es e
ĠA nd
ĠLe ague
Ġ19 0
Ġbe g
ãģĵ ãĤĮ
ï¼ī ãĢĤ
Ġdesc rib
Ġp at
Ġn orth
re ad
ĠCount y
í Ļ
ìķ Ħ
Ġë ı
an c
Ġof ten
æ´ ¾
ãĥ į
Ġth ird
è ĺ
Ġw ent
Ġorig inal
ĠCan ad
al f
ç¶ ĵ
ç» ı
ug g
Ġ3 0
Ġs old
ri pt
ograph y
t al
ĠL ondon
êµ Ń
ĠP ar
Ã ¡
ĠH igh
v ious
Ġs ide
Ġm uch
Ġam ong
ĠF rench
Ġstart ed
et er
s c
åķ Ĩ
Ġt urn
Ġm illion
Ġp ar
ãģķãĤĮ ãģ¦ãģĦãĤĭ
ë į
åŁ Ł
Ġl ate
ç§ »
pl oy
åĻ ¨
Ġe p
am b
åİ »
Ġ200 6
ad em
Ġg rad
f ord
Ġk ill
ĠS w
T h
åľ Ł
ĠP res
l ish
è¿ ĩ
Ġl a
ãĥ ¯
èĤ ²
Ġ es
S t
Ġpos s
èĳ Ĺ
ĠB l
Ġh um
ĠP ark
ĠA b
Ġm en
con om
ìł ģ
éĸ Ģ
Ġrep resent
æľ º
Ġ201 7
Ġe very
æŃ Į
ut ed
s elf
Ġp ort
Ġsh ip
Ġs qu
em pt
ìĺ Ģ
ĠWill iam
C h
æĽ ¾
es tern
c hed
2 1
ĠJ apan
é¦ Ļ
äºº åı£
os p
í ĺ
çķ ¶
Ġle vel
æĪ °
al d
Ġinv ol
Ġy oung
åħ ļ
ang u
ãģ£ãģ¦ ãģĦãĤĭ
Ġro le
ĠS y
Ġpro fess
Ġw in
l or
ro te
ĠA ir
Ġor der
en cy
um ent
Ġeff ect
ĠS ec
ãĤ ±
Ġbec ome
ĠP art
Ġbus iness
æ ļ
ìĻ Ģ
Ġjoin ed
Ġw omen
Ġ2 5
2 4
ĠCom p
ãĥ Ħ
ur ther
åĮ ħ
g es
Ġe qu
at a
çİ °
æ¸ ħ
è Į
ãĥ İ
ãĥ© ãĤ¤
Ġwork ed
æĪ ĺ
Ġë ª
çĻ ½
Ġannoun ced
å· ²
Ġcount ry
Ġact iv
Ġf act
å° ĩ
ĠC or
Ġreturn ed
çľ Į
ë ª
Ġc ult
Ġs outh
Ġestabl ished
åĳ ¨
ç¬¬ ä¸Ģ
are n
Ġa ff
ë Ł
) ._
Ġapp oin
äº Ľ
an a
oot ball
Ġ18 9
as es
éĿ ŀ
è£ ½
Ġin it
Ġc laim
Ġcont rol
¡ °
Ġch ang
ing ton
Ġm arried
å¸ Ŀ
Ġne xt
çĻ »
Ġte chn
ìĹ Īëĭ¤
ë ²
äº ŀ
u k
Ġd el
ĠEng lish
e g
ra y
åħ §
å± ŀ
re st
A fter
éĹ ´
ä¸Ń åĽ½
Ġn on
ãĥ ľ
Ġf ew
éł ĺ
å® Į
èª į
ist ed
Ġc r
m s
ì ²
ĠAf ric
Ġwe ek
Ġcharact er
in o
Ġrep la
v ision
Ġcur rent
çµ Ĥ
a ul
pos ed
çĶ µ
rid ge
ê² Į
ĠR iver
åĪ ¥
ç¦ ı
Ġ201 8
19 5
ĠR uss
åł ±
ä¸ ĩ
ĠM ed
e ad
Ġpro cess
ãģ§ãģĤ ãģ£ãģŁ
Ġt ake
ãĥ¼ ãĤ¹
Ġst at
ener al
ãĤ ®
ap p
Ġprom ot
l er
é ¾
e v
en se
o f
Ġb est
æĶ »
è¡ ĵ
æĬ Ģ
ãģ« ãģĬ
Ġdevelop ment
Ġstud ents
çĪ ¶
Ġs ent
Ġp ain
ìŀ ¥
op s
Ġh owever
ĠAn g
Ġre se
ri es
Ġf ore
ãģĭ ãģ£ãģŁ
m it
æ³ ¢
ìł ķ
çİ ĩ
Ġs k
Ġg reat
on es
æľ ¨
åį ¡
oci ety
Ġv al
4 0
_ _
é º
åį Ĭ
Ġh aving
2 3
for man
ä¿ ®
Ġì Īĺ
ĠD uring
Ġc over
Ġ 0
ãģ¨ãģª ãģ£ãģŁ
n a
et h
ãģ¦ ãģĦãģŁ
Ġw rote
æĬ ķ
Ġcl os
Ġr ad
ra ft
ron t
Ġbe h
æ ¿
Ġg ames
ay s
çĿ Ģ
Ġf re
e pend
í ĥ
Ġne ed
Ġìŀ Ī
ì Ĩ
Ġvar ious
Ġte le
Ġcontin ued
Ġs ol
our n
a ff
Ġa uthor
Ġm ag
ä» ¤
Ġg r
é« Ķ
ent ion
Ġar ch
ĠRe p
Ġb re
ar a
Ġus ing
éĢ Ģ
Ġc a
äº ļ
Ġpre vious
i ber
om b
ãĢģ ãĢĮ
æĹ¥ ãģ«
he m
¤ ĳ
èĢ ĥ
åº §
ãģĵãģ¨ ãģĮ
ĠB y
ä» Ĭ
ãģĬ ãĤĬ
ot s
éħ į
ac hed
Ġs it
ĠRe g
è Ĵ
ĠS an
çĶ ·
a pe
é Ĭ
ĠH ouse
l in
Ġspe cial
ç ª
çķ ª
ä½ ı
Ġdef e
Ġa ward
ãĤ· ãĥ§
se qu
2 2
å® Ĺ
6 0
Ġv ot
Ġ18 8
oci ation
Ġpro te
ĠD av
t i
ĠB r
ain ed
ak en
ä» ĺ
Ġì§ Ģ
c o
å¸ «
í Ĭ
Ġg iven
Ġ2 4
re g
Ġf ield
Ġcommun ity
Ġìĭ ľ
Ġ200 5
Ġt w
ç¶ ļ
èĲ ½
oy al
Ġtit le
ãģ§ ãģį
ä¸ ļ
ĠS up
å¼ ·
ãĥ³ ãĤ¹
Ġf riend
um b
Ġinter est
ä¼ Ĭ
è© ²
Ġpos ition
ĠW hen
op h
ĠPh il
éĢ Ł
Ġcre ated
éĻ į
h a
iv id
ë© °
o on
å½ ¹
ir c
ãģ Ĵ
Ġto tal
ĠL a
è½ ¦
ìĦ ±
é© ¬
ĠR es
ãģĹãģ¦ ãģĦãģŁ
æŃ ¢
' t
Ġtra ck
ĠT r
è« ĸ
ric k
y le
æĻ ®
il ar
Ġatt empt
ë ¯
Ġorig in
ä¾ ĭ
2 8
Ġre n
ãĥª ãĤ¢
ç ĥ
l ine
ãĥĨ ãĤ£
A s
ĠIt al
Ġp ract
æ Ĳ
ä¾ Ľ
Ġpop ular
Ġwith out
ord s
Ġpolit ical
ir on
Ġf em
Ġgener al
Ġprodu ction
åľ º
è© ¦
ĠCh urch
Ġf ind
2 7
Ġcomm on
av y
å® ¹
ìĽ Ķ
ĠIn ternational
å ´
cc ording
ĠEng land
ĠW e
ä»£ è¡¨
Ġ âĢľ
ç´ Ģ
çĶ º
Ġinv est
éĺ Ł
h old
Ġs ite
å° İ
us h
çļĦ ä¸Ģ
c ent
æľ ª
Ġch urch
èĪ ª
part ment
æĸ ½
ĠThe se
æ§ ĭ
ãģ«ãĤĪ ãĤĭ
ìĹ ¬
è³ ĩ
c ast
and er
p ress
or ies
Ġt em
Ġper forman
iv il
é¡ ŀ
ãģĿ ãĤĮ
Ġbro ther
å¥ ½
Ġs um
¹ Ħ
ow s
B C
Ġday s
e f
fer ence
ç ĸ
åĬ ©
o le
íķĺ ìĺĢ
Ġs l
ãĤ¤ ãĥ³
19 3
éĥ¨ åĪĨ
åŃ¦ æł¡
ide o
è ĸ
Ġex amp
æĿ İ
è¯ ¥
åĤ Ļ
èª ¿
è§ Ĵ
ĠE ast
æ± Ĥ
2 6
s p
æĸ Ļ
h ib
Ġì ĥ
Ġint ro
Ġ20 00
l ess
éĻ ¤
Ġmil itary
çļ ĩ
åħ¬ åı¸
Ġdire ct
im ent
ĠC up
æ ¤
Ġê° Ģ
le ct
og n
íķ Ļ
Ġê ¸°
o ff
åį ³
ãģ«ãĤĪ ãĤĬ
form ation
æł ¹
Ġk e
å¤ ±
åĬ Ł
ĠPres ident
æ° Ĺ
Ġwork s
Ġele ct
ãĥ¥ ãĥ¼
æ¯ į
Ġh istor
a ign
Ġìł Ħ
ĠO ne
åĪ ¤
ãģ »
it or
è¶ ³
ain s
Ġp ri
Ġre al
Ġsign ed
ìł Ħ
åĳ Ĭ
åĽ £
in t
ĠAr t
ìĽ Ĳ
Ġ1 00
åı¯ èĥ½
ĠA c
Ġt imes
å½ ¼
ç´ ļ
é¡ Į
an ces
æ ĩ
ĠSt reet
è£ ħ
Ġdis p
an i
Ġd augh
ç Ĩ
è® ¾
Ġv iew
e an
ãĤ ¶
å± ħ
ì £¼
åķ ı
ãĤĪ ãĤĬ
use um
Ġro und
Ġeduc ation
b s
Ġpr im
Ġf ull
éĺ ²
Ġl angu
Ġmat ch
Ġind ust
Ġopen ed
ãĥ ļ
è ħ
Ġoffic ial
Ġë ĵ
æ Ĥ
Ġf un
Ġinf lu
Ġh ost
è ¬
k s
ãĤ ©
Ġf urther
Ġl ost
Ġhel p
ãĥ Ķ
Ġw ife
Ġh ig
Ġl ab
in ation
íĬ ¸
al t
æ® µ
Ġgrad u
ãģ«ãĤĪ ãģ£ãģ¦
Ġpro duced
ãĥĩ ãĤ£
èµ Ľ
é ĵ
get her
r ated
Ġto gether
æŃ ´
ç ħ
èı ¯
her n
ĠM on
ĠD ist
Ġimport ant
Ġd est
Ġst ory
Ġvilla ge
g er
éĻ Ĳ
A n
Ġwork ing
fer red
land s
f ield
ivid ual
Ġra il
æ¡ Ī
äº ī
is ing
åħ «
2 9
Ġ18 7
Ġf und
m i
è³ ½
ä½ľ åĵģ
a e
ĠAr my
çī ĩ
ãĥ Ľ
çı¾ åľ¨
Ġpartic ip
Ġappoin ted
y ear
ol ution
Ġar r
æº Ĳ
Ġg ood
our s
Ġ el
å¼ µ
y ing
Ġhim self
ĠS er
ab ly
æĺ ł
åĲ ī
Ġs ocial
c er
ĠC ouncil
ç¾ ħ
u el
Ġde g
ĠH ol
Ġ200 4
re am
Ġl im
é£ Ł
Ġs w
ĠG ro
et work
ers hip
å¥ ¹
åı ª
ãĤ ´
Â ²
it te
ãģ¨ ãģ®
ut es
åĳ ¼
ĠCh ampionship
un ic
Ġa ver
ĠS ch
Ġcom b
çľ Ł
æ° ı
åį ļ
æĻĤ ä»£
Ġappe ared
å¹´ ãģ®
æİ ¨
Ġme et
é ī
æ ½
Ġ ident
Ġt er
Ġsh ould
é¤ ¨
ĠG eneral
Ġt est
Ġr ight
Ġeng ine
å® ¢
Ġ2 1
Ġl ess
åĦ ª
ç ĳ
çģ «
å¯ Ĩ
pe cial
Ġe conom
Ġg et
id ence
Ġre ad
Ġrese arch
å ©
am ent
èĬ ±
Ġpro per
ç ĩ
Ġsim ilar
æ¦ Ĥ
ãģĮ ãģĤãĤĭ
ç ¼
Ġpr iv
ĠC our
Ġm y
é¦Ļ æ¸¯
Ġvers ion
Ġro ad
ãģ§ ãĤĤ
ĠP ort
u it
at ter
ìĿ´ ëĭ¤
çļĦ ãģª
Ġconsid ered
åħ ©
ä¸ ¤
e e
ĠG l
olog ical
ãĤ ²
æ¨ ©
ĠB er
Ġcomp os
ir l
Ľ Ħ
ìĥ ģ
é İ
åı¯ ä»¥
åħ Ń
Ġgro w
ort hern
Ġ18 6
ar i
ãĤĮ ãģŁ
m m
Ġep is
Ġreport ed
pl ic
Ġh alf
o or
å® ¤
if orn
ou ther
éł Ń
´ Ģ
å® £
Ġpoin t
Ã ³
Ġbel ie
ç· ¨
le x
ac y
." _
å¾ Ģ
Ġele ction
ãģĹ ãģĭ
è¦ ª
Ġdescrib ed
ish ing
Ġv ol
Ġne ver
ãģª ãģı
ãģ¨ ãĤĤ
ì Īĺ
Ġind ividual
ur b
Ġb as
ant ed
ra p
ĠP l
é§ ħ
ĠInd ian
min ist
ãĥ³ ãģ®
ĠEurope an
ļ Į
èĪ ¹
ä¸Ń å¿ĥ
outher n
Ġf ail
Ġspec ies
Ġtrad ition
ĠA g
Ġìķ Ħ
ìł ľ
Ġm other
er a
Ġc er
ĠS m
çĶ £
en ces
æĦ Ł
w h
çĬ ¶
iforn ia
ree k
ãĥ¼ ãĤ¯
ĠM ich
éĽ ¢
éĿ Ĵ
Ġm aking
Ġ2 3
ap er
v ille
Ġpart y
it her
åħ¬ éĩĮ
Ġh old
ç¨ ±
port s
Ġfound ed
ãĤĮ ãĤĭ
ell s
è¡ Ĺ
ãĤ¸ ãĥ£
Ġcon d
æĹ ©
ĠP er
Ġë ¬
çį ²
am a
Ġem ploy
as tern
ëĵ ľ
ë¥ ´
.. .
éĸĭ å§ĭ
Ġst ruct
åıĹ ãģĳ
æĿ ¡
å¤ ī
è¦ ĸ
æ´ ²
e h
ĠN o
æ¯ ı
Ħ °
åı Ī
ĠCh ar
Ã Ń
ãĥª ãĤ«
Ġt ro
op e
Ġm er
ãĥĹ ãĥŃ
A l
æķ ħ
u le
Ġare as
Ġìŀ Īëĭ¤
ĠA ct
Ġh ous
Ġv ict
æľ į
m p
ĠFran ce
êµ ¬
çĿ £
èī ¦
Ġother s
æ ĳ
ç½ Ĺ
ç ĵ
g round
E arly
Ġbro ad
ĠCal ifornia
å¢ ĥ
Ġc le
Ġoff ice
ãĤīãĤĮ ãģŁ
ĠPart y
ic o
Ġplay er
re m
Ġpres ident
stit ute
i ol
Ġ ide
Ġg l
ãģ« ãĤĤ
Ã ¼
åģ ´
ç¸ ½
Ġm ater
éĻ ¸
ĠP e
Ġin ternational
Ġform ed
Ġh on
Ġdo es
at ch
èģ Ķ
çº ¿
Ġreg ion
Ġv ideo
m ost
p ite
æĥ ³
åº Ĺ
way s
Ġdeb ut
éĥ ¡
ä¸Ń åľĭ
Ġcamp aign
æĢ Ŀ
äºº æ°ĳ
Ġor d
Ġgro und
Ġdevelop ed
ĠQ ue
å£ ²
íĻ Ķ
ill s
it ing
nd er
æĪ ĳ
å¹´ ä»£
n ing
id ing
åĢ ĳ
Ġh ow
ãĢ ħ
æķ ´
Ġí ĺ
i us
ä» ¬
ĠTh om
it ect
Ġf ire
íķĺ ëĬĶ
ĠAmeric a
ç¬¬ äºĮ
éĹ ľ
ĠP al
Ġc ase
èģ ·
é¢ ¨
ãĤīãĤĮ ãĤĭ
ĠGeor ge
ãĥ¼ ãĤº
ãģ§ãģĤ ãĤĬ
Ġexamp le
ĠR oyal
Ġy ou
Ġal though
æĶ ¶
Ġrel ations
Ġsuccess ful
å® ĥ
Ġsign ific
åħ ³
ol l
Ġstr ong
ĠV al
Ġmonth s
Ġrele ase
ç§ į
Ġl ow
ĠN or
Ġele cted
Ġav ail
ĠInd ia
Ġ2 2
ĠR ec
s k
ĠJ ames
ä¹ Ŀ
æ¨ ¡
è¿ °
åİ ¿
é ¨
æĢ »
Ġb ody
Ġm ult
èģ ¯
201 0
Ġ2 8
Ġhum an
ë§ Į
æķ ¸
itte e
Ġg ave
ĠRep ublic
è± ¡
idd le
Ġa way
Â °
ĠAustral ia
æİ Ī
Ġmod ern
et t
ãģł ãģ£ãģŁ
Ġm id
Ġ200 3
Ġc ast
n ect
ĠB el
ãĥĥ ãĥĹ
v an
one y
ãĤ¢ ãĥ«
å® Ī
Ġt en
ãģª ãģĭãģ£ãģŁ
åį ĥ
åľ Ĵ
è¶ ħ
Ġvar i
å¿ µ
c raft
ë© ´
ĠM or
éĮ ²
Ġ2 6
Ġwrit ten
Ġ2 7
ough t
Ġrecord ed
åī ¯
è¦ ı
ĠAss ociation
Ġs uff
ĠW ith
åį Ķ
ic a
ĠUn ion
ëı Ļ
Ġa ut
d e
æ¥ ½
Ġdaugh ter
ach ing
ĠD r
Ġê² ĥ
n ow
ĠR oman
Ġremain ed
ç Į
ce ed
Ġla un
Ġ199 0
ra in
ĠD es
æĶ¿ æ²»
ãģ« å¯¾
ĠH all
ĠComp any
èŃ ¦
ĠQ u
ãĤ¹ ãĤ¿
å¤ ®
è¶ Ĭ
om m
Ġd iv
Ġac ross
Ġcont ract
çĹ ħ
ĠD ivision
å¯ º
200 9
Ġc ost
åĥ ı
åĪ ĩ
at ors
ç¸ £
Ġag re
ĠA p
8 0
est ival
ĠR ober
o e
Ġty p
ãĤ į
è³ ŀ
ä½ ķ
Ġcont rib
å± ĭ
Ġm ot
Ġfollow ed
Ġde v
Ġ [
ol ic
u f
Ġ íķľ
d om
Ġt aken
Ġì ļ
c ing
Ġs omet
Ġp ut
Ġl iving
Ġplay ing
ĠR ich
Ġdist rict
ell ow
en ed
ens ive
Ġaver age
ãģ ¹
Ġìł ľ
Ġmil es
åī ĩ
ĠDist rict
åħ ·
Ġdire ctor
æ´ ĭ
Ġrec ogn
I t
he l
å¹³ æĸ¹
è¯ Ń
ib r
å¨ ģ
ä¸» è¦ģ
a el
Ġconst ruction
ãĢ Ģ
ra g
Ġserv ices
é ª
Ġìł ķ
Ġf ree
ì¹ ĺ
ä»¥ åıĬ
Ġle t
åĲĮ å¹´
wo od
è¾ ¾
ar th
æĺ Ń
ãĥķ ãĤ¡
ourn al
Ġl ive
ãĥ ¤
an ish
ist ic
ä¸ Ķ
çķ Ļ
íĸ Īëĭ¤
Ġon ce
Ġtele vision
Ġl ight
è© ±
Ġh y
ç´ ł
Ġre view
ĠL ou
Ġbec om
Ġf oc
ĠCour t
Ġre v
Ġb lack
ign ed
å¾ ŀ
Ġac qu
åł Ĥ
Ġde p
Ġe ast
å° Ħ
Ġcomple ted
æĭ ¬
å¯ Ł
Ġse par
ugg est
ç» Ł
è³ ª
å¿ ħ
è¡ Ľ
åį İ
ä» İ
ĠìĿ ¼
Ġim pro
ãģ§ ãģ®
ä½ İ
Ġf ootball
Ġind epend
å¡ Ķ
Ġì ¤ĳ
èĺ Ń
Ġperform ed
Ġn ov
Ġex pl
æ´» åĭķ
Ġë ¶
Ġc ross
Ġë Ĳ
ä¸Ń å¤®
éĿ ©
Ġs uggest
çĻ ¾
ãĤĴ è¡Į
äº Ī
ì °
Ġto ur
Ġp ress
ber t
èµ °
Ġpro duc
Ġ íķ
ag o
il ities
b and
Ġm ust
Ġavail able
å· ±
ip p
å¸ Ń
Ġ5 0
Ġw est
ç» Ħ
. ,
ç¶ Ń
Ġ200 1
åŃ £
ĠCanad a
å¸ Į
ĠR ed
ĠM e
im ately
ãģ¸ ãģ®
Ġpoin ts
all s
éĢ ī
ro y
ãģ« ãģ¤
ĠR oad
ĠM il
it ive
ãģĳ ãĤĭ
Ġ200 2
m ing
Ġpro ble
Ġí Ļ
Ġstud y
åĬ ĩ
Ġevent ually
arl iam
, "
æĸĩ åĮĸ
her s
è® ¡
Ġpl an
Ġì Ĩ
ĠH en
ç Ĵ
Ġab le
Ġmater ial
åĲ «
çł ´
Ġ198 0
f ic
æ· ±
ic le
Ġcomm and
ĠA ward
Ġtra ining
Ġen c
Ġmark et
ãģĿãģ® å¾Į
æĴ ĥ
å¾ ©
ke y
ãģ¨ãģª ãĤĭ
ific ation
æ¹ ¾
ãĤ¢ ãĥ¡
éĽ ·
Ġìŀ Ĳ
Ġì ²
ent ial
c le
æ§ ĺ
æ¶ Ī
arliam ent
ĠO ff
eder al
ìļ ©
í Ħ°
Ġse en
Ġfor ces
Ġg en
i ers
m a
osp ital
ĠM ary
Ġst e
ĠS en
èĻ Ł
v al
çº ¦
ĠM al
çĭ ¬
ĠSt ud
ch ie
ĠP aul
äº ¦
Ġ20 19
åħ °
v iron
Ġr ul
çĶ ²
Ġfin ished
y a
Ġinvol ved
Ġra ce
s hip
æĻ ¯
ag ed
Ġin j
ĠJ ew
çĽ Ł
ç¾ ¤
Ġf ront
ĠGerman y
Ġì £¼
åī µ
i que
Ġev ents
ul arly
æĭ ħ
æķ Ĺ
Ġperforman ce
il i
h od
Ġthrough out
íķĺ ê³ł
r ig
Ġd am
ä¼ ¯
Ġst ar
Ġrel ig
Ġb o
Ġcon du
a ur
m en
äº §
è® ®
he re
c ript
Ġc irc
Ġs our
oc r
åŃĺ åľ¨
ãĥ Ĵ
åº ĥ
i j
Ġf ight
å® ³
ãĤ¢ãĥ¡ ãĥªãĤ«
Ġd oc
æĿ ¾
æĺ ĵ
ĠT ra
íķĺìĺĢ ëĭ¤
è¿ Ĳ
ab ility
Ġph ys
ell ing
ãģķ ãģĽ
ĠSt e
ç© į
å¾ Ī
ines e
ĠP at
ĠD em
Ġre d
Ġe arl
ãĤĴ åıĹãģĳ
Ġe arn
Ķ Ħ
Ã ¶
çĶ ¢
ĠF rom
adem y
on st
Ġac cess
Ġ2 9
Ġì ĸ
rough t
ãģĹãģĭ ãģĹ
Ġre b
í ļĮ
åĮħ æĭ¬
Ġb oard
í Ĩ
ä¹ ¦
Ġ z
Ġsignific ant
æ¨ Ļ
Ġc ou
Ġprodu ct
Ġdesign ed
è© ķ
az ine
åį °
as ing
æ£ ®
201 1
ĠCent er
at ory
I I
Ġph ot
éĥ İ
Ġ197 0
Ġcour t
3 5
æĦ Ľ
200 8
Ġl ist
Ġlead ing
ĠDav id
Ġass oci
ut ive
it z
A t
èĩ ´
Ġlangu age
Ġsub sequ
Ġr ank
åı İ
ãĤģ ãģŁ
Ġb ase
ä¾ ¿
æĿ± äº¬
ash ington
Ġcap t
b e
ãģ«ãģĬ ãģĦãģ¦
b urg
Ġent ire
ĠB lack
Ġro ck
om s
èŃ ·
Ġst ated
æķĻ èĤ²
è¼ ī
ĠIn stitute
7 0
èª ¬
ĠM ag
åľ° åĮº
± °
201 2
Ġt re
Ġs aw
ra b
Ġass ist
1 00
p ing
è» ¢
Ġëĭ ¤
ä¸ ¡
at ural
Ġë ²
ĠS ociety
ãģ«ãģª ãģ£ãģŁ
å® ®
ĠR ail
å¿ Ĺ
g o
du ction
ì Ĥ
Ġle arn
ĠDe partment
èī ¯
ĠL aw
em ents
st on
st and
ëŁ ¬
Ġin formation
Ġprov ided
ber g
Ġhe alth
Ġfeat ured
åħ¶ ä¸Ń
èĩª å·±
Ġb ank
ĠM ac
ut y
Ġdec ided
ĠWh ile
ä¸Ģ åĢĭ
ĠC ap
ain t
Ġkill ed
Ġschool s
o res
Ġhouse hold
er ous
èĢ ģ
ä¸ ĥ
Ġresp ons
éĤ £
ãĥ¼ ãĤ¸
ĠIs land
Ġlit er
ä¸Ģ ä¸ª
å ĺ
æ ¾
éī Ħ
Ġex ist
Ġsur v
ãĤ Ģ
ĠB ut
å¯ ¦
Ġkn ow
ãĥķ ãĤ£
ĠN e
æĶ¾ éĢģ
Ġb ar
" ._
Ġgroup s
åı ĭ
Ġt reat
çļĦ ãģ«
9 0
w are
å¤ļ ãģı
ãģĤ ãĤĬ
el t
ë¬ ¸
ar ies
æħ ĭ
æ¨ Ĥ
ud e
Ġdeg ree
ĠK h
Ġpol ic
Ġac cept
Ġst yle
s y
ak er
Ġan im
201 3
Ġp ast
at re
Ġse e
Ġì ¶
å® ŀ
ä¹ Ĳ
æ¹ ĸ
Ġex ec
ĠW ashington
Ġpro t
æī ¿
Ġs ay
Ġle ague
ĠGro up
Ġpriv ate
Ġf av
t ime
ĠM art
Ġat tended
Ġup on
Ġpol ice
éŁ ¿
ìļ °
ãģĻãĤĭ ãģĵãģ¨
ĠCl ub
Ġsqu are
æŁ ¥
Ġn ight
N A
Ġê³ µ
u la
air s
ĠB ra
ĠAng el
èĪ ¬
Ġl ook
å§Ķ åĵ¡
ĠìĿ ¸
Ġw id
Ġcl ose
ëª ħ
æľ Ľ
éĤ Ħ
200 7
æĹ ł
Ġar g
201 4
em or
Ġd i
ri an
3 1
é Ķ
ĠC ong
ĠB ay
ad es
Ġdisc over
æĬ Ĺ
med i
ut ure
p ly
æ© ĭ
Ġa ud
åħ¶ ä»ĸ
viron ment
he ad
mer cial
Ġ18 5
ud d
ãģĪ ãĤĭ
å· ¦
åĬ ¡
ãĤ· ãĥ¥
Ġcol la
ãģ® ä¸Ģ
ĠCh ina
Ġst ri
Ġgo al
Ġ4 0
Ġw ind
ip al
A r
Ġsub ject
Ġê² ½
Ġse ven
ç« ł
Ġì Ĭ
Ġrepla ced
4 5
Ġìľ Ħ
åı ¦
Ġn etwork
æ² ¡
è¯ ´
Ġeff ort
êµ Ĳ
è¡Į ãĤıãĤĮ
å·¥ ä½ľ
Ġwh ite
íķĺ ìĹ¬
Ġtra vel
ĠJ ack
Ġadd ed
Ġse le
åı ĥ
éķ ĩ
Ġe ither
r up
ç ¡
èª ª
ìĦ ł
Ġg un
ĠF l
é Ħ
è¿ ½
Ġst age
ĠS am
Ġe ight
s el
ĠC ath
Ġ199 9
Ġepis ode
Ġë³ ´
æ° ¸
overn or
Ġb rought
Ġp ur
g in
æľĪ ãģ«
ĠT V
Ġteam s
åĿ ĩ
o ice
ĠS erv
ĠChrist ian
ç¢ º
ãĤ·ãĥ§ ãĥ³
í Į
éİ ®
ë £
æ® º
Ġv iol
Ġ ill
ĠT own
Ġfeat ures
æľ «
ĠV ir
Ġcrit ic
ĠU K
ĠF irst
Ġch ange
ic ated
Ġarch itect
â Ĥ
Ġaward ed
ĠM ex
ãĤŃ ãĥ£
ä¼ Ŀ
äºĭ ä»¶
t t
ĠM ad
av al
em s
ut ions
æĺŃ åĴĮ
id s
Ġp ark
D uring
ç¯ Ģ
201 5
ä¹ ħ
äºº ãģ®
ar ian
çª ģ
ĠThom as
er gy
Ġsong s
Ġorigin ally
ap t
duc ation
ĠFran c
Ġm ar
é£ Ľ
it ch
çĽ £
h ood
Ġrad io
Ġde al
ç® Ĺ
Ġp ay
ç² ¾
Ġp urch
ç» ĵ
Ġí ı
Ġlarg est
C A
èģ ĸ
Ġr ange
ĠS al
ìĭ ł
if f
ç± į
is l
Ġr ights
æ´ Ľ
åľ ĺ
ict ion
Ġso on
Ġprov ide
Ġm us
Ġì °
v ing
Ġl oss
åİ Ĩ
ĠM ount
èĪ Ī
Ġair craft
ç· ı
se c
æī ¹
æº ĸ
ãģ«ãģ¤ ãģĦãģ¦
19 0
ĠJapan ese
k y
ãģĤ ãģ£ãģŁ
re l
ĠAc ademy
Ġs ound
åĪ Ļ
Ġc op
Ġ196 0
ou l
ĠChar les
Ġad minist
åº ·
ĠAustral ian
Ġplay ers
he st
Ġexp ress
Ġìľ ł
æĪĲ ç«ĭ
Ġp ot
Ġm ount
Ġmod el
Ġan al
ro ad
200 6
Ġl o
ĠCh inese
éĹ ¨
ì ¡°
Ġre ve
ĠT o
Ġp aren
é Ĳ
åĽł æŃ¤
Ġcount ries
ĠA ccording
Ġst ates
Ġc ivil
Ġf arm
Ġim p
Ġr ather
as ons
Ġb i
Ġus ually
ish op
s erv
eng th
ëĲ ľ
ĠM usic
Ġocc up
äºº çī©
åĤ ³
ver t
im ate
Ġc and
r ight
äº ķ
Ġpla ced
Ġqu al
ĠG reat
Ġ Ã
Ġbeh ind
us es
Ġf ar
ç¥ ĸ
Ġse x
ãĥķ ãĥ©
ĠP ri
Ġas k
Ġshow s
Ġa chie
201 6
ä¿ Ĥ
çķ °
Ġë ¯
re y
ìľ Ħ
Ġsp ace
ĠRober t
Ġëĵ ±
æī į
ĠA lex
ĠMin ister
æ¦Ĥ è¦ģ
Ġre ached
ate g
le g
ãģªãģ© ãģ®
S A
åĽ ¢
åħ ¸
ĠW estern
at ives
åı ³
Ġprofess ional
æĻĤ éĸĵ
åį ł
f ace
Ġintro duced
å¾ ĭ
åĵ Ī
b our
å» £
ãĥ¼ ãĥ³
4 8
ĠS ome
ran ch
Ġex hib
Ġm iss
Ġocc ur
ä¼ ł
è Ķ
Ġle ast
å¹ ¿
Ġes c
è¡Į æĶ¿
Ġf low
Ġ199 8
åıĤ åĬł
çĵ ¦
Ġh it
çħ §
ur ity
Ġfor ce
ä¹ ī
Ġal most
é» ¨
ro wn
p on
ãĤ¹ ãĥĨ
Ġh om
çŃ ĸ
ê³ Ħ
20 00
Ġinst ead
ĠG r
åĭ Ĵ
ĠR ad
al ed
åł´ åĲĪ
ollow ing
ĠS im
ç» ´
ĠCent ral
èĻ ķ
pecial ly
Ġres pect
å¯ Į
ãĥª ãĤ¹
T V
Ġd ou
Ġmed ia
è² ł
ist ry
Ġmet hod
Ġconst it
il ies
æĩ ī
m b
Ġacc ount
Ġinclud es
ĠWh ite
å¼ Ł
id a
ĠPar is
åĢ Ļ
çķ ¥
ãĥ ¦
ãĥ¼ ãģ®
Ġë ¶Ģ
ĠM useum
Ġposs ible
Ġsc ored
ëĭ Ī
Ġl ik
ê ¸
ë ¶
åĸ ¶
è¨ ±
Ġs en
ìĹ Ī
Ġne g
ele b
Ġab ove
ãĤ· ãĥ£
Ġs em
Ġsit u
å¤ Ħ
æĴ Ń
åĳ ³
ra el
The re
ãĤ¿ ãĤ¤
ä»ĸ çļĦ
ĠLou is
Ġpl ann
å¾Į ãģ«
Ġc reat
ä» ĭ
ç®¡ çĲĨ
Ġf all
ĠAfric an
Ġc ut
é Ĵ
Ġf ig
æ² Ļ
z a
Ġto o
Ġs ize
Ġchang ed
Ġ íķĺ
æģ ¯
åľ° æĸ¹
ĠD on
ãģķãĤĮ ãģ¦
ĠI r
Ġrelations hip
o o
ĠT ur
P ro
äº ¡
æİ Ĵ
åĽ½ å®¶
è® ¤
all ed
ĠT ex
ĠC he
Ġnov el
Ġme as
Ġlit tle
ir th
çį² å¾Ĺ
ar ily
ãĥģ ãĥ£
Ġallow ed
Ġcomp an
Ġwrit ing
w est
: _
ĠĠĠĠ ĠĠĠĠ
ĠG rand
ç¤¾ ä¼ļ
5 00
ãģ¨ ãģ¯
åģ ľ
ãĥ¼ãĥ Ĺ
ibr ary
éľ Ģ
ãģ§ãģį ãĤĭ
ĠM us
ĠM iss
id ents
Ġinvest ig
Ġinst it
èĲ ¬
Ġj ud
Ġout side
ĠRuss ian
çµ ¦
ĠM ark
W h
è° ·
h ing
Ġmov ement
ĠL at
Ġb ur
is es
Ġwh ose
on a
av es
Ġcon nect
3 3
å¢ ŀ
un t
çı Ń
tain ed
Ġcent er
å» ¶
e al
an cial
un n
åĭ ¢
ĠHen ry
ĠH am
al a
ic les
Ġcent ral
ãģ£ãģ¦ ãģĦãģŁ
ĠM er
Ġc are
Ġfem ale
ann el
Ġm ass
Ġp ers
Ġa ction
g en
Ġ199 7
ĠG old
ĠG reen
ç¥ ¨
Ġ3 1
Ġme an
Ġì ¡°
m ar
ãģ ¶
ãĥķ ãĤ©
cept ion
Ġindust ry
or ing
ict or
ë§ Ī
Ġv ia
ĠW il
ir m
æŃ ·
æĺ ¥
ĠG od
u x
æĹ ħ
Ġg rand
en a
Ġar my
åº Ķ
Th is
Ġits elf
Ġsum mer
Ġ199 6
æİ ¡
F A
h i
Ġo pt
r d
Ġsp ent
åĮ »
å© ļ
ä¼ ģ
Ġfre qu
Ġs ch
Ġwh om
ãĥ¼ãĥ ŀ
å± ¬
Ġpart s
ar ing
ä¸Ģ èĪ¬
ol f
ens us
Ġt aking
Ġreg ard
Ġm oney
um e
read y
èİ ·
è¡¨ ç¤º
Ġcolle ge
ĠComm ission
å½ĵ æĻĤ
Ġty pe
ìĦ ¸
Ġbeg inning
æ® ĭ
Ġp red
å² ¸
Ġact ive
ãĤ¯ ãĥ©
3 6
201 7
ĠL os
op er
é ½
Ġco ach
200 5
Ġcon v
Ġpr ison
å· ®
i qu
æ Ĩ
ĠM y
oun ter
b ack
å¥ ĩ
éĻ ½
Ġim m
çĴ °
en ced
æĸ Ń
Ġbuild ings
èĳ ī
ĠD ire
3 7
Ġcom mercial
Ġcand id
Ġst op
Ġt ax
æı ´
ģ ¬
Ġcom e
ä¸ĸ ç´Ģ
l im
ãģ«ãģª ãĤĭ
k a
ç¯ ī
Ġe ver
ĠC ons
Ġqu est
æ¥ µ
Ġstud ies
ar ter
ì§ Ħ
Ġd on
ĠS ing
oin t
Ġk ing
Ġop pos
m on
om p
l am
å¯ ¼
è¿ ĺ
ut er
ĠSp anish
ç¹ Ķ
Ġs us
it es
ç¾İ åľĭ
åį ĩ
ãĤģ ãĤĭ
ret ary
æ³ ¨
Ġdest roy
Ġh ard
Ġf ood
um p
Ġbook s
3 8
åħ± åĴĮ
çĶŁ æ´»
ĠSc ott
uf act
ç¾İ åĽ½
C areer
å¤ ı
Ġto wards
ĠM et
Ġrequ ired
o ch
ĠH ill
Ġes pecially
ĠT or
Ġse ction
ç« ¯
un k
Ġstud ied
ri al
ãĥ ĺ
Ġt rib
b oard
n ot
åķı é¡Į
Ġconc ern
ĠAfric a
Ġdra w
Ġd er
ç´ į
ĠComm ittee
ìĨ Į
ï¼ į
Ġob ject
æ´ ¥
arri age
å¾ ¡
Ġ Â
Ġrem ov
é¢ Ĩ
r or
Ġf uture
Ġr iver
Ġne igh
å¼ ł
Ġr an
è§ Ĩ
é Ĩ
un ity
Ġend ed
ĠCh ic
Ġdefe ated
Ġb attle
å¡ ŀ
ĠP et
Ġc he
ip le
æ¸ ¸
æĢ ¥
Ġset t
erv e
Ġl ower
å¸ Ī
åĶ ±
çģ £
ķ Į
ĠJ ose
Ġpr inc
å¤§ åŃ¸
ãĤ¸ ãĥ§
ab it
ib ility
ĠAl though
ãģŁãĤģ ãģ«
Ġoper ations
ĠAr ch
Ġí Į
ord er
pe cted
í ı
Ġg irl
ĠFran k
Ġbre ak
ĠS ov
ens ion
ly mp
cl us
ell ed
éģ¸ æīĭ
æĪ ¿
Ġdist rib
æıĲ ä¾Ľ
Ġ199 5
as ion
ĠCath olic
å¹´ ãģ«ãģ¯
ĠL ab
r im
fic ult
4 7
Ġd ata
Ġn ec
Ġf if
Ġun its
Ġob serv
Ġorgan ization
o id
ri a
ĠIs rael
é¾ į
Ġw ood
ĠSm ith
augh t
å½± éŁ¿
in i
i res
êµ °
ë³ ´
Ġm ix
ĠB ill
åĪ© çĶ¨
por ary
å¥ ¥
ĠC amp
Ġì Ļ
åı ĺ
Ġpl ant
sh ire
å£ °
è® Ĭ
Ġdoc ument
æĿ ¿
ĠVir gin
ãģĵãģ¨ ãĤĴ
Ġan ti
re land
ìĹĲ ëĬĶ
la v
ol k
Ġc eleb
å¹³æĸ¹ åħ¬éĩĮ
ĠM ont
ä» į
Ġan c
å¿ ľ
l ike
Ġal ready
est s
Ġl ived
Ġbl ock
Ġco ast
ĠMich ael
æĮ Ļ
G e
Ġdif ficult
ãģ« åħ¥
ĠP eter
ien ces
ĠëĲ ĺ
la ce
è¾ ²
Ġmov e
ap s
Ġtradition al
ìĤ °
èĭ ¥
ë ¹Ħ
Ġí ĥ
èĹ ¤
Ġperson al
Ġstruct ure
Ġstud ent
Ġhig her
ĠD ay
çľ ĭ
Ġent er
Ġpract ice
ĠM a
ĠAr ts
u z
Ġfour th
ĠìĿ ĺ
i ation
ch an
ĠItal ian
B A
ĠT om
ä¾ Ŀ
k n
y m
f it
Ġbroad cast
as c
Ġs il
Ġc red
Ġ199 4
Ġke ep
Ġth us
t ic
Ġsystem s
i ography
in ent
ìľ¼ ë©°
Ġs elf
ĠO ther
Ġg old
ìĹ Ń
ãĤĴ æĮģ
éģ Ĭ
ãĤ¦ ãĤ§
ry ing
èĩ £
um n
Ġëª ¨
Ġte ac
oy s
ç °
ĠO lymp
ãĤĵ ãģł
æĬ Ĭ
Ġ .
Ġcompet ition
æŃ ¥
é ³
b orn
D es
Ġcomm ission
ĠF estival
Ġcap ital
ĠP enn
ĠT er
Ġcer tain
b ased
ĠT rans
Ġfe et
ok e
ç± »
Ġincre ased
ĠM r
ĠL ake
ä¸Ń çļĦ
ĠRich ard
p ire
Ġdet erm
o z
Ġprim ary
Ġreg ular
Ġis land
Ġcurrent ly
ĠRe v
it er
ĠB oard
ãĥ« ãĥĪ
us band
Ġthough t
3 4
åľ ĸ
æĹ §
çŁ Ń
Ġì ¹
Ġearl ier
Ġacc ording
3 2
Ġj ob
Ġw inning
æ¤ į
ĠR ock
æĵ Ĭ
w er
Ġc y
Ġiss ues
ĠY ear
Ġst aff
ç« ¶
é» ŀ
Ġ âĢ
Ġl ack
sy ch
æĬ ¥
Ġ( "
an o
ãģ® ä¸Ń
Ġd ivision
ĠëĤ ĺ
ĠKing dom
ĠSec ond
ãģĹ ãģĦ
èĪ ŀ
3 9
ĠCong ress
éĽ £
7 5
åĩ »
emb ly
t ar
Ġ199 2
ĠS ant
æ¸ ¡
Ġm ur
ĠG overnment
é ²
Ġproper ty
ä½ Ĳ
k i
Ġ19 50
æģ ©
Ġactiv ities
ĠDem ocr
ä¹ Ĺ
éĽ Ħ
ä» ½
Ġf a
ĠC ast
Ġcolle ction
å¾Į ãģ®
Ġent ered
r ate
ì ¡
Ġfilm s
ê³ µ
ĠìĹ °
éĤ ¦
Ġëı Ļ
ãĥ¼ãĥ ª
æŃ£ å¼ı
Ġcour se
æĪĲ ä¸º
¢ ħ
Ġnew sp
ĠF ore
ĠCon t
it a
Ġopen ing
ãĥĨ ãĥ¬
çº §
ãĤĪãģĨ ãģ«
Ġw oman
åº ķ
Ġn atural
Ġh or
æį ®
Ġl ove
Ġexp and
Ġp ie
Ġad op
éĩį è¦ģ
å¼Ģ å§ĭ
ĠJ ust
å° ģ
Ġdec ision
åĨ Ļ
200 1
ì ¶
ĠY ou
Ġcult ure
Ġn ar
i os
ë¯ ¼
ä¸ ģ
ĠI m
æĺł çĶ»
Ġinter view
B S
æİ §
Ġsur round
Ġl ength
ĠF ilm
Ġk ey
ĠTex as
æ¼ ¢
Ġmag azine
ãĤ¤ ãĥ«
ãĤģ ãģ¦
Ġprevious ly
ĠChic ago
åĽ ¾
ãĥ³ ãģ¯
ĠV ictor
æĪĲ çĤº
pl ied
4 6
ëį °
å² ¡
Ġfor ced
ed y
ĠCanad ian
Ġlead er
ä¼ ¼
201 8
Ġcompan ies
ê° Ħ
it iz
Ġclos ed
Ġme ans
èĥ Į
ve y
ĠO p
åĨ ł
æı ı
åĪ Ĵ
Ġem b
ãģ¨ åĳ¼
Ġin tern
èĪ ī
æĪĲ åĬŁ
il es
Ġë° ľ
Ġim medi
åĲĮ æĻĤ
Ġlaun ched
ç§ Ģ
æĿ Ĳ
Ġro ute
S h
ol it
Ġcomple x
ĠAngel es
ru cted
ãĥĥ ãĥī
Ġat tend
ra ck
æŃ ³
w ell
ä¸ ¾
ĠSov iet
åº Ħ
Ġloc ation
ãģĪ ãģŁ
mit ted
Ġh usband
Ġde cl
) _
Ġm unic
ç £
ãģ¨ ãģĻãĤĭ
Ġtrans port
æ² Ĵ
Ġgo ing
Ġen vironment
Ġca used
D e
çº ª
l ant
é» ĳ
Ġnot ed
ĠIn ter
ä¸» ç¾©
ear ch
la g
Ġpass ed
Ġman ufact
æī ĺ
it ar
oc al
ç´ ¢
Ġb ig
ãĤĵ ãģ§
ç¶ Ļ
r as
ĠB ur
Ġqu ick
Ġrun s
Ġex c
Ġc ust
ãģ¨ãģª ãĤĬ
R e
ç´ °
te g
ĠSup er
è ĵ
Ġe mer
it ation
Ġe t
Ġnum erous
ad a
Ġ199 3
Ġb ene
Ġs at
Ġj ournal
Ġg ra
Ġm ission
if y
Ġbecom ing
ìĭ Ŀ
íĥ Ģ
Ġev idence
ê ´Ģ
Ġappro x
ĠB en
Ġap plic
u ke
Ġold er
Ġsch ol
ĠFor ce
ĠS ir
ĠM el
erson al
ì² ´
Ġn orthern
Ġtrans l
Ġd rop
Ġfam ilies
S he
æľ ¯
å° Ī
Ġstand ard
æīĢ æľī
Ġpri or
Ġcre ate
ĠF in
Ġl ink
Ġter rit
Ġs outhern
å° ¾
200 4
ãĤ¸ ãĤ§
ric ult
Ġgener ally
ë¯ ¸
at al
a ut
å¹ ķ
Ġbet ter
ãĥ¬ ãĥ¼
il ed
Ġg ive
um ents
if t
Ġd en
åĸ ®
ëł ¤
Ġsup er
ëį ĺ
ĠB ank
ĠìĨ Į
ĠD el
æĪ ¸
and s
Ġfin ancial
on n
Ġset tle
Ġth reat
Ġ199 1
ãĤ ¼
Ġclaim ed
Ġtr ade
ol a
Ġpro b
ãģĬ ãĤĪ
Ġar rest
åľ° åįĢ
åį ķ
Ġsupport ed
Ġn omin
Ġvict ory
Ġg ot
e es
ĠI reland
Ġab s
ä»¥ ä¸Ĭ
í ĽĦ
æ³ °
éĬ Ģ
Ġdire cted
è¾ ¼
è¦ ³
Ġst ay
ä¸ ĵ
Ġ ens
Ġpl at
Ġindepend ent
éĢ² è¡Į
Ġequ ip
ĳ Ĳ
ä¸į åĲĮ
Ġë į
4 9
ĠS qu
re me
Ġper cent
F C
Ġpre vent
å¤§ ä¼ļ
éļ Ĩ
ä¼ļ ç¤¾
Ġp en
ĠìĦ ł
Ġfun ction
åĪ «
Ġappear ance
Ġë ¹Ħ
æ¬ Ĭ
Ġdisc uss
Ġh app
ly ing
ĠCar ol
Ġf le
ven ue
iz ing
Ġleg al
Ġsomet imes
ãĤĮ ãģ°
èģ ŀ
Ġparen ts
Ġìĥ ģ
è£ ľ
å Ĥ¬
c her
ĠK ore
è ¤
èĩª çĶ±
èµ Ħ
ãģĳ ãģ¦
Ġb all
Ġhel ped
åıĸ ãĤĬ
ëł Ī
å¤§ ãģį
ä½ Ľ
ro s
Ġsen ior
kn own
Ġch ampionship
ëĭ ¹
è® º
è¼ ĥ
Ġrun ning
Ġgo als
Ġra ised
åı° æ¹¾
æķ £
æĶ¯ æĮģ
Ġown ed
Ġí ĸ
v a
Ġeconom ic
ed s
Ġs af
ä½į ç½®
è² »
ëĭ ¨
ĠBro wn
am s
Ġtro ops
U n
ãĢį ï¼Į
ãģĹãģŁ ãģĮ
Ġrelig ious
ĠG ra
sel ves
âĢĿ ï¼Į
Ġto urn
Ġinit ially
Ġthem selves
ĠF ort
ul ated
èĪª ç©º
Ġbelie ved
Ġart ist
Ġë§ Ī
Ġro om
or por
Ġmanag er
il s
ĠR ob
Ġiss ue
air man
Ġl ay
l o
Ġg e
ê° ľ
Ġsh ot
Ġh ours
Ġd ate
è® °
éĲ µ
Ġ er
Ġsc ient
æĿ ĥ
ãģŁ ãģ¡
Å į
Ġw ide
ëĲĺ ìĹĪëĭ¤
ĠS aint
Ġremain s
Ġrail way
é» Ħ
ist an
èĺ ĩ
åĩº åł´
Ġìĺ ģ
Ġart ists
åĨ ³
ãĥ© ãĥ³ãĥī
Ġfam ous
æ² ¿
å§ Ĩ
Ġaddition al
æ¯ Ľ
in ary
ĠF lor
ãĥ¼ãĥ ©
ãĤ¹ ãģ®
åħ ¼
ìĺ ¤
Ġì Ľ
Ġle aving
Ġto day
5 5
íķľ ëĭ¤
ĠP ac
Ġassoci ated
) ;
Ġam ount
Ġdef end
Ġv eh
Ġí Ĩ
d en
ple ment
Ġìĺ ¤
å² Ľ
Ġë ķĮ
Ġê° ľ
ãĤĪãģĨ ãģª
çķª çµĦ
Ġpartic ularly
Ġincre ase
te en
Ġchang es
4 4
Ġo ur
Ġestabl ish
Ġoff ered
Ġch ief
Ġê³ ł
Ġsubsequ ently
ch ange
è¡ Ģ
Ġmeet ing
æĽ ¼
Ġprogram s
ĠO per
st e
çĪ Ĩ
ri ef
è½ ī
Ġc al
Ã ¤
èĴ Ļ
Ġconsid er
u ild
åĶ Ĳ
m ark
å¿ «
F or
åº Ń
ĠB o
Ġsqu ad
Ġmin or
Ġnew s
ĠF ound
æĸ¹ éĿ¢
ur a
ãĥĭ ãĤ¢
i Ä
æ² ¹
ot a
ç¿ Ĵ
Ġcharact ers
Ġêµ ¬
ic ro
Ġcomple te
è¿ Ķ
Ġpartic ular
Ġar m
ãģ® ãģ¯
ãĥ³ãĥ Ģ
ĠT wo
Ġmajor ity
ãĤ· ãĤ¢
h ouse
ĠP lay
ĠP arliament
èĬ Ĥ
ãĥĨãĥ¬ ãĥĵ
æķĻ æİĪ
æį ķ
ov ers
ut ch
ĠìĦ ¸
ĠZ eal
on se
éĵ ģ
æķ Ī
íķ ł
et her
Ġë¯ ¸
Ġrel ated
Ġlim ited
å¸ ¦
å¤ ľ
å¸ ¶
b an
ĠItal y
åľ° åŁŁ
ìŀ ¬
Ġb irth
Ġcont ain
ĠSc ot
ĠK n
Ġëı Ħ
us ing
åĵ ¥
Ġcolla bor
æł ¸
åĪ Ĭ
inn er
an ced
ê ¹
Ġmus ical
åĸ Ħ
Ġ198 9
Ġfail ed
è½ ¬
Ġlong er
ãĥ© ãĥ³
æľĢ é«ĺ
ic an
å¹´ ãģĭãĤī
A C
ot el
çĽ Ľ
Ġweek s
èį ī
ra w
ãĤīãĤĮ ãģ¦ãģĦãĤĭ
ĠW al
ĠIt s
ä»¥ ä¸ĭ
Ġcont ro
Ġpolic y
18 9
b ur
ĠZeal and
Ġtra in
Ġd om
Ġterm s
Ġgradu ated
ĠL ater
æĵ ļ
Ġhig hest
et ic
yl van
å®Į æĪĲ
Ġsele cted
ì ¦
ãĥ ¨
stand ing
æ¬ §
Ġvis it
om a
ir ing
ĠB attle
Ġc arried
ĠM ass
t a
ç½ ª
ad o
Ġmanag ement
ĠSw ed
é£ İ
Ġm ach
ãģķ ãĤī
ĠB est
å± ¤
ãĢį ï¼Ī
æĹ¥ ãģ®
ë Ħ
å¤ ´
íĸ ī
Ġcomple t
ĳ ľ
æŀ ¶
ĠS um
ãĥ« ãģ®
Ġcon cept
od es
Ġfeat ure
åĮĹ äº¬
y e
Ġlarg er
ŀ Ī
Ġfor t
ä½į æĸ¼
Ġearn ed
ãĥ¬ ãĤ¤
æ¸ ¬
en c
Ġí ĽĦ
Ġd ed
ãģª ãĤĭ
éļ İ
ing u
æĺİ æ²»
ãĥ´ ãĤ£
Ġfin ally
Ġ6 0
éģ º
is ions
u ge
ĠS ince
ot e
ĠD o
Ġcent re
Ġl ines
Ġann ual
Ġarr ived
éĻ Ħ
ĠL iber
ĠT imes
Ġb omb
Ġexper ience
Ġmed ical
ĠTh at
ä½į äºİ
è©¦ åĲĪ
é ¹
éģ ł
ë¬ ´
å® ĩ
Ġm ention
ĠN avy
è¨Ń è¨Ī
Ġturn ed
Ġstud io
Ġch all
å¥³ æĢ§
g ing
Ġal ways
çļ ®
åģ ļ
çµĦ ç¹Ķ
Ġb ring
Ġ /
Ġinc ome
Ġto ld
Ġst ep
èĭ ı
ç¶ ²
ìŀ ĳ
ãģ« ãģĤãĤĭ
ĠM os
Ġresp onse
æı Ľ
ĠO ld
Ġask ed
velop ment
ãĥ´ ãĤ¡
Ġm ight
P ersonal
éļ ı
Ġêµ Ń
æł ĩ
Ġstat us
ir t
C l
Ġd one
éĸĭ çĻº
Ġoffic er
Ġcol on
Ġapprox imately
åį Ĵ
çĨ ±
é¾ Ļ
200 3
åĬ ĥ
ãģ« éĸ¢
ĠG reek
ĠJew ish
çº ³
P l
Ġm arriage
Ġcons ist
Ġinflu ence
ê ·¸
ĠSt ar
ĠM ill
Ġpresent ed
Ġt akes
çĳ ŀ
Ġfore ign
åľĭ å®¶
ian ce
æ¢ Ŀ
ĠMex ico
Ġc ases
i ents
r ast
ãģĬãĤĪ ãģ³
ç§ ģ
éł ħ
he ast
Ġte xt
ëł ¥
ylvan ia
í Ĥ
ãĥ³ãĥ ĩ
Ġed itor
ad ium
ä»ĸ ä»¬
Ġs ister
a ction
4 2
ä»ĸ åĢĳ
åĬł åħ¥
éħ Ĵ
æŁ »
ĠÂ £
ir it
éģĭ åĭķ
è£ ģ
is ation
ç¿ Į
ä¸ ¹
im b
Ġpo or
ĠGeor g
ĠP re
èĹ ı
u an
Ġd ig
Ġê ´Ģ
å¸ °
Ġacqu ired
ail ed
ĠTe chn
ĠE ducation
Ġw anted
Ġr ate
ic ian
Ġbel ow
Ġch art
Ġch arg
Ġun iversity
ĠVirgin ia
Ġmost ly
6 5
un ior
e ff
Ġsh own
æķ ĳ
Ġf ederal
Ġd ram
è¿Ľ è¡Į
åī §
ãĤĤ ãģĤãĤĭ
Ġb att
é¨ ĵ
åŁ ĥ
Ġs ociety
Ġproble ms
ãģĻãĤĭ ãģ¨
Ġ198 8
ĠW ood
Ġindividual s
Ġind ic
ent h
éĺ ª
ç¬¬ ä¸ī
ê² ½
ĠServ ice
Ġfore st
p ose
Ġun it
ĠL ord
Ġth ink
at o
ä¿ Ħ
çİ ī
ĠJose ph
Ġph il
A S
ãĢį ãĢĤ
å¾ ģ
ĠM ur
st ra
um an
Ġen ough
Ġus es
å¾ Ĵ
èŃ ĺ
åĩº çīĪ
å¹´ çļĦ
ãĥģ ãĥ¼ãĥł
ĠC arl
ãĤ¤ ãĥĦ
ãĥ¼ãĥ Ĭ
Ġinst r
ĠS ur
g l
ip l
ig an
éĢ Ķ
Ġin n
Ġt arg
Ġrepresent ed
ä¹ĭ ä¸Ģ
er o
Ġleg isl
Ġpro posed
c a
ĠLe g
Ġar ran
y r
ĠM ost
Ġsur face
ç§ ¯
åĩ Ĩ
Ġmin utes
Ġle ave
Ġcont ains
u ing
Ġse at
I S
Ġw ord
Ġp il
ĠìĦ ľ
Ġw estern
Ġexp la
ĠìĦ ±
ac he
Ġpl ans
ĠAn n
ĠVal ley
Ġl atter
et te
ĠU nder
Ġse a
éĻ ħ
å¢ Ĺ
Ġe as
ĠH a
A ccording
ĠìĹ ¬
åĲĮ ãģĺ
it t
Ġthe ory
Ġpromot ed
ĠF er
Ġrequ ire
B iography
vent ion
Ġsy n
ê ·
b on
Ã ¨
å¥ ı
Ġm em
Ġcre w
b ury
ĠAt lant
ec k
ĠR os
4 1
Ġn orm
ob al
cript ion
è¿ ª
ĠCh ief
Ġ198 7
Ġë Ķ
id er
ãĥķ ãĤ§
ol s
w ide
ul f
in ct
Ġde part
æĽ ¿
äº¤ éĢļ
Ġins p
Ġ íķ´
Ġen ergy
å² ©
Ġì Ĥ
æĺ¯ ä¸Ģ
è² ¬
Ġpart n
ĠRec ords
Ġë ħ
ãĤ° ãĥ©
Ġmov ie
ĠW ork
çĻº è¡¨
Ġoper ation
äºº çļĦ
Ġsc ience
Ġsay ing
ãģķãĤĮ ãģ¦ãģĦãģŁ
uc le
æľĢ åĪĿ
æ±º å®ļ
í ģ¬
æ¸ ©
Ġra p
ac hes
± ´
å¥ §
isc o
æ¢ ħ
ãģĹ ãģ¾
æľĢ å¤§
t ies
ä¾ ¡
Ġn ine
Ġremain ing
éĢļ å¸¸
ĠG o
M S
è¼ ¸
í ĭ
åĪ ĳ
ĠP ublic
is k
ĠIr ish
ãĥ³ãĥ Ĩ
ail y
Ġh ospital
Ġincre asing
ask et
ç¦ »
ãģª ãģĮ
è¿ ŀ
c el
ãģª ãģĬ
ad y
and a
Ġc itiz
W hen
ĠSc ience
ĠA rab
est ed
Ġb rief
at ively
ard en
æ²¡ æľī
è Ĩ
ĠBrit ain
ou ra
ĠS a
çµĲ æŀľ
Ġresult s
Ġhous es
ĠW omen
Ġch ap
æ²Ĵ æľī
å¾ ħ
Ġm iddle
Ġspec ific
ĠìĬ ¤
ãĢģ ãĢİ
åį ĺ
Ġ198 6
Ġsc reen
8 5
200 2
åĽ½ ãģ®
Ġc ause
ä» ķ
Ġs la
ãĥ³ãĥ Ĳ
ĠM od
ĠP an
Ġdes pite
åĺ ī
ĠW ales
Ġìĭ ł
Ġide a
ĠM any
èģ Į
ä¸Ĭ æµ·
ãĤ¦ ãĤ£
èĢħ ãģ®
Ġsuc ceed
ar ters
ĠPro v
Ġm ale
Ġnear ly
ĠC le
g ram
ä»¥ éĻį
Ġserv ing
v ement
Ġvari ety
s ylvania
o ir
ĠCol umb
Ġnec ess
Ä ģ
ĠN orthern
ĠEm pire
a res
Ġstart ing
Ġf ace
ìľ ł
Ġwrit er
Ġ19 30
Ġ194 0
b ers
u a
æ¿ Ģ
è« ¸
m ission
Ġship s
" )
Ġfriend s
m ond
per or
è¨ĺ éĮ²
ĠQue en
Ġ =
æĬĢ è¡ĵ
æ° £
ãģ«ãģĬ ãģĳãĤĭ
pt ion
å´ İ
ĠD en
Ġk il
é ¬
A meric
ĠCl ass
ur ies
Ġcond itions
Ġhe avy
F L
s pe
Ġrecord ing
a ult
å· ¡
ãĤ« ãĥ¼
ãĥĸ ãĥ«
ä¸Ģ äºĽ
az z
und red
Ġb ound
å¼ º
Ġ #
Ġwho le
Ġmat ches
4 3
Ġsepar ate
led ge
A T
è£ Ŀ
Ġrec ent
Ġn ation
ur t
ìķ Ī
F rom
å¾ ĵ
at ers
un ction
ãĤ¤ ãĥĪ
k en
Ġsour ce
ĠR o
ä¼ ĳ
p lay
Ġb ox
ĠC D
Ġoper ated
åħ į
Ġso ft
Ġre ferred
ĠFlor ida
ç¦ ģ
Ġal tern
ous ly
éĢ Ĳ
Ġc ell
ãģĭãĤī ãģ®
ãĥī ãĤ¤ãĥĦ
Ġappe ars
Ġret ired
åħ Ħ
w ar
Ġtechn ology
ĠE r
i h
ï ½
çĪ Ń
éģ Ń
Ġ18 0
ĠMart in
Ġtourn ament
Ġnear by
inal s
7 6
Ġg rew
Ġl og
Ġm akes
ìļ ´
äº ²
æ° Ķ
ĠDire ctor
è° ĥ
æŃ´ åı²
ç§ ĭ
Ġaff ect
ĠPro fess
å¤ į
Ġsc ore
ìĿ Į
ys is
d own
en es
ĠPac ific
åĪ Ľ
re ater
Ġ198 5
Ġconst ructed
æ¨ ª
Ġlik ely
im um
erv ation
rup t
Ġtrans ferred
it ted
Ġad j
se e
ĠPenn sylvania
æĿ Ł
ĠThe atre
ar c
ìĥ Ŀ
emor ial
Ġpro p
å¦ »
è¦ģ æ±Ĥ
Ġb ridge
199 0
Ġprov ides
Ġgu itar
Ġpo et
ĠN ot
åŁ ·
ĠL and
um ed
ãĤī ãģ®
ê ±°
ãĥ© ãĥ¼
ĠS un
Ġ198 4
ĠH aw
Ġrespons ible
ĠThe ir
Ġ194 5
å° Ĥ
Ġest im
r ative
æļ ´
stit ution
éŁ ĵ
9 9
ãĢĭ ï¼Į
åĩº èº«
æ³ ģ
ãģ¨ ãģĹãģŁ
ĠâĢ ĺ
éĻ ³
Ġserv e
c m
Ġs ports
Ġpr in
éĢ ĥ
Ġ i
å° ļ
ess ion
æ°ĳ ä¸»
in et
ce ment
çī Ļ
a o
æĸ¹ å¼ı
ĠI f
ãĤ· ãĥ¼ãĤº
Ġquick ly
Ġst ations
è ŀ
Ġn ames
Ã³ n
è§ Ģ
ĠS outhern
Ġdis e
ĠS k
ĠB ook
ĠO l
Ġcom ment
ä½ Ļ
Ġdem onst
ç½ ²
Ġdiscover ed
Ġk ind
ãĥ¼ãĥ ĩ
Ġì ´
Ġy outh
Ġdec la
åĩº æ¼Ķ
å ª
Ġn ature
Ġcount y
éļ ¨
Ġorgan iz
ĠB us
Ġr ule
e ction
æ¸ Ľ
ĠS il
ä¹ ¡
Ġo il
ĠF re
Ġwhe ther
Ġme chan
Ġform s
Ġcult ural
adem ic
Ġsold iers
Ġcontin ue
Ġc ouncil
æĹ Ĺ
ant ry
Ġre ason
Ġb r
ì¹ ´
em porary
åĽ ³
Ġdis s
ill ed
ĠRad io
ìĹ ħ
ãģķãĤī ãģ«
Ġf irm
8 6
B ack
æ± ī
ent y
ĠRes earch
Ġmanag ed
b it
Ġsh oot
è§ Ĥ
Ġl isted
éĸ¢ ä¿Ĥ
æĮ ¯
åł ¡
ĠJ ud
l ight
âĢ ²
æľĢ çµĤ
Ġiss ued
e ch
è² ¡
ĠII I
ad d
æ¸ Ī
ĠC la
Ġhe art
ag n
iÄ ĩ
è« ĭ
Ġres idents
åĸ ľ
Ġd u
å»º è¨Ń
åī ²
Ġl os
è® ¸
ĠRail way
urb an
Ġf ell
Ġplat form
ĠFound ation
åĬ ŀ
st ant
ë³ ¸
Ġw alk
íĸ Ī
in ated
è¾ ¦
ë¬ ¼
Ġp ick
ound s
Ġsc ene
Ġmain ly
A d
Ġp aper
Ġt alk
éł ĥ
Ġlevel s
è· Ŀ
Ġd omin
Ġìķ Ĭ
èµ ¤
Ġse qu
en ing
ä½Ĩ æĺ¯
b re
Ġord ered
ãģ Ĳ
at i
½ Ķ
Ġp sych
h y
í ĶĦ
ãģ Ķ
ut en
ĠF red
w rit
Ġwe bs
å® Ŀ
Ġe th
Ġhon or
8 9
æľŁ éĸĵ
ìļ Ķ
Ġl ives
é«ĺ åº¦
ä» ģ
Ġdirect ly
é¤ Ĭ
ĠB et
Ġappear ances
åħ¨ åĽ½
Ġde ad
ĠRuss ia
é¢ ĺ
éīĦ éģĵ
æ· ·
ìķ ¼
é ¼
Ġcover ed
Ġde pend
éĿŀ å¸¸
Ġop port
å¿ ł
Ġre fer
åĿ ¦
ĠNew s
è½ Ħ
Ġl ic
Ġinc orpor
ĠM o
Ġdisp lay
åľ £
ĠG al
Ġ19 20
ost on
Ġreve aled
åĽ º
Ġp ow
ĠJ er
æĻĤ æľŁ
w in
Ġmean ing
H is
os oph
éĹ ®
Ġprodu ce
íĺ ¸
it tle
ĠJ im
Ġvot e
ç» Ļ
é ¥
Ġhe re
èª Į
ìķ ĺ
éĿ¢ ç©į
Ġin teg
ĠSp ain
å½¢ æĪĲ
Ġcap ac
th ing
ĠIn f
åĪ° äºĨ
ãĥ³ ãĤ¸
Ġoffic ers
Ġf oot
Ġproject s
ä¸Ĭ çļĦ
ĠS l
æĳ ©
Ġ ult
p ut
âĢĿ ãĢĤ
æ® ¿
Ġmult iple
ĠS pe
ãģ¨åĳ¼ ãģ°
Ġ6 5
ent al
Ġ198 3
å·¥ ç¨ĭ
éĥ½ å¸Ĥ
ç§ ĺ
r ich
Ġm aster
í ŀĪ
Ġlaw s
ĠK e
ë¶ Ħ
g ress
orn ing
æĭ Ķ
ãģĳ ãģŁ
ä¼ ´
ãĥķãĥ© ãĥ³ãĤ¹
ce nd
Ġadd ress
ĠW in
la h
å¿ħ è¦ģ
Ġp urs
ì° ¨
ell ig
Ġnewsp aper
Ġ198 2
ĠG overnor
Ġed ition
Ġex tended
ub e
Ġ ess
ì§Ģ ë§Į
ĠU p
åº «
8 8
åĤ ·
æİ ¢
ãģį ãģŁ
ĠF ootball
å¹´ éĸĵ
çĶŁ ãģ¾
Ġ ver
çº Į
ĠDe f
Ġdr ug
è®¤ ä¸º
Ġde ep
Ġconf l
7 7
Ġproduct s
ãģł ãģĳ
ìĹĲ ê²Į
Ġprog ress
Ġmet res
V D
Ġwork ers
Ġimmedi ately
i ro
ĠM at
å§Ķ åĳĺ
ist ics
ë° ©
vers e
Ġpurch ased
ç» Ń
éħ ¸
ãģ® ãģ¿
ĺ Ĳ
âĢ ¦
Ġcommun ic
ĠC am
Ġgrow th
Ġcle ar
èªį çĤº
Ġqu arter
å¥ ĳ
ul ly
åĪ¶ ä½ľ
ĠìŀĪ ëĬĶ
å¹³ æĪĲ
ë¶Ģ íĦ°
Ġhistor ical
ĠE le
Ġtem per
por ation
èİ «
Ġremov ed
åı Į
Ġpass eng
Ġeffort s
ris on
ĠH ow
Ġinit ial
ç¥ Ń
Ġ3 5
Ġc ities
è¡ Ĩ
it ude
ãģĦ ãģªãģĦ
Ġc orn
äº Ĵ
on ic
Ġ197 9
Ġen em
k ins
Ġcont act
ãĥĥãĤ¯ ãĤ¹
Ġbel ong
Ġs al
ĠE v
ĠS ar
ĠC reek
ãĥ³ ãĤ¯
Ġcondu cted
ĠT ele
Ġagre ed
å»º ç¯ī
ê¹ Į
ĠAss embly
Ġquest ion
Ġfe el
ĠS ocial
Ġspe ed
ren g
ic ient
ĠV ol
ĠIn c
¶ Į
ĠY oung
ì Ī
ãģ Ń
æĵ į
ä¹ ±
6 6
Ġ197 2
ëŀ ĺ
Ġprofess or
Ġover all
é ®
ìĹ °
M A
çķ «
Ġsp read
è¨Ń ç«ĭ
ç· ´
ĠEd ward
çĽ£ çĿ£
Ġsh are
Ġlet ter
Ġdefe at
ĠO h
ĠMc C
ãģ¨ãĤĤ ãģ«
åĨ Ĩ
ian o
ĠSt ation
ĠL ong
z il
Ġse asons
Ġ4 5
Ġmain tain
Ġrecord s
Ġhigh ly
9 5
çĻ» åł´
gy pt
æĵ Ķ
i as
ĠM ore
ĠC ivil
å¹ ²
ab eth
ãĥªãĥ¼ ãĤº
ĠS pr
Ġy et
amp ion
ound ed
y an
è Ľ
Ġwe ap
çī Į
ĠS und
m ore
Ġatt ention
ĠT ri
ï¼ī ãĢĤ_
Ġneed ed
æľ Ĺ
ãĢģ ãĢĬ
éĺ ³
Ġinit i
Ġ8 0
ĠI ll
Ġlab el
æ³ ī
ic ted
åĲ ¦
éĿ© åĳ½
ãĤĮ ãģ¦
or ation
ul ations
U S
aw a
w a
Ġele ments
ĠB ig
Ġp ra
ãĥĵ ãĥ¥ãĥ¼
åį ı
æŀ Ħ
åįĹ éĥ¨
è¨Ń ç½®
ĠM iddle
Ġeffect s
í İ
åĬ ī
Ġa im
Ġp ath
å® ĭ
ff ic
ãĤĴ åĭĻ
Ġs pl
Ġë§ Į
Ġe astern
la w
m ir
Ġm useum
ĠB oston
ĠB as
Ġdestroy ed
çĶ± äºİ
os h
Ġë° ©
Ġcust om
Ġun ivers
èĸ ©
Ġ âĢĶ
ĠFranc isco
çĬ ¯
è¿ İ
èĲ ¥
ors hip
Ġactiv ity
Ġplann ed
bur gh
Ġí ĶĦ
ĠD ou
Ġin tended
ran ce
ĠPr ince
çĽ® çļĦ
µ ľ
Ġm ill
éĻ Ĩ
åº ı
Ġ197 4
ag ing
f ect
çĶ± æĸ¼
Ġsc hed
åĲ Ľ
è© ŀ
Ġp an
L e
ë£ ¨
E R
ian a
è¼ ª
ç§ĳ åŃ¦
ĠB ow
it led
ie uten
C C
ap ed
ĠO ut
ĠS ub
Ġmov ing
ãĤ¤ ãĤ¹
ĠS at
ãĥªãĥ¼ ãĤ°
ri f
Ġb rand
asket ball
çĩ Ł
åĽ Ń
Ġfl oor
7 8
Ġext ra
Ġalong side
Ġbeh av
ãĥĪ ãĥ«
Ġprote ct
èĹ ©
ĠM ah
Ġpot ential
ĠS ol
äºĭ æ¥Ń
ìŀ Ħ
Ġst ore
ĠE astern
Ġsec urity
ers ey
Ġanc ient
is her
åıĸ å¾Ĺ
ed d
åŃ¦ çĶŁ
ast ic
ĠLe e
v is
n g
Ġtreat ment
Ġ196 8
å¾ ®
Ġ197 5
èĩª èº«
al i
Ġf ellow
Ġ198 1
éľĢ è¦ģ
ãģ ²
Ġcon ver
is ters
åİĨ åı²
ãģ¨ãģª ãģ£ãģ¦ãģĦãĤĭ
con t
ç½ ĳ
ãĤª ãĥª
Ġsuff ered
ĠS o
æŃ· åı²
198 0
Ġoff er
Ġbas is
æ¾ ³
ĠB oth
Ġsmall er
ĠE arth
å®Į åħ¨
ail s
ou d
ãĥī ãĥ©
åĮĹ éĥ¨
Ġproble m
Ġval ue
éŁ³ æ¥½
O S
am ily
è´ ¨
and on
Ġê ·
Ġin h
æĴ ¤
çĽ Ĭ
Ġcolle ct
íĤ ¤
é» ĥ
ä¹ĭ å¾Į
Ġab ility
ig r
Ġc ounter
ĠSec retary
ĠLat in
Ġ197 6
or a
Ġìŀ ¥
Ġdou ble
ä¹ĭ åĲİ
m ph
è¾ ĥ
æĹ¥æľ¬ ãģ®
Ġc hem
ad el
Ġcompos ed
ĠCent re
Ķ ¼
Ġë¬ ´
åĢ ¼
ĠëĤ ´
Ġparticip ated
Ġ197 8
ĠD utch
ir med
Ġêµ Ĳ
Ġan g
B y
å¤ļãģı ãģ®
éĸĭ åĤ¬
ĠC ro
ip ality
Ġh undred
éľ ²
ens ity
æİ¡ çĶ¨
ç´ ħ
ãĥĸ ãĥ©
A A
ãĢĢ ãĢĢ
Ġins ide
ãģ« ãģ¦
ìĺ ģ
Ġ Ð
åĽ½ éļĽ
ç» Ī
ìĸ ĳ
è§ ģ
P S
J ohn
Ġfac ilities
ĠH el
Ġcapt ured
Ġren amed
åħ ´
ë¡ Ŀ
Ġcontro vers
ĠP ak
ĠB C
ãģ¤ ãģ®
ãģªãģĮ ãĤī
ĠOff ice
Ġst ories
ĠIs lam
ab les
Ġwith d
ĠB re
f ort
ĠBel g
199 9
Ġneigh bor
Ġprob ably
ĠM ain
çĪ µ
ãģ İ
Ġag ricult
Ġun s
Ġre form
å»º ç«ĭ
æĭ ¿
ĠSy stem
ĠG all
Ġrec over
ak ers
ieuten ant
ä½ µ
Ġw ords
Ġoffic ially
Ġhousehold s
ĠL uc
ĠMus lim
Ġaccept ed
ĠE gypt
Ġchar ge
è¤ ĩ
Ġprom inent
ĠBro ad
P h
è§ Ħ
Ġ197 3
ĠCor ps
ĠB BC
b ed
ĠíĨ µ
Ġimp act
ì ¤ĳ
n y
6 4
ĠScot land
ë° ĺ
Ġse ek
ap ers
æħ ¶
Ġre pe
ä¸Ĭ ãģĴ
ĠH on
ãĥ¼ ãģ¯
ge nd
w an
ĠV er
åĪ »
ĠF ollowing
ë² ķ
é ĭ
Ġn ative
å¼ķ ãģį
ri ed
Ġplay s
ãĥ³ ãĤ¿
Ġl if
èĢĥ ãģĪ
ĠSh ow
æı ®
al le
åĦª åĭĿ
Ġ â
åĽł ä¸º
éľ ĩ
Ġst reet
ig er
ä¾ µ
Ġbl ood
Ġfem ales
Ġw a
Ġim plement
éª ¨
ãĤ¤ ãĤ®
ĠHe alth
éŃ Ķ
Ġcom es
Ġë ĺĲ
ä»ĸ ãģ®
Americ an
ĠO x
an cy
Ġdem and
Ġb order
Ġg as
3 00
ĠCh arl
Ġele ctions
ç³» çµ±
Ġkil omet
ãĤ² ãĥ¼ãĥł
Back ground
Ġfoc us
éł Ĩ
Ġcon ne
st one
Ġ197 1
ĠP ost
ç¾ ½
åĽł çĤº
Ġ197 7
ĠA v
ĠJ ones
Ġ196 9
Ġadminist ration
tain ment
ĠH ospital
t own
æĪ¦ äºī
å» ·
ĠG i
Ġs low
æł ·
du ce
å· ¨
Ġnum bers
ãģĵãĤĮ ãģ¯
r ong
Ġded icated
Ġg iving
æĸ¹ æ³ķ
7 9
éĻ Ī
è¯ ķ
res p
ãĥ¼ãĥ Ń
è£½ ä½ľ
Ġprim arily
ĠR ou
ç¸ ¾
Ġhous ing
é¦ Ĩ
ĠL ine
ĠJ o
æ¿ Ł
ĠJ es
Ġre ach
æ¨ £
Ġphys ical
Ġassist ant
ĠWilliam s
ë Ķ
ãĤĬ ãģ®
Ġap art
ĠJ ul
Ġë° Ķ
Ġst reng
ĠD i
Ġ era
éĦ ī
Ġcandid ate
åŁİ å¸Ĥ
5 6
Ġappro ach
Ġlead ers
ä¹Ł æĺ¯
Ġfav or
çĭ¬ ç«ĭ
Ġqu ality
aren t
ste in
Ġcapac ity
ãĤ¤ãĤ® ãĥªãĤ¹
Ġ196 7
oc ated
Ġd ark
Ġper man
åģ ¥
ĠL ife
ĠEng ine
ob ile
Ġst one
Ġdire ction
Ġst ra
éĥ¨ éļĬ
Ġ194 4
æµ İ
éĽ ħ
Ġde partment
Ġpe ace
åįĴ æ¥Ń
Ġup per
ĠSe a
Ġt aught
our ces
ĠT ro
Ġcons ists
ĠCarol ina
qu arters
ĠO ver
å½ĵ æĹ¶
ãĥĻ ãĥ«
ĠC amb
d ney
ag ement
che ster
ul pt
ip s
æ± ł
ĠTe am
ĠR am
èĬ ¸
ĠB ob
Ġagre ement
ĠA wards
è¬ Ľ
N ew
press ion
çļĦ äºº
çķ¶ æĻĤ
Ġest ate
ìłģ ìĿ¸
æıĲ åĩº
Ġg ained
é«ĺ çŃī
éģĵ è·¯
Ġlarg ely
Ġë¬ ¸
Ġ7 0
åĢ «
Ġ ut
Ġf elt
çĪ ±
Ġex cept
åŁº æľ¬
Ã §
Ġrec ently
å¸ ¯
ç³» åĪĹ
ĠB or
ĠChampionship s
ãĥĭ ãĥ¥
Ġaut om
íĨ ł
el a
Ġdecla red
ĠDemocr atic
g ar
ĠR ome
Ġproduc er
å¤ ĩ
Ġschol ars
æľ ±
â ģ
ç¯ Ħ
èĤ ¡
' ,
Ġtrack s
Ġass igned
ìĨ į
Ġtarg et
ec ause
ĠBra zil
Ġtri al
i est
Ġequip ment
ĠJohn son
ĠCo ast
iz es
ce an
çł ²
ĠT our
ĠDes pite
ãģĹãģ¦ ãģĬãĤĬ
Ġhe av
ç¼ ĸ
ãĤ· ãĥªãĥ¼ãĤº
Ġê ±°
çĻº å£²
ä¸Ń èı¯
åį ´
ĠEl iz
ä¼ Ĺ
æŃ Ĳ
Ġex am
èĴ Ĥ
if ying
Ġadop ted
Ġí Ĭ
Ġcom ing
ãĤ ¥
Ġab andon
ĠB h
æ¼ «
oc key
ãĥ³ãĥ Ĺ
æµ· è»į
Ġh ar
c an
Ġresult ed
ãĥ³ãĥ Ķ
Ġpre mi
og ue
he w
à ¤
Ġs ens
ĠO s
i y
ĠCon ference
ĠC ross
Ġwebs ite
Ġser ious
ay a
èĥ ¡
å «
åį «
ĠPort ug
Ġê² °
ĠSen ate
ç« ¥
ìĿ´ ëĿ¼
Ġp aid
çĸ ĳ
per ial
g a
ĠĠ Ġ
ron ic
Ġpres ence
Ġad ult
å¥ ī
Ġcou ple
is er
Ġbur ied
Ġconc ent
Ġte nd
èī ¾
ĠT em
Ġthere fore
Ġn ucle
Ġcitiz ens
íĨ µ
Ġc ateg
Ġtit led
ãģ«å¯¾ ãģĹãģ¦
ãģª ãĤī
it ness
ãĤ« ãĥ«
ĠPe ople
ed om
ãĤ¢ãĥ« ãĥĲ
çľ ¾
æ¤ ľ
k o
æ ª
g rad
cl ass
ad or
åħ± ãģ«
ì ¢ħ
Ġan t
Ġê ¸
Ġlab or
ç« ¹
ĠT w
ä¸Ģ æĸ¹
ä½ ³
Ġbe at
al ing
20 19
ĠM ot
6 8
Ð °
Ġnew ly
ĠL ove
Ġorgan ized
P A
Ġmur der
Ġfif th
Ġreg ional
Ġsing er
Ġam b
ãĤª ãĥ³
ĠJ ac
çĶ ³
Ġact ually
b l
éļ ľ
ak a
ãĥ¼ãĥ ģ
Ġke pt
ĠDe v
ĠT re
å® ħ
5 8
199 8
ë¥ ¸
Pl ot
ì ´
ãģĪ ãģ¦
Ġlead ership
ĠW ind
çĽ ¤
ĠSt an
ãģ¾ ãĤĬ
om y
Ġc ard
Ġra ces
éŃ ļ
åħ Ĵ
Ġpro pos
ãģ® å¤§
éĢļ éģİ
ãĤĴ è¦ĭ
Ġth ous
Ġsuggest ed
è¨ ª
ĠD is
ĠBer lin
åį ±
åŃ «
ãģĮ ãģĤãĤĬ
es h
ç° ¡
Ġacc omp
Ġshow ed
éĽ ²
uild ing
Ġsol o
5 9
Ġp et
ĠA re
åĢ Ĵ
W ith
èŃ° åĵ¡
Ġwid ely
g ent
çī Ľ
ĠC r
Ġpre p
che n
è¾ ĸ
ãĥ³ãĥ ģ
éĤ Ĭ
èĢ ¶
Ġ9 0
Ġpress ure
ìłģ ìľ¼ë¡ľ
éģ ķ
Ġart icle
ê¹Į ì§Ģ
Ġth r
åĪĹ è»Ĭ
in em
Ġb ranch
iv ity
or al
çį İ
ãĢĭ ãĢģãĢĬ
Ġgr anted
è´ £
ĠH y
Ġs ays
Ġsy mb
Ġtri ed
il ly
im a
ãģ« ç§»
å¤ļ ãģĦ
ĠS and
ĠSy dney
Ġpe ak
r ical
å¥ ĸ
Ġë¶ Ī
ĠëĤ ¨
Ġrec omm
en ge
éĹ ĺ
ans as
Ġcomp uter
Ġstr ugg
æĺ Į
Ġch annel
ëª ¨
Ġelect ric
Ġcontin ues
ĠA venue
Ġcer em
æĪ ı
ol es
åħ± åĲĮ
b ook
Ġex pected
åŃ¦ éĻ¢
æķ µ
Ġra re
éĮ Ħ
ĠëĮĢ íķľ
Ġc ensus
éģ ©
w orth
ent ed
Ġd yn
um ber
Ġm ess
Ġle aves
Ġsettle ment
og rap
Ġ196 5
è´ Ł
èİ· å¾Ĺ
çŃ ĳ
ph y
åĦ ¿
éģ ¿
åĲ ¸
Ġoff ers
ans ion
Ġìĥ Ŀ
èį ·
Ġmention ed
Ġinter p
å¯ Ħ
Ġpain t
äºĮ åįģ
Ġoccur red
ĠL y
it age
âĢ ³
g u
Ġcomp ared
å¼ Ĺ
w ith
è¨Ī çĶ»
ĠK ent
n o
6 2
ĠOr der
ĠB al
Ġ196 4
Ġse arch
ĠH ung
Ġfl ight
Ġb ad
ĠìĹ Ń
Ġpla ces
ç¤ ¼
å®£ å¸ĥ
å½ ķ
Ġact ing
ĠM u
Ġret ire
åĶ ®
ĠBr ig
Ġsour ces
ro ll
ag er
èĲ ¨
Ġexpand ed
Ġg reen
ãĥ¬ ãĤ¹
ĠH istor
ãĢı ï¼Ī
Ġw ant
Ġ196 6
ĠV an
Ġtyp es
ĠO tt
ag on
Ġknow ledge
Ġfor ward
j a
ãĤ° ãĥ«
Ġc oin
199 7
ĠF C
è¾ ¹
m iss
7 2
v est
in ity
æĲ Ń
Ġexec utive
åĪ º
è¡ĮãĤıãĤĮ ãģŁ
ãģĿ ãģĹãģ¦
ãĥŀ ãĥ³
ri e
man n
ĠColumb ia
ic ine
çİ ¯
ãĤĭ ãģ¨
n am
ĠM att
Ġoper ating
Ġpos itive
Ġestim ated
Ġin form
äºĨ ä¸Ģ
cl es
nd ing
ĠC ur
å¥ ª
èĩ º
c ol
ãĤ» ãĥ³
è² ´
ĠU r
un te
Ġt ells
Ġc at
èĥ ŀ
Ġsex ual
Ġcommun ities
æĬ ¤
os en
èĩª çĦ¶
Ġdam age
Ġw all
æĪ ²
ãģ ¥
Ġal le
çĻ Ĥ
Ġd ance
b o
ac es
çĹ ĩ
Ġs ales
ĠO f
æĻ ļ
Ġdiv ided
ĠAs ia
Ġteac her
èĹ Ŀ
å» ĥ
Ġre duced
ĠL u
Ġofficial s
er c
il a
èĭ± åĽ½
ĠAl so
ä»¥ å¤ĸ
em et
Ġown er
ĠB ul
çĶŁ å¹³
ister ed
éĢ ±
ĠEn ter
Ġsec ret
Ġclaim s
é¡ ¹
Ġbecom es
æ¨ ¹
ĠG ood
ĠG ames
Ġnot able
Ġëĭ ¹
ĠM id
æ¢ ģ
Ġ194 2
Ġs u
Ġpar ish
m as
ĠRepublic an
ot ed
Ġal one
Ġc ars
éĥ¨ ãģ®
Ġ5 00
çĶ ļ
Ġcol or
6 9
I A
å¹ ħ
Ġon line
è¯ Ħ
Ġterrit ory
ĠOh io
al ion
Ġw ear
I D
ĠBl ue
ĠCor poration
åħ ħ
è« ¾
Ġp al
ãģĵ ãĤį
Ġtrans fer
èĥ½ åĬĽ
Ġìĸ ´
åĽ½ æ°ĳ
ib ly
ist ance
Ġf r
í ĳľ
ĠAlex ander
ãģ® ãģŁãĤģ
ol ved
Ġb oy
ãĤ¨ ãĥ«
el la
ëŀ Ģ
Ġindust rial
Ġtyp ically
Ġg reater
ran ge
y al
ãģĹ ãģı
Ġgrow ing
Ġpre c
í ħ
ãĢĤ ãĢį
æĭ į
ĠJ ersey
Ġattack s
å¹ ¾
Ġfeat uring
ĠW ater
ĠJack son
g ers
. )
ĠPhil ipp
ãĥ¼ãĥ Ĳ
Ġmed al
Ġprov iding
S C
Ġcamp us
Ġp ack
ãĤĭ ãģĵãģ¨
ãĥĥ ãĥģ
Ġac ademic
ing er
ĠSt ep
he t
am ber
Ġresult ing
Ġcon clud
ĠSer ies
wh ich
s et
ï¼ļ _
Ġref used
Ġb urn
Ġconf irmed
Ġmed ian
ãĥª ãĥ³
L ife
Ġr at
çĽ´ æİ¥
Ġcre ation
Ġrecomm end
ĠHe ad
d ro
Ġperforman ces
ĠJust ice
Ġv oice
ãĤ¹ ãĥļ
ï¼ Ŀ
Ġth ings
éŃ ¯
ĠL i
æĻ º
ĠDe velopment
íı ¬
B e
ĠG ar
èª ²
Ġt ask
ion e
éĿ¢ ç§¯
Ġsp ring
ç¹ ¼
å¥ Ī
Ġob tained
ĠC ard
ĠM en
igh ter
Ġcont ent
on to
ëĤ ´
ãĥĪ ãĥ©
5 1
y er
éĢ ı
Ġco al
èĩ ¨
ãĤ·ãĥ¼ãĤº ãĥ³
O ne
od ay
Ġpos itions
è² ¨
å°± æĺ¯
è ¸
ãĥĬ ãĥ«
ç» §
ä¼ ¦
Ġh op
ë¦ ½
ãĤ¢ ãĤ¤
è· ¡
åıĹ åĪ°
Ġì¶ ľ
Ġ194 1
emet ery
Ġjoin t
å® ¿
Ġinj ury
Ġsp irit
S c
Ġcomb ined
Ã ±
èĩª åĭķ
, _
Ġte aching
g al
ĠBro ok
ĠS ong
ãĤ¯ ãĥŃ
è¿ «
ĠPro gram
Ġcan not
ĠM ax
ãĤĴ çµĮ
Ġpur pose
5 2
W e
ĠK ong
å°± ä»»
ĠL ibrary
Ġb ought
Ġpat tern
8 7
èİ ±
resp ond
é® ®
Ġcrit ical
ĠìĹ Ĩ
èĮ ĥ
197 0
ĠAn other
Ġcond ition
è¥ ²
Ġsitu ation
çĥ Ī
ĠPol ish
ĠEliz abeth
Å ¡
ĠT y
ĠF ederal
Ġ ir
Ġspl it
éĩ ĩ
Ġc am
ä» Ģ
ĠìĽ Ĳ
ãĥ¼ãĥ Ĩ
Ġpain ting
Ð ¾
est ic
Ġrece ive
çĮ ®
Ġele v
Ġp un
æľī ä¸Ģ
ĠCh ild
å¤§ éĺª
æĶ¿ çŃĸ
æĭ Ľ
ãĥ¼ãĥ ĸ
Ġv ess
æĸĩ åŃ¦
Ġt ank
Ġsc ulpt
ir a
ot i
ĠJ r
et ts
ĠF ar
Ġdr um
ĠMich igan
æ¥ ¼
åª Ĵ
ê² ©
pt on
ëĲĺ ìĸ´
v ard
Ġident ified
ĠF e
ult y
5 7
Ġm ax
å³ °
ĠF ield
Ġsup ply
Ġl iber
åĥ į
Ġtr ue
ĠC at
ĠH or
ani el
Ġë° Ľ
Ġarrest ed
ĠV iet
w ick
åĲĮ æĹ¶
ĠC a
h an
k in
Ġhand s
ut ing
Ġrespect ively
ĠT op
Ġp ict
5 4
Ġ eld
res h
åīį å¾Ģ
åıĳ å±ķ
Ġg ain
hen s
Ġl ot
ĠAd d
ĠU l
ut s
Ġì§ Ħ
Ġlos ing
ĠAs ian
æ°ĳ æĹı
ĠK enn
Ġìļ °
Ġc ells
z er
Ġv ac
anc ing
ä¸Ń åħ±
æĭħ ä»»
th ur
ç´ Ļ
ê° ģ
Ī ¬
Ġen j
Ġme ant
6 7
Ġliter ature
ĠC y
ãĤĤãģ® ãģ®
æµ· æĭĶ
Ġsem i
Ġb al
Ġsurround ing
èī º
ĠE st
Ġcondu ct
L A
Ġorganiz ations
è£½ éĢł
Ġc e
g reg
Ġdise ase
ĠB ern
ãģĨ ãģ¡
Ġyoung er
Ġl ibrary
åħ¬ éĸĭ
éģ ĩ
ĠF our
6 1
Ġbeg ins
ĠPr ime
Ġauthor ities
å®ī åħ¨
Ġsett led
å¯ ©
Ġf lag
9 8
Ġmin ister
èĦ ±
is hes
é² ģ
ug by
è² ©
çĻ¼ å±ķ
Ġcap tain
g s
ë° ľ
ĠE ll
Ġs uit
å½¢ å¼ı
åĶ ¯
Ġ194 3
ĠD uke
ĠC orn
ãĤ Ĩ
Ġsomet hing
è® ©
% )
Ġmod els
ĠRev olution
çº ¢
s es
ãĥ¼ãĥ ķ
Ġcomm ittee
çī¹ åĪ¥
à ¸
Ge ography
ĠGeorg ia
Ġíĺ Ħ
ãĥĲ ãĤ¹
ĠV illa
Ġdist ance
ĠP la
Ġsc oring
Ġtra ffic
eder ation
åĵ į
çµĮ æ¸Ī
æº Ģ
ĠM ajor
å®¶ æĹı
Ġallow ing
æĵĶ ä»»
èµ «
Ġp le
Ġcomplet ely
åĨħ å®¹
Ġ194 6
s en
è® ĵ
Ġíı ¬
ren ce
ĠU k
å¸Ŀ åĽ½
ĠT im
199 6
ol id
ĠProfess or
èĭ± èªŀ
ãģĦ ãģı
ãĥ¼ãĥ Ħ
Ġ194 8
Ġgo es
end er
ĠC E
åĪ ĺ
l ers
Ġë° ĺ
Ġpart ies
Ġh all
éĽ Ļ
ĠB ishop
ĠGu ard
che stra
Ġoppos ition
åį Ī
ãģ» ãģĭ
é£ ŀ
n ic
Ġres ident
å¹ ¼
Ġm ile
Ġse em
Ġ196 3
äºº ãģĮ
Ġform at
Ġsh op
Ġë ©
Ġreturn ing
ä½ľ çĤº
Ġ196 2
Ġf ix
éĽ ª
od ies
ãĤĮ ãģ¦ãģĦãĤĭ
w ing
æł ª
èŀ į
åĽ½ éĻħ
Ġw ing
ĠG h
ãģ ŀ
Ġf ast
Ġallow s
íĺ ķ
adel ph
ĠCap tain
ĠJ ean
Ġcons um
ä½ľ ä¸º
ãĢį ãĢĮ
Ġel im
us ion
5 3
Ġ193 9
ç¿ ¼
çı¾åľ¨ ãģ®
ĠSup reme
Ġmet al
ãģ¨ãģĹãģ¦ ãģ¯
Ġcon ference
Ġto uch
ĠH istory
ĠD an
åľĭ éļĽ
_ "
Ġcol umn
Ġlaun ch
Ġfight ing
Ġfig ure
ul es
Ġsucceed ed
Ġpro ceed
ig a
ach us
å¾ ´
ino is
Ġp arliament
Ġvis ited
Ġê³ Ħ
Ġexper iment
Ġst ock
éĻ £
ĠB ridge
å± Ĭ
n es
Ġê° ķ
ĠOx ford
æĥħ åł±
Ġs ons
æ¬ ¾
ëĵ¤ ìĿ´
æŀ ģ
ĠMin istry
ellig ence
çĦ¶ èĢĮ
è ľ
ro om
æŁ ĵ
ë©´ ìĦľ
Ġattack ed
Ġbrother s
i at
æĭħ å½ĵ
æĿ Ģ
6 3
ĠL ittle
Ġro les
Ġy ards
Ġconc ert
or ter
è¨ ¼
ĠAl bert
199 5
Ġreport s
Ġconfl ict
è¾ º
í Ĺ
Ġtw enty
è¯ ģ
ĠAnd rew
Ġlo an
Ġmot or
ì§ ģ
æĬ µ
ãģĭ ãģ¤
Ġt im
Ġmaterial s
ĠI ra
å¥³ åŃĲ
¸ Į
Ã¡ n
Ġtw ice
Ġf ully
çĽ® ãģ®
å½ĵ åĪĿ
Ġanal ysis
Ġbl ue
ĠScott ish
m ad
ĠI ran
Ġ3 2
Ġrecogn ized
Ġsl ight
Ġcont emporary
å¹´ åº¦
Ġìŀ ĳ
Ġsp ons
åĪ¶ åº¦
Ġvict im
ĠK ar
n el
adelph ia
ĠAn ton
çĶŁ çī©
ìĭ ¤
èŃ ī
éģ¸ æĮĻ
Ġinstr ument
ash ion
ĠD ie
Ġfac ility
Ġv e
Ġent itled
ĠEm peror
Ġchall eng
Ġì µľ
Ġnecess ary
æīĢ ä»¥
ãĥ© ãĤ¯
ĠN ight
se x
b a
å¤§ çļĦ
S P
èĤ ī
Wh ile
çį ¨
èı ²
ä¹ ĺ
ãĤ¢ ãĥ³
ĠAs h
Ġm om
åĪĿ æľŁ
éĨ «
äººæ°ĳ åħ±åĴĮ
ĠUn ivers
æĺ¯ åľ¨
Ġmount ain
ĠCast le
ĠH ong
Ġb ird
Ġs n
Ġrap id
è¨ İ
èŃ¦ å¯Ł
ĠVictor ia
Ġhor se
Ġpl ants
Ġpolit ics
Ġim age
a ug
Ġap plied
C D
b ro
Ġsit es
Ġad vert
ĠR ay
ãģ® åĲį
ãĤ½ ãĥ³
erv ative
ell er
Ġv on
éĽ» å½±
Ġclass es
il ing
p ass
Ġdist inct
åľ į
ãĤµ ãĤ¤
èģ ²
Ġhost ed
ä¾ĭ å¦Ĥ
ĠW ild
Ġfund ing
æĺ ĩ
ĠP en
A ll
å¸ ķ
Ġf estival
ãĤ³ ãĥ³
Ġun ique
å¤§ éĩı
ç Ģ
7 1
Ġch airman
Ġun able
Ġëħ ¸
æ¯ Ĵ
é ¸
æĦı åĳ³
éĽ ¨
çĶµ å½±
å¤ī æĽ´
íĮ Į
pl es
Ġf ans
å¾ Ĳ
åĦ Ħ
Ġattempt ed
èº į
ĠB a
ĠD un
çľ ¼
ãĥķ ãĥĪ
8 4
Ġaud ience
Ġto wer
hem at
enc ies
Ġdo ctor
æīĢ å±ŀ
Ġw ild
S e
Ġaff ili
ĠPol ice
ãĤı ãģĽ
Ġr isk
æ² ĥ
u ate
Ġclub s
ãĤ¦ ãĤ¹
ç» ĩ
èĲ Ĭ
ic ed
ãĤ¯ ãĥĪ
æĸ° èģŀ
ant ly
Ġexist ing
Ġë§ Ĳ
Ġm ales
ur er
æļ Ĺ
ĠSum mer
Ġ196 1
w ater
he im
g n
E x
ãĤ¢ãĥ«ãĥĲ ãĥł
åŃ¸ éĻ¢
ä¼ģ æ¥Ń
ĠCh ap
Ġcomm ander
ãĥ¼ãĥ ĵ
ç³» ç»Ł
Ġsp ot
ëĵ¤ ìĿĢ
Ġy our
åĨ ·
e z
å¹³ åĿĩ
y es
Ġcor respond
C ol
åĩ ¦
Ġc ab
Ġ urban
ĠM as
ãĤ· ãĥ³ãĤ°
Ġinsp ired
Ġcreat ing
osoph y
Ġs ides
æ¶ ¯
ĠUS A
F ollowing
k er
achus etts
åľ° çĲĨ
Ġg ives
8 2
Ġb ill
è¯ º
Ġconnect ed
Ġprov ince
å¥ĳ ç´Ħ
Ġform ation
Ġ194 7
èĭ± åľĭ
ĠIll inois
å¼ ¾
ĠF le
S p
åĲĪ ä½ľ
ĠOff ic
åı¸ ä»¤
å¯ «
v in
æ» ħ
è© ©
ĠCon f
ĠOp en
8 1
199 4
ĠëĶ °
ĠD et
ë² Ħ
ãģ ¼
ëħ ¸
Ġar ms
Ġm orning
8 3
Ġìķ Į
å° º
æķĻ ä¼ļ
Ġ Î
Ġsecond ary
- -
I T
æĮĩ æı®
Ġun ion
ĠT ay
èµ· ãģĵ
æľĢ å¾Į
Ġlangu ages
Ġbro ke
Ġre ject
l oad
æ¨ ĵ
æŃ ²
ĠB oy
æ©Ł éĸ¢
íķĺ ê¸°
Ġocc asion
ê ¶Į
è·¯ ç·ļ
åĽ ´
Ġm ut
ĠQue ens
Ġg overnor
Ġcont est
p an
ĠP rem
íĭ °
ĠT am
ĠH ind
Ġst ream
Ġacc ident
é» Ĵ
ins on
u er
Ġch osen
Ġatt ra
ì ¼
åĽ ²
7 4
ä¸Ń åįİ
Ġw inner
ãģ¨ ãģ¨ãĤĤãģ«
çĤ ®
Ġact or
ĠL ew
ĠK en
bour ne
on ia
ãĤ¹ ãĤ¯
Ġex tend
Ġc arri
Ġsc ript
z y
Ġac res
ric s
Ġpro f
Ġ ...
ë° Ķ
åı ¬
æ¡ ¥
ĠAr m
Ġst re
èĪ °
O ther
æŀ ļ
ĠTh ree
çī¹ ãģ«
æĸ¯ çī¹
ĠV en
ĠW ay
å² ģ
4 00
Ġmark ed
ãģĵãģ¨ ãģĭãĤī
ĠR el
Ġdig ital
Ġvot es
Ġro of
Ġenc oura
Ġanim als
ĠN az
åĭĿ åĪ©
ĠPhil adelphia
un a
ĠB ang
ä»ĸ åľ¨
S ince
Ġreview s
ĠJ ournal
ë¦ °
åľ §
ãĥ¼ ãĤ¿
Ġdou b
Ġg overn
Ġwe ight
åĽ½ åĨħ
Ġrel atively
ãģ¨ è¨Ģ
æµ ¦
Ġd ensity
Ġresp ond
ãģŁ ãģł
Ġattempt s
è¨ ´
ĠMass achusetts
ĠP ress
åł´ æīĢ
ĠTor onto
Ġenem y
Ġcon sec
C on
ot y
Ġoccup ied
ĠReg iment
av a
Ġop posed
Ġauthor ity
íķĺ ê²Į
u ous
Ġpie ce
ãģł ãģĮ
9 2
ãĥ¼ãĥ ĭ
Ġfrequ ently
ĠS pecial
c i
Ġmix ed
Ġdrop ped
çĶŁ æ¶¯
ä¸ ¸
ç¤¾ åĮº
ĠB ell
çļĦ å¤§
Ġfig ures
è¡ £
Ġë Ħ
ru it
l i
åĭ ¤
ãĤĴ å¾Ĺ
Ġro yal
ĠR aj
ĠA k
ĠL im
Ġìĭ ¤
ĠA ff
ĠJ eff
Ġp it
ĠN etwork
Ġemploy ed
Ġrul es
æĤ ª
ãģ® ãģ§
ãĢĭ ï¼Ī
ĠT ime
r at
ed ing
ĠB rad
è£ ¡
åĬ ¹
Ġprote ction
Ġ195 6
ãĤ¹ ãĤ¿ãĥ¼
ĠH ome
Ġfin ish
è´ ¹
Ġcr im
erv ed
ì ¸
Ġb illion
Ġthe atre
ï½ ŀ
ul ate
ĠR og
ãģ«ãģª ãĤĬ
Ġmunic ipality
t ra
Ġnomin ated
Ġst ars
é» İ
Ġse vent
ĠSant a
Ġe arth
å± Ĥ
ãĥŀ ãĤ¤
B orn
ãĤ¸ ãĤ¢
ak h
r in
ãĤĴ ãĤĤ
ĠB udd
Ġdistrib ution
re p
ãģ¨ ãģį
ĠS her
ãģ» ãģ©
Ð ¸
Ġm is
Ġmach ine
é£ ¾
Ġ195 8
æĶ» æĴĥ
re al
ak s
Ġmeas ure
é¨ İ
æ³ķ å¾ĭ
ãĥ¼ãĥ« ãĥī
ĠC op
Ġpromot ion
ç¿ »
Ã ¸
ĠR od
Ġ195 9
ct ors
èĩª åĪĨ
ĠíĮ Į
Ġas pect
ĠM aster
éł ĵ
ĠIra q
ãĤıãĤĮ ãĤĭ
å®Ĺ æķĻ
Ġmem ory
7 3
Ġscient ific
Ġ ice
ç¤¾ åįĢ
hed ral
Ġa ctions
Ġsim ply
Ġprov in
Ġenj oy
å¢ ĵ
la b
ä»¥ åīį
ograph ic
Ġsubsequ ent
av en
æĿ ľ
Ġv an
è®¾ è®¡
ä¸» å¸Ń
ill ery
è¶³ çĲĥ
Ġfl ood
Ġcommon ly
er al
æģ Ĳ
æİ§ åĪ¶
ure au
Ġnar row
ëĶ Ķ
Ġa wards
å®¶ ãģ®
Ġat h
Ġtra ins
ëł ¹
å¤§ åĪ©
ĠF air
o is
Ġexp ansion
j i
Ġ iron
ĠS ports
åįļ å£«
ãģĮ ãģĤãģ£ãģŁ
é«ĺ æł¡
cent ury
ri z
è³ Ģ
éĸĵ ãģ®
Ġrest aur
199 3
ĠM ov
Ġex change
Ġsaf ety
Ġepis odes
åı¦ å¤ĸ
Ġle ct
Ġpublic ation
Ġpart ner
il ton
Ġm ind
199 2
Ġappro ved
æĭ ł
im al
ĠP op
Ġgun s
Ġe c
Ġachie ved
Ġmethod s
Ġperform ing
ĠT enn
ĠComm on
ãģĻãĤĭ ãģĵãģ¨ãģĮ
Ġvers ions
ke e
éģ £
Ġadv anced
Ġwin ter
ĠInd epend
P C
Ġl y
Ġí İ
Ġs ense
Ġtem ple
Ġhead quarters
Ġport ion
ĠF ox
æĶ¯ æı´
k es
ĠB att
è ķ
ãĥī ãĥ«
Ġill ust
Des cription
ĠR h
olog ist
ĠN ations
in ate
wh ile
Ġass ociation
æ§ĭ æĪĲ
éĢļ è¿ĩ
ĠComm un
ĠG irl
é¡ į
éĢł æĪĲ
éº »
ãĥ¼ ãĤ¹ãĥĪ
Ġsil ver
åľŁ åľ°
se y
åĵ ²
æĸ Ĺ
åı° çģ£
¤ Ģ
os is
Ġê ¹
9 3
Ġ195 7
196 0
Ġd og
b ec
ĠE s
Ġf air
Ġar ts
Ġh abit
Ã© e
Ġbeg in
ĠA th
9 6
Ġmat ter
Ĩ Ĵ
Ġshort ly
ãģĭãĤī ãģ¯
ĠE lect
Ġeconom y
om er
Ġon to
åĢ ī
Ġmag n
Ġëª ħ
çĽ® åīį
Ġback ground
it ors
Ġcomp on
i ary
ç¤¾ æľĥ
ud get
iqu es
ul s
Ġtit les
ĠE p
ĠM ir
Ġext ensive
Ġserv es
å¯ §
è² Ŀ
ful ly
è² ·
ãģ¨ãģĹãģ¦ ãģ®
çĥ ı
Ġres ources
S S
Ġthem e
ĠG ame
èĩª æ²»
om ot
å¾ ³
Ġcan cer
ĠPol and
Ġtre es
Ġapp arent
Ġrece iving
ç¹ ģ
ĠCol on
ĠF I
ĠB ab
Ġsoft ware
ãģ¨ åħ±ãģ«
Ġb ul
Ġs ought
Ġt ree
é§ Ĳ
ĠPro ject
Ġìŀ ¬
ĠJ oe
åĽ °
Ġs le
Ġeffect ive
ãĥª ãĤ¹ãĥĪ
Ġr ural
Ġneed s
ore n
ìĹĲìĦľ ëĬĶ
Ġf ought
íķ ©
ĠIs lands
Ġb asketball
are t
ĠìĤ¬ ìļ©
Ġch o
åİŁ åĽł
ri p
Ġfind s
ãĤĪãģĨ ãģ«ãģªãģ£ãģŁ
ruct ure
éł Ĳ
pl ies
Ġpre par
çĴ° å¢ĥ
Ġro b
ul ed
Ġres c
å·¥ æ¥Ń
ig en
ĠAr gent
A M
e en
ãĥĩ ãĥĵãĥ¥ãĥ¼
9 7
Ġm icro
ĠB and
è¨ ĵ
Ġwrit e
åįģ äºĮ
ĠAn t
Ġ194 9
æ´ ª
ãĤ¢ ãĥĭ
è¦ı æ¨¡
æŀľ ãģŁ
Ġw alls
ph as
åħĥ å¹´
æĨ ²
un s
ĠD am
åĲĮ æ§ĺ
å¹ ¸
æķħ äºĭ
Ġt al
row d
ov a
Ġdes cend
æ® ĸ
Ġ Å
çİ ©
ãĤ ĩ
ãĤı ãĤĬ
ĠE conom
Ġd aily
Ġdo ing
i ant
Ġë¶ Ħ
ĠComm and
Ġf ish
m et
ç¨ĭ åº¦
ãĤī ãģļ
al y
Ġprinc ipal
I N
å¤ª å¹³
ĠWil son
Ġs port
åĥ ħ
ĠKore a
Ġcontrib uted
èĸ ¬
Ġcommission ed
ãĥĩ ãĥ«
r um
ast y
if ically
ou ri
Ġp air
Ġ3 00
Ġland s
M an
b i
Ġíķ ¨
è§£ æĶ¾
ĠE nd
ĠD er
åĦ Ģ
. âĢĿ
Ġv ent
Ġre ar
ì ½Ķ
åĨ ľ
O R
ãĤ¸ ãĤª
Ġcomb at
199 1
ĠN ether
M ar
è¡Į åĭķ
ĠL ady
Ġbe y
ĠAir port
æİ¥ åıĹ
ĠInd ust
íĺ Ħ
ĠBus iness
ĠìĿ´ íĽĦ
Ġë ĳĲ
ĠRou te
åĳ½ åĲį
it ter
Ġstra ight
Ġpower ful
r ations
ï¼ Ł
èĩªå·± çļĦ
ĠH uman
Ġs and
Ġele ment
Ġet c
è»į ãģ®
éĻ µ
ĠPak istan
Ġt ry
ache lor
ig ration
ĠAtlant ic
ĠAb b
Ġre in
ĠD a
ĠFore st
d a
Ġreg ions
åģ ĩ
Ġ195 5
in y
rop ri
ĠE ach
æĹ¶ éĹ´
æµ·æĭĶ é«ĺåº¦
Ġav oid
ãĤ¹ ãĤ³
Ġíķľ ëĭ¤
Ġ19 18
ìĦ ¤
åĩ ł
ĠC ult
èĢħ ãģĮ
Ġd ial
ĠTechn ology
T C
rick et
Ġth ir
çĥ Ń
ur ance
Ġneg oti
tern al
iv als
ĠM un
itz er
æĸ¹ åĲĳ
ä¸Ģ çĽ´
ar p
Ġhe ro
Ġfund s
æŃ ©
Ġbey ond
Ġinv ited
ãģĭ ãģĳãģ¦
ĠP ers
ĠO k
è´ ¥
ãĥ³ãĥĩ ãĤ£
ãĤ¸ ãĥ¥
Ġre ference
Ġwe alth
am in
ĠB ir
ä¸» æķĻ
éĢĻ åĢĭ
í Ĵ
èĶ µ
Ġgu est
æ§ĭ éĢł
Ġdel iver
Ġb ow
Ġlearn ing
Ġalle ged
T A
Ġher self
ãģªãģ© ãĤĴ
ĠComm unity
å¦ ¹
å®¶ åºŃ
è¿Ļ ä¸ª
Ġperman ent
Ġtr ust
Ġsim ple
ĠH ay
H L
Ġretire ment
u ilt
Ġb ott
ãĤĴè¡Į ãģĨ
å£ ģ
éĽ» è¦ĸ
Ġfac ed
ĠL ight
Ġad apt
åħ¬ åľĴ
Ġset s
ï¼ļ ãĢĮ
ãĥ¼ ãģĮ
Ġmunic ipal
pos ition
m outh
Ġ195 4
Ġend s
å ļ
ĠH an
åŃ¸ æł¡
uc cess
Ġê° Ļ
Ġfoc used
Ġex clus
íĥ ľ
é£Ľ è¡Į
éĢĻ äºĽ
ç¬¬äºĮ æ¬¡
Å Ĥ
íķĻ êµĲ
è¿Ļ äºĽ
å¾Ĺ åĪ°
Ġsub s
ë ĳĲ
Ġcast le
ĠJew s
ãĥģ ãĤ§
Ġport ray
èĥ ľ
ãģª ãĤĬ
å¹ ¹
Ġg raph
ĠAmeric ans
çī §
b ell
Ġadv ant
åį° åº¦
å½ Ī
Ġsuccessful ly
ĠG en
ìł Ĳ
ly wood
ãģ¾ãģ§ ãģ®
åĩº çĶŁ
Ġgirl s
Ġset ting
é³ ¥
Ġgl obal
ìķĺ ëĭ¤
D A
ĠD ar
è« ĩ
Ġconver ted
Ġadv ance
l ong
u ct
Ġv en
Ġinc ident
å¤ļ æķ°
Ġ195 2
çĶµ è§Ĩ
Ġrank ed
ĠIn st
åıĬ ãģ³
9 1
ëŀ Į
ãĢĤ ãĢĮ
or ney
æ¼Ķ åĩº
9 4
ĠSqu ad
Ġhold s
Ġprov ed
ä¿Ŀ èŃ·
ï¼ļ âĢľ
Ġsh ared
æµ ľ
ĠS us
I s
Ġbelie ve
Ġult imately
Ġcon vers
Ġconstit u
æ¤į çī©
Ġesc ape
ãĤĴæĮģ ãģ¤
Ġabandon ed
ĠT a
Ġfound er
ãĤ· ãĤ¹ãĥĨ
or gan
å§Ķåĳĺ ä¼ļ
Ġ195 3
Ġde ploy
ĠE arl
æ³ķ åľĭ
ĠC ub
æ² ¢
Ġspe ech
ĠOlymp ics
ĠP o
è¥¿ éĥ¨
ĠL es
åıĳ çİ°
id ge
Ġcons ult
Ġgl ass
c ow
Ġspe ct
Ġag ent
Ġh ired
ĠA ut
ãģ¨åĳ¼ãģ° ãĤĮãĤĭ
Ġdef in
æ³ķ åĽ½
er ick
Ġveh icles
çĩ ĥ
enn a
ĠK ir
Ġf uel
ly n
é¡ ¿
Ġse ctor
æĭ ľ
Ġlet ters
Ġdevelop ing
igh th
çŃ Ĩ
ĠìĦ ¤
ou red
ad ing
Ġcompet ed
ur ches
19 50
æĭ Ĵ
ĠZ h
re ct
Ġdesign ated
Ġarchitect ure
Ġway s
Ġc ode
å¸Į æľĽ
ĠG er
çĭ Ģ
ç»ı æµİ
Ġre ally
åŁ ¹
Ġcont rast
è³ ¼
æĬ ĺ
æ¯ İ
å° Ĭ
A nd
ãĤ¹ ãĥĿ
éł Ī
´ ĳ
çĻ¼ çı¾
æŀ Ĳ
am ing
ä¸Ń ãģ«
uck y
u ation
ë¦ Ħ
ind er
Ġdr ive
Ġun known
åĬ ´
und er
ãĤ·ãĤ¹ãĥĨ ãĥł
ang er
ĠBe ach
å· »
p ool
Ġc ert
198 9
Ġarg ued
Ġpie ces
ad ed
ĠMed ia
Ġinstit utions
18 0
Ġ ãĢĬ
ear s
Ġ193 8
ĠHigh way
Ġro t
o es
ol is
åĩº æĿ¥
ãĥ³ ãĤĴ
Ġfield s
Ġinvestig ation
ä» ²
ĠR om
åıª æľī
ĠP ower
ĠA h
å§Ķåĵ¡ æľĥ
ä¾ ¯
Ġcr ime
A m
ĠMar sh
ç¶ĵ æ¿Ł
Ġh otel
æ¶ ²
å¾Į ä¾Ĩ
æº ª
Ġ4 4
D on
ĠO b
Ġìĺ Ī
Ġatt rib
ĠOr gan
åĲİ æĿ¥
ĠS ab
I nd
ot ic
éĸĵ ãģ«
Ġì° ¨
Ġdec re
Ġnorm al
Ġpre m
Ġt rying
èĭ ¦
é¡ ¯
Ġconstit ution
çĻº çĶŁ
ĠC irc
Ġ1 50
éĻ¤ äºĨ
k g
ä»ĺ ãģĳ
é¡ ĺ
ol n
Ġinflu enced
ëŀ ĳ
Ġtra v
æķ ¦
Al though
Ġapplic ation
æĪ »
Ġëĭ ¨
ĠMar ia
ãĥĲ ãĥ¼
Ġcop ies
r ade
ĠIn t
Ġplann ing
la in
Ġdef ense
el ve
ëħĦ ìĹĲ
os a
é ±
ĠB ase
Ġdist ingu
ãĥĪ ãĥª
ĠL t
å¯Ĩ åº¦
åĢ Ł
Ġsome one
Ġent rance
Ġcent uries
ä¸» ä»»
Ġcrit ics
Ġengine ering
f e
Ġhe ight
ĠT al
Ð µ
Ġt able
ill ing
ç¿ °
Ġem phas
ĠAd minist
è» Į
å½± åĵį
Ġfound ing
Ġg all
ĠNether lands
Ġd ipl
å¼ ¹
Ġcall s
ä¸ĸ çºª
çļ Ĩ
ap pe
ì¡ ±
Ġrecogn ition
Ġweap ons
Ġìķ Ī
Ġc art
ä» Ļ
im ents
Ġb ra
ĠMed ical
Ġv irt
g ian
pr ise
tar io
éĬĢ è¡Į
åľ° ä¸ĭ
æµ ĭ
Ġeduc ated
æŃ¤ å¤ĸ
Ġpartn ership
clud ing
Ġdram a
è· Ł
p et
re te
or i
æ°ĳ åĽ½
ĠTay lor
ĠB ol
W ill
Ġ RA
è¯ Ŀ
å¢ŀ åĬł
Ġfle et
Ġw atch
ä½ľ çĶ¨
ĠH un
èĳĹ åĲį
åĶ¯ ä¸Ģ
èģ ļ
æĺ ¾
åĩº çı¾
ĠM ike
ĠV i
íķ ¨
Ġcorn er
olit an
om ew
Ġto ward
Ġexhib ition
um es
ä½ ł
Ġold est
ãĥ« ãĤ¯
Ġre asons
y ard
ãĤĴ åĲ«
ann ing
ìľ¼ ëĤĺ
æĹ ĭ
Ġch ampion
Ġ195 1
Ġpil ot
Ġsc enes
it i
ĠM P
Ġpat ients
ãģ«å¯¾ ãģĻãĤĭ
Ġend ing
é ı
æĻĤ ãģ«
Ġf er
åľ° çĲĥ
ãģŀ ãĤĮ
Ġeng aged
ç»Ħ ç»ĩ
we ight
Ġ3 6
Ġb ass
ol y
m es
ãģ¾ ãģ¾
ĠTur k
l ife
æ½ ®
ĠN ic
Ġopport unity
Ġcons isted
Ġart icles
ĠH al
è¿Ĳ åĬ¨
ãģĿãĤĮ ãģŀãĤĮ
èª¿ æŁ»
O M
æľĿ é®®
ãģĵ ãģĨ
å¼ ±
ĠD own
æĪ ·
Ġexpress ed
æĲ į
Ġhold ing
b ar
äº «
ä¸ĸçķĮ å¤§
Ġ19 19
è²© å£²
Ġmer ch
ĠPri ze
Ġoffic es
te xt
çģ ½
åħ· æľī
åĪĨ å¸ĥ
Ġfail ure
Ġviol ence
Ġv oc
ãĥĥ ãĥĳ
è¾ ŀ
ĠB ecause
äº ĳ
ĠAm ong
åįļ çī©
Ġ6 4
èĢ ³
Ġappoin t
èĢħ ãģ¯
Ġbas ic
ris is
Ġhistor ic
Ġpl ot
ìĬ ¹
if orm
Ġdeterm ined
ä»» ä½ķ
el le
è¡Ĺ éģĵ
em an
Ġop in
è»į äºĭ
ãģĻ ãģ¹
ĠMount ain
ìĭ ¬
Ġr ise
Ġstruct ures
Ġdocument ary
Ġ193 6
Ġdesc ript
Ġë ¡
Ġb or
Ġs ust
åĿ ¡
ä»¥ æĿ¥
ãĤĴ æŀľãģŁ
Ġhe ard
ãģ§ãģ¯ ãģªãģı
g est
Ġí Ĺ
Ġcar ry
Ġident ity
éŃ ı
åıĥ åĬł
Ġveh icle
Ġ3 3
ron ze
éļ Ķ
è¯ ·
Ġview s
st ream
ĠMar g
é«ĺ éĢŁ
çŃ Ķ
Ġneighbor hood
ĠB ureau
y o
ĠSund ay
åĿ ĳ
è²ł è²¬
Ġide as
k ing
h aps
æŃ» äº¡
cl os
éĸ ī
Ġl aid
Ġinh abit
ĠBro ther
ann a
Ġë ¦
ä¹ Į
æĤ £
ol ished
æľī éĻĲ
Ġrequ est
ĠH u
çĬ¶ æħĭ
å¨ ĺ
a fter
ĠR ac
ĠN ap
f riend
é ĳ
æĶ¹ éĿ©
åīį ãģ«
ê ±´
Ġs amp
Ġheav ily
ĠPrem ier
Ġr ing
i i
Ġvilla ges
Ġgu ard
è¾ Ľ
or ph
Ġtown s
Ġs ac
æī ¾
Ġa id
ĠJ on
ĠAl f
Ġr ival
ãĥ´ ãĤ§
ĠB at
ur d
éŁ³ ä¹Ĳ
ãģ§ãģ¯ ãģªãģĦ
im ens
åĩº çİ°
ĠW alk
åĥ ¹
z h
ãĤµ ãĥ¼
ĠDav is
è¿ ľ
å® ģ
Ġg od
ä» ·
ãĢĤ âĢĿ
Ġn ob
Ġp ul
ĠF ire
Ġ193 7
éł ¼
èĮ ¶
Ġdom estic
ĠTr ust
in er
Ġse ats
íĮ Ĳ
Ġl oad
é į
out heast
è´Ł è´£
éŁ³ æ¨Ĥ
ĠWe ek
ãĤ°ãĥ« ãĥ¼ãĥĹ
Ġst ating
ric ts
Ġpol l
å»º çŃĳ
Ġord ers
éĸ £
ĠSe ver
f l
ĠS u
ĠBar on
j e
äºĭ åĭĻ
ĠM ic
ĠCamb ridge
Ġnot es
Ġa uth
çļĦ æĺ¯
Ġregard ing
Ġimport ance
å§ ĵ
Ġg ar
ê¸ Ī
ĠAt t
Ġext rem
èŃ° ä¼ļ
198 8
Ġtechn ical
Ġconne ction
rest ling
æ» ¡
è®¡ åĪĴ
éº Ĺ
ivers ary
èª Ń
ĠOn tario
S R
Ġdet ect
æĮ ī
åĨ ¬
Ġdec ades
æľŁ éĹ´
Ġslight ly
Ġsup por
ä¸ ĺ
å ¶
E ducation
b ra
Ġaccomp an
Ġste el
è± Ĭ
Ġincorpor ated
ä» ħ
Ġdec or
ë¡ ł
ä¸į èĥ½
Ġsupport ing
é¦ĸ æ¬¡
æ» ¿
Ġfollow s
ç© Ĩ
ç® Ģ
i pe
å® Ļ
ĠëĲĺ ìĹĪëĭ¤
ãĢ ľ
Ġinst alled
è´ Ŀ
å¾Į ãģ¯
Ġs we
éģ¸æīĭ æ¨©
å½ĵæĻĤ ãģ®
ĠSt adium
ãĢ ī
Ġr ang
h at
ãĢ Ī
Ġexper ien
çµĲ å©ļ
c ell
Ġexp ed
Ġc as
Ġw arn
Ġd ress
æŁ Ĳ
ĠSer b
Ġnucle ar
è± ª
Ġform al
Ġ19 17
ãģĵãģ¨ ãģ§
æĸĩ åŃĹ
Ġrelig ion
Ġpass ing
6 00
Ġestablish ment
Ġ x
ĠM emorial
ĠB ad
æĵ ģ
ĠíĬ ¹
ĠF ord
Ġmain tained
ĠK el
ig ation
åı¦ ä¸Ģ
Ġres igned
Ġro ugh
Ġpow ers
çĶ· æĢ§
ec utive
Ġp up
ĠG ree
Ġra in
Ġvol unte
g ment
Ġop pon
am i
Ġstreng th
Ġh ot
åĬ ª
Ġmax imum
ä¹ĭ åīį
Ġh arm
çµĤ äºĨ
Ġìļ Ķ
Ġalbum s
ä¼ ¸
ĠAr thur
éļĽ ãģ«
Ġn ort
ä¸» ä¹ī
Ġsh ape
Ġqu ite
Ġliter ary
åĬĽ ãĤĴ
çı¾ ä»£
ĠAl b
æĪ ¶
å» ł
ãĥ Į
ç¬¬ä¸Ģ æ¬¡
Ġpr ice
ĠK er
Ġl ies
ĠW ars
ĠSwed ish
åħ Ĳ
ĠT ok
ì¦ Ī
æ´» èºį
è² ¢
ãĥ³ãĥ ĳ
Ġw or
Ġindepend ence
ĠMos cow
åĿ Ĥ
ĠB la
Ġimpro ve
æĹ¶ æľŁ
n s
w ise
å£ Ĭ
ĠFranc is
Ġcomp ar
æĸ½ è¨Ń
ãĥŃ ãĤ·ãĤ¢
Ġocc urs
Ġcont ained
Ġact s
ak i
ĠSwed en
åľ° çļĦ
Ġinstit ution
Ġenvironment al
Ã º
av ed
ç§° ä¸º
å±¬ æĸ¼
å¦Ĥ æŀľ
ĠSpr ing
ĠW at
Ġì ¦
ĠSt and
i el
æ¥ Ĭ
ãĤīãĤĮ ãģ¦
ĠW el
ĠCh ris
å¹´ äººåı£
ĠHol y
ãģ«ãģ¤ãģĦãģ¦ ãģ¯
Ġfin ishing
p ot
ª ½
Ġdef ined
æĢ ģ
Ġpaint ings
Ġre ign
éĺ »
ĠH art
ç¡ ®
Ġ19 14
è¿ ·
æĽ ¹
ìŀ ħ
ĠP ope
Ġgener ation
Ġs ale
Ġpromot e
Ġc ru
åį »
ìĦ Ŀ
ut ies
Ġproduc ing
å±ŀ äºİ
Ġhom es
è§Ĵ èī²
Ġjud ge
æ´ ŀ
p lace
c ome
ĠF ree
inc oln
Ġtra ined
Ġv ocal
ĠS om
ç¨± çĤº
p ur
ç´ ¹
Ġobserv ed
Ġcom edy
ĠLab or
ĠStud ies
Ġintern al
éĥ½ æĺ¯
ĠOlymp ic
Ġloc ations
ĠKh an
Ġstart s
ĠStep hen
ĠJ oh
ony m
ot o
ant e
ic y
act er
th rop
èĦ ļ
ap ore
ĠD aniel
l ines
ter ed
us hed
ãĤĵ ãģ©
Ġo x
Ġy ellow
ĠMil itary
Ġc rowd
Ġag ed
Ġdo or
ĠCon stitution
Ġexist ence
Ġinst all
Ġdr ink
Ġca using
å± Ĩ
è® Ģ
æ¸¸ æĪı
éĻĦ è¿ĳ
ut ation
Ġsitu ated
ç¬ ¦
éľ į
ä¸į æĺ¯
Ġcl imate
nd s
ãĥ¼ãĥ Ģ
a ctions
ĠCol or
èĳ ¬
C om
Ġëı ħ
é¹ ¿
ä¹ ¾
ì¶ ľ
ãĢį ãĢģãĢĮ
ab il
å½ ©
Ġro ll
ro g
ãĥĭ ãĥ¼
ĠR oss
Ġph ase
æŁ ı
è½ ½
en z
ãģķãģĽ ãĤĭ
as y
Ġim pr
ãģ«éĸ¢ ãģĻãĤĭ
Ġë§ İ
åĪĿ ãĤģãģ¦
ĠThe n
ĠD VD
ãģ¨ ãģĵãĤį
ãĥ¼ãĥ ¬
ĠC as
Ġfav our
Ġref lect
å·² ç»ı
æĪ¦ ãģ§
ĠS av
Ġstri ke
Ġband s
ãĤ¹ ãģ¯
ar ry
Ġprogram me
å·² ç¶ĵ
" ),
ĠB alt
ãģĿ ãģĵ
S ome
er ts
ur ation
ä¹ ł
Ġun cle
Ġfound ation
åĨħ ãģ®
Ġf ashion
oc ation
æľĢ åĲİ
æĿ ¯
ĠM inn
ãĥ¼ãĥ ĳ
Ġbehav ior
ãģ¨ãģĦ ãģ£ãģŁ
Ġpolit ician
Ġê·¸ ëĬĶ
ĠCh annel
du ct
Ġacc used
re es
Ġfact ory
åĭķ çī©
å§ ¿
ãģ¾ ãģ£ãģŁ
Ġle gend
éĢ Ĩ
è¼ ¯
ĠT est
p o
å¤§ èĩ£
Ġ4 00
Ġbel ief
I V
é¢ Ħ
Ġair port
ĠP oint
ĠLew is
æ´» åĬ¨
if ul
Ġ193 5
Ġdid n
ze ch
éĽ ĳ
ism s
ĠMan chester
èĪŀ åı°
ìĪ ł
å¹´ ãģ¯
ition ally
ĠU N
Ġent ry
è¡¨ çı¾
s is
è¯ »
ĠT ai
ad er
ãĥ¼ ãĤ·ãĥ§ãĥ³
e qu
åŃ¦ èĢħ
194 5
æĹ ¢
ĠChrist mas
ĠD or
Ġemploy ees
Ġaltern ative
198 5
Ġ ille
Ġh our
Ġkilomet res
m illion
Ġsub stant
æľĪ ãģ®
out s
Ġch oice
ä¸Ń ãģ®
is f
Ġ19 00
ag an
Ġh un
åĢĭ äºº
Ġse ems
Ġinterest s
éĩį æĸ°
f ather
Ġbo at
ic ide
Ġ193 3
å® «
çĶŁ çĶ£
æĪ¦ ãģĦ
èĥĮ æĻ¯
Ġsix th
ãģ£ãģ¦ ãģĬãĤĬ
è£ Ĥ
ãĤĴ çµĲ
è¾ ĳ
åİ ļ
Ġf resh
Ġw itness
Ġcerem ony
æİ Ľ
w ich
Ġëį °
å¤§ãģį ãģª
ìķ ½
Ġeduc ational
æĮ ĳ
Ġcal c
us al
Ġinv asion
Ġex erc
Ġm ent
ian g
Ġob tain
å½¼ ãģ¯
Ġpro s
Ġstat ement
æº «
ĠN ative
T o
Ġsur vey
ĠTown ship
ãĥ³ãĥ ķ
ĠL ind
ì² ľ
Ġd iam
Ġanim al
äº¬ éĥ½
it o
ãģ® ãģĮ
Ġs ell
l an
è¡ Ŀ
Ġsc ale
ì ħ
éĢŁ åº¦
çĶļ èĩ³
ãĥª ãĥ³ãĤ°
ĠH ot
éĹ® é¢ĺ
Ġì¶ Ķ
ãģķãģĽ ãģŁ
8 00
enn is
Ġt or
ãĥ¼ ãĤ¿ãĥ¼
Ġcl in
ĠG reg
Ġkill ing
ĠInf antry
ĠMel bourne
198 7
ĠSc iences
ĠJ unior
æŃĮ æĽ²
Ġvot ed
ost er
Ġimpro ved
ĠB all
æľĢ ãĤĤ
Ð ½
è·Ŀ éĽ¢
ãĤŃ ãĥ¼
Ġget ting
Ġs ail
Ġjoin ing
âĤ Ĥ
å° ½
éł Ĥ
ag h
ãģ¦ ãģ®
Ġland sc
Ġb udget
ĠP it
Ġêµ °
å±ķ éĸĭ
ĠPhil ip
Ġ192 9
ä¹ İ
ç§ Ĵ
èĳ £
ä¹Ł æľī
ĠF urther
Ġcolle cted
id ers
ç¼ º
v i
Ġproper ties
our ney
am m
Ġl ake
Ġcomp l
ĠProv ince
in us
éģĬ æĪ²
Ġco oper
Ġsh all
åĲį ç§°
Ġhy dro
åħĦ å¼Ł
Ġpass es
sk y
ĠS em
æ² Ī
Ġcontain ing
let ic
k h
at ures
Ġre duce
çĪ¶ è¦ª
ĠI V
Ġposs ess
ãĤĴåıĹãģĳ ãģŁ
Ġ3 4
v ant
ãĤĤãģ® ãģ§ãģĤãĤĭ
ĠB i
ĠKore an
ent ially
åıĹ è³ŀ
Ġa st
ĠK al
Ġsurv ived
Ġentire ly
ĠG re
Ġvol ume
ç¨ İ
198 6
ĠSt ock
I P
ĠRep resent
Ġequ al
ä¿ Ĺ
çĲĨ çĶ±
ä½ĵ ãģ®
éĻ¸ è»į
t hen
ĠB u
ĠP ier
ĠH o
Ġs an
Ġë¦ ¬
Ġin aug
N e
oc cer
Ġar med
Ġv ice
Ġgr ant
ë¥ ĺ
Ġìŀ ħ
p son
éĽ ĸ
ĠLe on
ĠF inal
æĸ° çļĦ
ĠIn tern
åŃĲ ãģ®
æ¾ ¤
ãĥı ãĤ¤
Ġj unior
Ġstand ards
Ġnot hing
g i
z en
èĻ ½
ãģĤ ãģŁ
ĠíĻ ľ
åĢ į
in th
Ã £
st ate
Ġim press
Ġport ra
ĠFor m
g ency
O ver
æ¡ ĳ
Ġgradu ate
åĨ µ
H er
ãģ« åĩº
åº ĵ
Ġwh y
ĠM oh
ä¸ī å¹´
Ġaffect ed
ĠSte ve
Ġfa ith
ãģĹ ãģªãģĦ
ĠGold en
ä¼ ı
ole c
Ġocc as
le ts
Ġb odies
r ine
ç²¾ ç¥ŀ
éĿ Ļ
Ġca uses
ath an
at he
å¤© çļĩ
ĠBrig ade
Ġcharg es
alle l
ĠF ederation
è¨± å¤ļ
ãĤ¸ãĥ§ ãĥ³
Ġem ot
çĻ¼ çĶŁ
Ġmay or
omm od
M P
Ġcrim inal
ãĤĴçµĮ ãģ¦
t rack
ëĬĶ ëį°
E D
ä¸Ĭ ãģ®
Ġpol y
Ġbrief ly
Ã ¢
ç¦ ®
åıĳ çĶŁ
è®¸ å¤ļ
Ġrev olution
Ġspec ifically
ãģªãģ© ãģĮ
Ġcost s
èĮ ¨
Ġf ine
Ġstr ateg
ĠTem ple
ĠC ape
Ġrul ed
Ġd uty
ãĥĲ ãĤ¤
Ġpurch ase
ä»» åĳ½
å®ĩ å®Ļ
Ġso le
ç© ¿
ĠL incoln
ĠK im
Ġcon sequ
éĢ² åħ¥
ol t
Ġf ram
p ir
Î ±
é«ĺ ãģĦ
Ġsk ills
Ġo vers
Ġconclud ed
Ġre aching
Ġus ers
è¡Į çļĦ
clus ion
ãģ¨ ãģķãĤĮãĤĭ
ç¯ ĩ
Ġsing ing
Ġrepe ated
ãĤ¢ãĥĭ ãĥ¡
ãģ« å°±ä»»
A N
Ġsp ok
Ġrepla ce
ãĢĭ ãĢĤ
æĬ ľ
ra f
Ġres istance
Ġ193 4
ç§ ¦
çļĩ å¸Ŀ
Ġqu ant
Ġ19 10
E l
ons in
Ġeng ines
äºº ãģ¯
åł± åĳĬ
Ġact ress
ä¸Ģ èµ·
or age
e ke
Ġm ist
Ġpoet ry
we gian
Ġreg ularly
Ġsing les
Ġm el
ãģª ãģ£ãģŁ
al o
Ġinj ured
Ġì´ Ī
ãĥĹ ãĥ©
Ġtechn iques
ĠTh rough
ãĤ¦ ãĥ³
Ġvis ual
ut her
ĠK a
Ġst orm
rop olitan
ap es
h ire
ĠSh ort
æĮĩ å®ļ
ĠAff airs
Ġste am
Ġcontrol led
Ñ Ģ
Ġa ware
pos es
Ġres idence
c ar
Ġmult i
isc onsin
Ġneg ative
Ġagricult ural
å°ĳ å¹´
ãģĵãģ¨ ãĤĤ
al ty
æķ ¬
Ġdescrib es
ç¬¬ åĽĽ
æĭ ¡
ĠìĹ Ĳ
Ġread ing
for ce
ik a
ĠPl an
ĠH ou
Ġinhabit ants
Ġch ose
æ§ į
çĨ Ĭ
åĬ ¿
ä½ ©
L ater
Ġadminist rative
é© Ĺ
ĠL o
Ġres erve
ĠV ice
qu es
ĠU s
ĠMan agement
Ġsched uled
ãĥĥ ãĤ·ãĥ¥
Ġoper ate
Ġì ¢ħ
ãģŁãģł ãģĹ
op her
Ġground s
' .
éª Į
è©ķ ä¾¡
in ally
ĠB ah
Ġcall ing
iv a
198 4
c ious
ĠSing apore
Ġclass ical
ĠLab our
Ġco ord
Ġc overs
Ġë° °
æ©Ł èĥ½
ĠW all
ãĤ¨ ãĥ³ãĤ¸
ib b
Ġtri p
é Ī
Ġtemper ature
çĶ ĺ
ĠìľĦ íķ´
ãĥ³ ãĤ¬
çĤ ¸
åŃ Ķ
Ġearl iest
çłĶç©¶ æīĢ
ãģ® ãĤ¢
éĵ ¶
ĠëĲ ľ
go ing
çī¹ å¾´
ĠAre a
Ġeas ily
S E
Ġder ived
Ġprogram ming
ëĲĺ ìĹĪ
ì ª½
åĿ Ģ
åħ¬ åħ±
æĮĩ å°İ
Ġgr ade
Ġë ¹
Ġsign al
Ġro oms
ate ur
Ġen l
r un
åıİ éĮ²
ãĥ ¶
Ġp age
ê »
ĠSquad ron
ic ians
æĽ ľ
Ġcour ses
ĠPro t
ow a
Ġan s
Ġcle an
ãģĵãģ¨ ãģ¯
è¯ Ĩ
Ġe g
Ġsus p
Ġass ault
Ġwe ather
r ates
åľ° ä½į
Ġinter se
ç¡ ¬
Ġreject ed
å§Ķåĵ¡ ä¼ļ
Ġworld wide
åİ Ĥ
Ġ ere
Re ception
Ġadvant age
Ġdis miss
ues e
æĪ ´
Ġmom ent
ĠMiss ouri
ĠBe fore
ut or
ĠCl ark
æ³ķ éĻ¢
æ¯Ķ è¼ĥ
1 50
Ġbene f
ĠMex ican
ĠU t
Ġoppos ite
åŃ¦ éĥ¨
æł¹ æĵļ
Ġtw elve
Ġcon vent
Ġlook ing
æĸ ·
idd en
æľ¬ ä½ľ
Ġf olk
éļ ¾
ëı ħ
Ġd oll
æ± ½
ograp her
ãĥ¡ ãĥ³ãĥĲ
ĠMill er
åĭ ĩ
ãģĦ ãģ¯
ĠE ven
Ġinter ior
åĳ Ī
è¯ į
Ġclos ely
ãģ¨ èĢĥãģĪ
ry st
Ġsec retary
Ġpain ted
ru ce
ãģ¾ãģŁ ãģ¯
Ġhigh way
ãģĻãĤĭ ãģŁãĤģ
Ġit ems
Ġ rom
æĮĻ ãģĴ
or ge
od ox
å»º éĢł
Ġh air
Ġw orth
Ġa ired
å¼ ĺ
è»Ĭ ä¸¡
ĠB on
å´ ĩ
es see
ĠJac ob
Ġad mitted
ĠMag azine
æł¹ æį®
ãĥĽ ãĥ¼ãĥł
ĠSqu are
ĠViet nam
ĠC zech
éĿĴ å¹´
Ġfun ctions
Ġdra ft
é¤ ĺ
Ġb an
ĠA D
ãģ ĸ
çµ ¶
éĵģ è·¯
ãĤ¯ãĥ© ãĥĸ
ĠF a
Ġobject s
Ġsele ction
Ġsup erv
æ½ ľ
Ġbase ball
Ġlead s
ĠH ard
Ġlim it
Ġext ension
ãĥĥ ãĥĦ
æľĪ ãģ«ãģ¯
es ota
Ġcandid ates
íĸ ¥
é§ Ĩ
Ġeth nic
åĲĪ ãĤıãģĽ
Ġmer ged
Ġintro duction
Ġreg istered
ëĤ ľ
ĠL ive
Ġw ounded
ãĤ· ãĤ§
Ġcor por
ä¸» å¼µ
æŁ ±
ag a
éº ¦
Ġregard ed
æŃ» åİ»
ĠS ix
ĠC ab
Ġed ge
ĠT s
Ġloc omot
åŃ ©
Ġcomm it
Ġdesign s
Ġfl u
Ġcomm itted
ar ia
ãģĹ ãģ°
ãģ¸ ãģ¨
æĢ ª
Ġb atter
Ġwrit ers
ĠW isconsin
Ġ192 8
ĠFore ign
Ġê ±´
ord on
Ġroad s
åħ¥ ãĤĬ
A b
ï¼ ģ
ov en
Ġlearn ed
Ġact ual
è¿Ľ åħ¥
ë£ Į
Ġcapt ure
ãģ» ãģ¨
ĠF und
çĽ ĳ
Ġ3 8
Ġíĺ ķ
f all
èĻ İ
æĢ§ çļĦ
198 3
å£ ĵ
Ġrem ark
ic ts
ãģ µ
ĠCount ry
Ġa head
ĠD u
ĠW eb
d d
olog ies
Ġ7 5
Ġ192 2
æĹ¥ ãģ«ãģ¯
for mer
Ġbusiness es
Ġgood s
Ġshe ll
Ġim ages
Ġdist ricts
ition al
å° ¤
Ġatt ract
ãĤ¤ãĥ³ ãĤ¿
ãĤĴ éĢļ
åİ ĭ
ĠGall ery
Ġd ates
ik h
ĠSt one
Ġra cing
Ġphil osophy
ab led
æ¼« çĶ»
ãģķãĤĮãģ¦ ãģĬãĤĬ
å¯ ¶
ëĤ ¨
éģ ·
ĠR a
ĠQueens land
ap h
åģ ı
Ġref ers
Ġcop y
ãĥ¼ãĥĨ ãĤ£
è¬ Ŀ
Ġacc ommod
Ġposs ibly
Ġapplic ations
ĠEx ecutive
Ġb rick
ĠF ront
è£ģ åĪ¤
èİ Ĭ
Ġsymb ol
A P
ol as
çĶ¨ ãģĦ
ĠK ansas
Ġst ores
Ġc ore
çļĦä¸Ģ ä¸ª
Ġex act
åįģ ä¸Ģ
b ox
Ġcharg ed
Ġass ess
Ġg ets
iv ered
duc ing
ãĥ³ ãģĮ
è¬ Ģ
éŁ ©
çļĦä¸Ģ åĢĭ
ëĬ ¥
Ġref uge
Ġr ich
Ġadv oc
Ġw aters
ur rent
ĠCon st
Ġch urches
ãĤĴ åĩº
ãĤĴ çį²å¾Ĺ
ac ent
Ġs ave
ä½ľ æĽ²
un ch
ĠA st
Ġfl at
Ġm ap
Ġn or
Ġown ers
ì§ Ī
Ġdam aged
Ġfre edom
r ant
Ġanal y
ĠDo ctor
Ġb ed
ter m
ëĵ¤ ìĿĺ
Ġinterest ed
åĲĦ åľ°
ag ues
åŁº åľ°
ä¾ §
r Ã©
ask a
ĠìĿ¼ ë³¸
Ġstand ing
ãģĵãĤĮ ãĤĴ
ĠEnter tainment
ĠT oday
II I
éĿ ł
ãĤ± ãĥĥãĥĪ
åħ¨ åľĭ
ce ived
oc ese
ãĤ ĥ
å¸Ĥ åł´
ãĤī ãģĭ
ãĤ ¾
Ġc rown
0 8
æĲ º
åº Ĩ
Ġtri es
ãĥŃ ãĥ¼
Ġhistor ian
ick s
ĠC ensus
Ġrail road
Ġ193 2
Ġon es
Will iam
æī §
198 2
Ġarr ival
Ġë° ı
è¡Į çĤº
Ġb oys
å¤ĸ äº¤
ĠO cean
éĥ Ń
Ġbro ken
ĠN aval
Ġì ±
Ġv ir
å¹´ ãģ¾ãģ§
åĢ ¤
ĠServ ices
F ran
ãģ»ãģ¨ ãĤĵãģ©
S I
Ġtrans form
åŃ Ŀ
çīĪ æľ¬
êµŃ ìĿĺ
ĠPal est
ord ers
Ġ193 1
ĠHol lywood
Ġchem ical
ãĥŀ ãĥ«
Ġ192 7
ur is
Ġren ov
Ġstand s
ĠWh it
el er
Ġ192 4
ĠInd ones
Ġcompos er
æĿ ¨
an es
F M
ĠSt aff
ĠSec urity
Ġ192 1
p oint
id el
ì² Ń
Ġdr iver
Ġreg iment
ĠHar ry
ĠBar b
ĠT ony
ãĤ¹ ãĤ«
ì´ Ī
Ġst adium
åĨ °
Ġm and
Ġ3 7
ĠTh us
In ternational
B I
wh o
ĠA z
ur day
æĪĲ ç¸¾
ĠAust ria
äºĭ æķħ
ãĥĲ ãĥ«
is a
rol led
Ġd ivers
ĠMar c
Ġly rics
Ġval ley
oth ing
Ġìł ģ
Ġrepresent ative
Ġë¡ ľ
ar o
ud i
ĠH otel
sk i
çµĮ æŃ´
æī ±
Ġpra ised
ç¸ ®
çµ µ
ĠëķĮ ë¬¸
Ġaccompan ied
æ» ĳ
ãĤī ãģ¯
æĪ Ī
O C
Ġra cial
Ġshe l
Ġparticip ate
Ġpasseng er
Ġdev ice
çĽ´ åĪ°
ĠEngine ering
gh an
çı ł
Ġst ood
ond er
èĤ ¯
Ġsur g
éĩİ çĲĥ
éģ Ĥ
Ġperson nel
Ġìĭľ ìŀĳ
ic ial
Ġìļ ´
èĢĮ ä¸Ķ
ä¹ĭ éĸĵ
ëĵ ±
en h
åĪĿ ãģ®
ê¸ ī
æĹ© æľŁ
L a
å® ľ
âĢĶ âĢĶ
Ġëį Ķ
Ġm arg
å¨ ľ
ĠG il
Ġs omew
æ¢ °
v ements
ol i
ê» ĺ
ĠNor wegian
l ock
ĠT urn
w estern
Ġag ency
æ® Ĭ
åı ¶
çĻº è¦ĭ
r ator
ĠB uilding
Ġch ance
Ã¼ r
Ġë§ ¤
éĲµ è·¯
Ġdel ivered
ĠCol l
ãģĺ ãģŁ
å¹´ èĩ³
æ±Ł æĪ¸
n ight
Ġcon qu
ä» °
ĠA cc
ĠP ass
Ġdec ade
Ġstop ped
Ġres erv
è¨Ń å®ļ
Ġp iano
Ġ19 16
D P
åĨį æ¬¡
ä¸ ½
ed ia
Ġí Ŀ
Ġs elling
Ġoper a
R es
Ġprofess ion
ĠMed al
æĪĺ äºī
Ġsh ut
Ġ19 15
Ġpro ced
p a
æ² ĸ
il st
own ed
ant ic
ie val
ens es
åįģ åĪĨ
ä¹ĭ éĹ´
ãĤį ãģĨ
C o
reg on
ĠD ue
ĠO t
ĠMar ine
Ġì ¡
Ġarran g
h and
Ġshow ing
Ġde leg
ĠLeg isl
çķ ¢
ĠB urn
ra ine
c ons
ann ed
Ġm ort
in ch
ì£¼ ìĿĺ
M C
ĠN ich
ãĤ¢ ãĥ¼
Ġatt ached
æĴ ®
hip s
ĠHe art
ĠTenn essee
ë¦¬ ìķĦ
Ġstri p
Ġmat hemat
ĠNor way
ĠL ieutenant
act ive
ific ations
Ġexperien ced
itzer land
ĠR ab
0 9
Ġret ained
ĠR ose
Ġturn s
Ġass umed
u i
èı Į
ĠF amily
ãģ« ä¼´
Ġjournal ist
Ġa x
ä¾ į
ra cy
ĠD rag
Ġb ond
Ġcol l
Ġb rain
Ġ19 12
Ġê·¸ ë¦¬
å¸Ĥ æ°ĳ
ĠMinn esota
Ġrepresent ing
ãģĺ ãģ¦
gl as
Ġc aught
ĠI d
Ġr ating
ean while
å¡ ģ
Ġíĸ ī
Ġbro wn
Ġformer ly
in cluding
g or
R C
r ating
ãĤ¦ ãĤ©
ĠJes us
ubl in
ãĤĴ ä¸Ńå¿ĥ
æĬ ¼
ĠJan e
Ġ192 5
ç¾İ åħĥ
Ġimm igr
ang a
' m
ĠB arn
æĻ® éĢļ
Ġdipl om
ĠP a
ĠSp ace
Ġche ck
ell o
Ġ192 3
ĠTrans port
ä¿ ĥ
Ġdel ay
è Ŀ
p se
ro it
aval ry
ä¸º äºĨ
Ġf lying
åĨį ãģ³
Ġg arden
Ġrest ored
æ¼Ķ å¥ı
ãģ¤ ãģĭ
åı «
ĠHam ilton
çī© çĲĨ
C ont
Ġint elligence
éĹ »
æĥ ł
pect ive
å¤§ åŀĭ
Ġíı ī
Ġdiv or
ĠB os
æ±º åĭĿ
ĠDie go
aut iful
ĠE P
è¦ Ĩ
Ġal leg
ãĤµ ãĥ³
Ġanc est
çĲĨ è«ĸ
ãĤ¤ ãĤ¿
ä½ľ å®¶
Ġd a
ĠAn ne
ãģ« åĲĳ
Ġìĸ ĳ
åļ ´
Ġconsist ing
åĨ³ å®ļ
Ġhead ed
ĠPhilipp ines
ĠBill board
E n
ob e
ãĤĴè¡Į ãģ£ãģŁ
197 9
D S
Ġsuggest s
ĠPortug uese
è¨ Ĭ
æµ ª
ĠIndian a
Ġcritic ized
Ġcirc um
ĠHow ard
over ty
åįĶ ä¼ļ
ì ¤Ģ
èª ī
ì »
Ġdoc uments
rom e
Å «
äº ®
Ġs ession
ì¡ Į
ëĵ¤ ìĿĦ
ä¸» ãģ«
ä¿ ±
og y
ĠW ell
c u
Ġd uties
Ġplay off
am ic
æ¯ ķ
íĴ Ī
æ©Ł æ§ĭ
angu age
il er
ãĥ« ãĤ¹
åºĦ æĿĳ
ĠColor ado
% .
G B
ãĤĴ ä¸İ
æĪ¦ éĹĺ
èĥ½ å¤
Ġp ed
Ġdr iving
æĪ° çĪŃ
ill er
Ġrec on
ĠJ os
Ġbott om
í Ķ¼
Ġcomb ination
Ġpasseng ers
ĠRe view
Ġengine er
ĠD ec
Ġtown ship
ish ment
Ġpar allel
ord an
on om
ĠT it
Ġf ired
De ath
Ġteac hers
ãĤ»ãĥ³ ãĤ¿ãĥ¼
æĻĤä»£ ãģ®
Ġëĵ ¤
ê° ķ
å¤§ éĻ¸
G eneral
äººåı£ å¯Ĩåº¦
Ġ ign
re c
Ġthous ands
Ġf an
åŃ¸ çĶŁ
ĠMc G
se ason
ĠAr men
Ã£ o
Ġmet ers
Ġsubs id
æłª å¼ı
ĠLiber al
çĤº äºĨ
ãĤŃ ãĥ³ãĤ°
c oh
ĠC emetery
ãģ¨ ãģĹ
å½¼ å¥³
Ġuns uccess
in burgh
rib ution
st ar
Ġstay ed
Ġut il
Ġth ick
Ġcar rying
åĪ ¸
Ġ192 6
th odox
ĠIslam ic
Ġres ign
Ġconsec utive
Ġacc ur
ãģĭ ãģĳ
R ec
è§ ¦
ĠMary land
Ġsol id
Ġtyp ical
Ġs oci
Ġwind ows
Ġgreat est
Ġprep ared
Ġê° Ĳ
Ġh ill
ĠL ike
ival ent
Ġcollabor ation
ĠN ick
inn ers
ra c
Ġpresident ial
ard ens
ĠK at
Ġmusic ians
èī¦ éļĬ
Ġt ail
éº ¥
ĠR oy
æĢĿ æĥ³
Ġinvest ment
ç£ ģ
æŀ ª
Ġphot ograph
æ°ĳ åľĭ
ĠHar vard
Ġkn ock
Ġì Ī
ä¸ ¥
æŃ¦ åĻ¨
éļ »
ëŁ ī
ä¼ Ĳ
Ġê¹ Ģ
Ġp ione
Ġcateg ory
Ġdet ails
Ġmot ion
ĠA uthor
èĪ į
Ġassist ance
ï¼ī ãĢį
ĠAl i
" ).
ë ¸Į
å» ³
Ġ4 2
ĠSim on
Ġreturn s
ìļ ¸
ĠPr in
æľį åĬ¡
å®Ł æĸ½
Ġdeb uted
u v
ä¸Ģ æ¬¡
Ġse lect
ab y
ãģĦ ãģ£ãģŁ
åĲ ³
Ġpolic ies
ãĤ¯ ãĥª
æľĢ ç»Ī
M L
Ġfl o
our ce
d on
æ¯Ķ è³½
í Ī¬
æİ Į
au x
194 9
åĤ ĳ
Ġprote in
Ġ ãģ®
iss ance
è¨ĺ å¿µ
Ġfact ors
ip les
æ¨Ļ æºĸ
æĲŃ è¼ī
ĠA C
å¤§ æŃ£
Ġadj acent
éĩ Ŀ
ĠSat urday
Ġre ality
Ġdra wn
ç´ Ķ
Ġse ctions
æ¯ «
rop ical
ars h
Ġbu y
å» ī
Ġd ry
ctor al
i able
E d
æµ ®
æŁ ³
èµ ´
åİ ħ
ad i
igen ous
Ġí ģ
Ġsw im
Ġsubject s
Ġh ors
ĠSw itzerland
Ġac id
ĠFor ces
ãĥ³ãĥ ĸ
åĲĪ ä½µ
Ġsignificant ly
Ġstar red
ç¢ ĳ
B M
ç ŀ
ìĬ¤ íĬ¸
ĠVilla ge
Ġt ons
å¾ Ħ
Ġrespons ibility
ãĥĭ ãĥ¥ãĥ¼
ä¼ ¤
ç· ł
ĠBatt alion
ãģ« ãģĹãģŁ
ëĦ ¤
åŃ Ļ
æĻ ĭ
Ġlegisl ation
Ġin her
ÃŃ a
ãĤ· ãĥ¼
Ġown ership
ĠTurk ish
åĲĪ è¡Ĩ
ĠIsrael i
Ġunder standing
Ġimpr ison
j an
å¼ķ éĢĢ
S te
ĠT en
Ġren ew
ĠAdminist ration
197 8
Ġter ror
Ġpri est
èī ĩ
Ġì° ¸
è³ĩ æĸĻ
0 5
Ġnot ably
Ġob l
Ġpopular ity
Ġwind ow
riz ona
Ġcompos ition
Ġqual ified
R E
og en
ĠPr inc
z o
ĠIm perial
com ing
Ġun us
ĠWal ter
ĠE th
ëĿ¼ ëĬĶ
Ġval ues
ĠL ow
ãģ® ãģŁãĤģãģ«
éĥ ·
ìł ¸
ĠEd inburgh
ĠDes ign
ĠSever al
a ired
ĠT rib
åį ·
è¿° ãģ¹
h r
el ess
Ġth row
onst ruction
ĠO regon
A p
ĠP ot
ãĥĹ ãĥ¬
N o
a ver
Ġc risis
Ä į
ĠRe al
Ġ ri
çĲ ´
Ġconcern s
Ġ +
Ġann iversary
åħĭ æĸ¯
å½ Ĵ
Ġshoot ing
åīį ãģ®
Ġt all
ç» ĥ
ãĥªãĥ¼ ãĤ¹
ĠBet ween
åı° åĮĹ
Ġsepar ated
ì ¿
Ġv eter
é¡ §
ĠLt d
å¤ªå¹³ æ´ĭ
ist ant
ĠAn th
ãĥĢ ãĤ¤
ĠìĤ¬ ëŀĮ
Ġapp ropri
unn el
ĠDe p
i ot
â Ķ
æİ ²
çµĦ ãģ¿
ãģĿ ãģĨ
Ġsever e
ĠAb d
we alth
0 7
Ġro w
Ġcompet e
og ether
èª ¤
ë ¨
æŃ ¸
ãĤĩ ãģĨ
èİ ī
å¥ ´
ĠCommun ist
è½ ®
ĠìĬ ¹
Ġcommunic ation
ĠD iv
æĿ °
ĠìĻ ķ
Ġt ick
ĠBow l
Ġdep th
Ġmeas ures
Ġpur poses
ëĲľ ëĭ¤
Ġextrem ely
Ġí ļĮ
ur ric
Ġdaugh ters
ra v
Ġexamp les
Ġch ain
éĥ¨ éĸĢ
ä½¿ å¾Ĺ
198 1
M usic
Ġus er
Ġis ol
ä¹ ĥ
Ġprison ers
Ġz one
ç» Ĩ
ëł ¨
ĠPr im
åº ģ
Ġl at
Ġíĥ ľ
Ġsecond s
Ġê³ ¼
Ġeven ing
Ġn aval
ĠTele vision
Ł ģ
ãģĪ ãģ°
ãģ« ãģ¨
ac re
åĪ Ģ
Ġenc ounter
ãģ« åıĤåĬł
ê² °
m ith
ë° °
ãĥĸ ãĥŃ
ãĤ» ãĥ«
è¦ ļ
é«ĺçŃī åŃ¦æł¡
Ġst ages
Ġper haps
å¾Ī å¤ļ
ĠV is
ĠTh ough
å¾· åĽ½
ang el
Ġ189 0
O r
ãģ® ãĤĪãģĨãģ«
åħ¬ è·¯
çļĦ æĥħ
ĠFred erick
d ale
Ġinn ov
ãĥ¼ãĥĩ ãĤ£
ãĤıãĤĮ ãģŁ
æ¯Ķ èµĽ
å¾· åľĭ
Ġsur re
ĠĠĠĠĠĠĠĠ ĠĠĠĠĠĠĠĠ
Ġstre ets
Ġcritic ism
ĠF arm
d o
ĠAd am
Ġb ishop
f oot
Ġis lands
udd en
ãĥ¡ ãĥ³ãĥĪ
Ġens ure
Ġthe ater
ãĥ¨ ãĥ¼ãĥŃ
ç®¡ è½Ħ
Ġdis appe
åı ¥
ĠN ow
Ġe ye
Ġdeg rees
Ġfe ed
Ġcour ts
Ġíķ¨ ê»ĺ
ĠPal ace
Ġfac ulty
ĠAb out
ĠBudd h
om ing
ä¸ ´
Ġs un
åĲ ´
Ġopin ion
ãĥĸ ãĥª
ĠHou ston
ĠSw iss
Ġw ins
ĠT reat
Ġs ort
ĠCh airman
æĿ ī
Ġre action
ç· Ĵ
Ġgradu ating
å¹¶ ä¸Ķ
o a
ãģĮ è¡ĮãĤıãĤĮ
ãĥĬ ãĥ¼
ë© Ķ
åĳ½ ä»¤
Ġmin ing
Ġhum ans
ĠD omin
ĠIntern et
t ure
Ġíĥ Ģ
arg o
enn y
ib l
al so
åıĤ ä¸İ
Ġcon text
æµ Ļ
Ġexped ition
éĢ£ åĲĪ
Ķ Į
è© ³
L C
íħ Į
Ġk id
è ¹
ĠO ak
Ġcontrovers y
emb le
ĠN FL
Ġìŀ Ħ
T e
ĠU pon
ig ious
Ġwe b
Ġinterp ret
ĠChild ren
ĠOr chestra
éł »
åŁº çĿ£
ä¸¦ ä¸Ķ
P r
Ġ19 11
er ies
Ġra ise
ĠK r
ĠR oc
ãĤŃãĥ£ ãĥ©ãĤ¯
ĠN Y
Ġf iled
æ¶ ī
å°¼ äºŀ
åħ¬ å¼ı
Ġ4 8
ĠB ou
éı ¡
é ŀ
Ġpri ze
ç¥ĸ çĪ¶
Ġrece ption
iam i
Ġë Ŀ¼
çı į
é» ĺ
ãĥ¨ãĥ¼ãĥŃ ãĥĥãĥĳ
Ġhe at
ãģķãĤĮãģŁ ãģĮ
å±ħ æ°ĳ
ĠW rit
ĠCl in
197 5
éĢ Ŀ
æµ· éģĵ
ĠD al
Ġag o
í Ŀ
Ġc inem
Ġvictim s
ĠAnd erson
éĽ» åŃĲ
ä½ı æ°ĳ
Ġg ang
Ġpro sec
bor ough
åĿ Ĳ
ĠG ab
ìĸ ¸
Ġal t
Ġ19 13
ĠR ights
P olit
æķ ·
Ġrec ru
ãģ§ãģĤãģ£ãģŁ ãģĮ
Ġpract ices
ãĤ« ãĥĥãĥĹ
C rit
ĠìĤ °
un es
Ġp hen
éĻ ¶
us cript
Ġch air
ãģ® ãĤĪãģĨãģª
éĹľ ä¿Ĥ
çµ ¡
éĥ¨ éķ·
æ£ Ħ
Ġpubl ishing
å¤§ éĥ¨åĪĨ
ĠMal ays
ĠD ur
ãģ®ä¸Ģ éĥ¨
è» ½
ĠY outh
æľĢåĪĿ ãģ®
æĶ¯ éħį
y les
ĠC hen
å±ħ ä½ı
Ġp ool
ĠOtt oman
Ġcolon ial
o oth
ç´° èĥŀ
ĠCon nect
ì Łģ
Ġoccup ation
ĠOn ly
ĠRail road
è¨Ī åĬĥ
and y
M E
æĬĢ æľ¯
Ġincreasing ly
rast ructure
Ġmembers hip
Ġchall enge
Ġmin ute
Ġprot est
æİ¨ åĩº
èĪ İ
åħ± æľī
' re
ad s
ãĥ¡ ãĥ¼ãĥĪ
ĠìĹ ´
é± ¼
ĠR on
r ons
Ġexpla ined
åħ³ ç³»
ĠOn ce
çĶ± æĿ¥
ĠH ug
ãĤ³ ãĥŁ
ĠS ound
Ġì¹ ´
ak ed
è¡ĮæĶ¿ åĮº
Ġexpl os
ĠW olf
ç§ Ł
èĬ ¬
ãĥ³ãĥ Ħ
ĠEx press
ĠD ublin
ĠA ge
Ġg ender
he me
å¢ ¨
Ġup d
Ġexpress ion
) ãĢģ
ĠT ar
unic ations
é¼ ĵ
Ġê·¸ ëŁ¬
Ġrep utation
ag en
Ġaspect s
ut t
Ġk m
ĠN iger
Ġinvol ving
Ġarch ae
oy d
Ġchild hood
ug ar
Ġr ates
o en
å¥ Ĺ
æķ° ãģ®
ĠOffic er
Ġad vent
0 6
ĠAll en
d es
Ġdiffer ences
Ġb ronze
èĳĹ ä½ľ
åĪĨ æŀĲ
æ¦Ĥ å¿µ
ĠCE O
ĠCon c
æľ Ń
ĠR en
Ġe yes
le vel
åģľ æŃ¢
éģĭ è¡Į
Ġtechn ique
Ġcy cle
äºº æ°Ĺ
Ġret ail
æ¸ħ æľĿ
Ġdescript ion
ĠF ame
ìĨ ¡
Ġl ov
Ġmil it
n ers
ãĤı ãģ£ãģŁ
um a
Ġcom ic
Ġn ick
k now
Ġ4 9
Ġcontrib utions
D em
çµ ķ
èĻ½ çĦ¶
ĠM it
Ch ar
æĿ± åĮĹ
åĲį ãģ®
Ġsquad ron
0 1
Ġí Ķ¼
T rans
ãĥŃ ãĥ¼ãĥŀ
ĠGree ce
Ġcross ing
ãĥ¼ãĥ į
íİ ¸
el lect
0 4
Ġlink ed
è¶ £
Ġve get
om pl
æīĢ åľ¨
éĽĸ çĦ¶
ëĵ ł
ç» Ŀ
æ§ĺ ãĢħ
ĠMay or
Ġst ress
Ġc atal
Ġf ear
æĺ¯ çĶ±
ë³ ĳ
éĿ Ī
èĪ Ĭ
od ge
Ġb rig
ĠG a
p en
edd ing
b urn
b al
ĠA rizona
ĵ °
Ġarran ged
Ġmed icine
æĭ ¥
éĢļ ãĤĬ
CA A
Ġland ing
ãĥª ãĤª
ĠT an
Ġdeterm ine
Ġdistrib uted
Ġf ranch
E FA
è¥¿ çıŃ
Ñ ģ
ĠH ills
ĠSam uel
ä»¥ å¾Į
il ation
ĠOr ig
é¬ ¥
Ġj ourney
ĠB eng
ãĤ¤ãĤ¿ ãĥªãĤ¢
ĠM ember
ĠB rand
Ġc ous
å·¦ åı³
ĠD ick
Ġm ine
Ġpers ons
rel ated
Ġcred it
ipp i
L eg
Ġconsider able
åıĥ èĪĩ
Ġm outh
ç¥ ¥
ĠP C
è¥¿çıŃ çīĻ
Ġv ary
w here
âĢĿ ï¼Ī
äºĪ å®ļ
ag u
å¤ ¢
æĸ° ãģŁ
ç«ĭ ãģ¡
Ġmy th
ãĥĩ ãĤ¶
ĠL iver
Ġst ret
æ¦ ľ
Ġquest ions
ch a
Ġden ied
ìĻ ķ
ĠS ky
Ġen h
197 2
ĠëĶ° ëĿ¼
åĬŁ èĥ½
åķĨ æ¥Ń
åįĹ äº¬
ãĥĪ ãĥŃ
æĬķ ç¥¨
Ġk ick
Ġpropos al
æī¹ åĪ¤
Ġcap able
Ġbig gest
ãĤĪãĤĬ ãĤĤ
ç¾İ è¡ĵ
ãģĹãģ¾ ãģĨ
ĠDou glas
ãģ«å¯¾ ãģĹ
rap y
Ġmiss ing
ĠW y
å½¼ ãģ®
Ġdeb ate
Ġde pos
Ġdiffer ence
Ġ ur
æľį åĭĻ
åº Ĭ
ãģĵãĤĮ ãĤīãģ®
Ġ3 9
ĠD NA
å¹ £
Ġad ap
Ġdecl ined
èĵ ĭ
ĠF ac
ãģ§ãģĤãĤĭ ãģĮ
Ġb ran
ĠH ans
Ġf illed
ç³ ĸ
ĠL anc
èį Ĵ
Ġro utes
ĠN a
ï¼Į ãĢĬ
Ġê°Ļ ìĿĢ
ist a
Ġì§Ģ ìĹŃ
èĦ Ī
ç² ī
æĪĲ åĵ¡
ĠD ig
ãĤĴ éĸĭå§ĭ
Ġman ner
d am
ãģĻãĤĭ ãģĮ
è¦ı å®ļ
ãĥīãĥ© ãĥŀ
Ġconstitu ency
ĠMiss iss
ren e
D ist
Ġp overty
íķ Ń
st ances
ust er
ĠTur key
ard o
ile y
ä¸¤ ä¸ª
Ġtouch down
ĠPol it
åĪĨ åŃĲ
Ġtest ing
Ġdev ices
Ġ188 0
ĠìŀĲ ìĭł
Ġsign ing
ä¸į ä¹ħ
Ġmess age
Ġte en
Ġsup posed
Ġbene fit
Ġun iform
Ġstud ying
ĠíĻ Ķ
Ġsc heme
Ġoff ering
ë§ ¤
Ġrele g
Ġf iction
ë² ł
ĠDet roit
el son
ic ation
h ol
Ġpict ure
ä»į çĦ¶
Ġresident ial
æī İ
Ġm emorial
at ically
Ġh uge
å© ¦
ãĥ¼ãĥª ãĥ¼
% ,
ãĤ¹ ãĥĨãĤ£
ãĤĴ è¨ĺéĮ²
Ġopt ion
ä¸ĭ çļĦ
Ġg ene
æĪ Ĵ
èĴĻ åı¤
197 3
æį ¢
Ġcover age
æĪĲ åĳĺ
æĿ¡ ä»¶
Ġt ack
Ġa er
ran e
ĠG ordon
Ġst orage
Ġb it
Ġhelp ing
Ġprom pt
ĠC ra
ass ador
j o
çµ± éłĺ
ãģĦ ãģ§
ĠHaw ai
Ġmur d
ĠP ear
ãĤ¤ ãĥ³ãĥī
ĠMo ore
e ed
éĢ£ ç¶ļ
Ġsequ ence
ĠB uck
ic ut
ĠD C
ä¼ ĺ
æľĢ ä½³
ĠSil ver
è»Ĭ ç«Ļ
Ġcred ited
ĠOper a
laim ed
Ġcor rect
ãģ«ãģª ãģ£ãģ¦ãģĦãĤĭ
Ġtem porary
ãĤĴ ä½ľ
ĠComm ander
ãģĭ ãĤĮãģŁ
ĠR em
ç·ļ ãģ®
ien cy
Ġfact or
ä¸Ģ éĥ¨
Ġm olec
Ġbird s
íķĺ ë©°
çģ µ
ãĥĭãĥ¥ ãĥ¼ãĥ
ê¸° ëıĦ
Ġrepla cement
Ġact ors
ĠìĻ ¸
Ġme ets
æ´¾ éģ£
Ġacc ompl
åĨ ²
çĹ Ľ
ĠCommon wealth
Ġs ed
Ġjob s
Ġ190 8
å¤§ãģį ãģı
Ġwood en
Ġf rag
Ġim ag
Ġhead s
ain e
Ġex pect
ĠIn n
Ġrequire ments
ind ing
å¼ ģ
æ¬ ł
ex t
ĠPat rick
ock s
ãĤĴåĭĻ ãĤģãģŁ
Ġkn ew
Ġì² ĺ
Ġso il
ç¬ ĳ
Ġceleb rated
te enth
Ġë³ ¸
ĠOper ation
ph one
Ġdi agn
p ower
ten ance
ĠJu an
ãĥĩãĤ£ ãĤ¢
æķ ı
m osp
ë² Ī
ter y
åĲĮ çĽŁ
Ġrequ ires
Ġc rop
è£ħ ç½®
Ġinst ance
èª ķ
Ġbank s
åħ© åĢĭ
ĠB rian
aster y
Ġwithd raw
Ġappoint ment
æ³ Ľ
Ġsuccess or
ìĿ´ ëĤĺ
Ġunder stand
in ian
åĤ ¾
ĠVi enna
Ä ĥ
ie ge
ot te
å°İ åħ¥
ãĤ·ãĥ³ãĤ° ãĥ«
ant on
Ġpremi ered
Ġë³ Ģ
amp s
ĠRes erve
Ġpro hib
in ter
ĠL et
Ġd ating
Ġl iqu
ĠMr s
Ġstrong ly
á »
Ġrel ief
Ġun f
um in
ĠCo oper
os lav
Ġrestaur ant
ad ow
197 4
194 0
ãĥ¢ ãĥĩãĥ«
ra ge
ĠR et
Ġcomm emor
Ġd ies
Ġcar bon
íķĺ ì§Ģ
Ġun p
ä¼ļ èŃ°
åĬ´ åĥį
ç·¨ æĪĲ
Ġinvol vement
197 6
ĠI l
Ġë¬ ¼
å°Ĥ éĸĢ
ãĥį ãĥĥãĥĪ
Ġart illery
Ġsec ure
åľ° éľĩ
èĩªåĭķ è»Ĭ
og an
Ġj azz
ĠColon el
ĠM and
ëĿ¼ ê³ł
Ġnort heast
éģİ ç¨ĭ
Ġbring ing
ç¦ģ æŃ¢
ĠSt ra
Ġpain ter
ĠTh ird
ur i
Ġëĭ¤ ë¥¸
Ġfind ing
å¥¹ çļĦ
le cted
ĠMod ern
ĠKent ucky
7 00
Ġorgan isation
äº¤ æµģ
Ġcont ra
ĠG ulf
ĠR ang
ãĤĴ ä½¿
Ġany thing
Ġadv is
D av
19 30
Ġcol our
ĠN A
Ġking dom
Ġmed ium
Ġelect ronic
Ġë¶ ģ
Ġprote cted
ãĥĪ ãĥ¬
P R
ãĥ³ãĥĨ ãĤ£
Ġf ly
æĿ¥ æŃ´
èı ľ
è» ¸
Ġsyn the
Ġfix ed
mir al
æ¦ ®
Ġtr uck
u y
ĠL as
ĠL yn
Ġí ģ¬
ä¼ļ è®®
Ġg ather
åı¤ ä»£
ĠCro at
Ġappe al
ĠG ram
Ã Ĺ
T S
ìĿ´ ë©°
ãĤ¢ãĥ¡ãĥªãĤ« åĲĪè¡Ĩ
ĠM iami
ele ction
ie ce
ins ula
Ġent ering
ĠLiver pool
Ġjust ice
ĠSt ew
ĠS ri
Ġd ie
è¶ Ļ
et ime
im ore
çŃī äºº
oc racy
b ishop
Ġal coh
ĠB ush
èĬ Ŀ
an ch
Ġdep uty
çļĦ äººåı£
196 8
Ġíĺ ¸
th a
ĠReg ional
åĽĽ å¹´
ĠSen ior
Ġman uscript
Ġsub mar
éģ¸ åĩº
ar on
ĠT el
çĽ¸ å½ĵ
Ġv ide
çĤ İ
å Ĺ
ç´ Ĳ
Ġstar ring
ãĥ¬ ãĥ¼ãĤ¹
å´ ©
æĭ ĵ
Ġunivers ities
as ure
Ġachie ve
ĠGr ant
Ġc old
ĠC rown
el and
ãĤŃãĥ£ãĥ©ãĤ¯ ãĤ¿ãĥ¼
197 7
çĶ· åŃĲ
ac her
ãĥĹ ãĥ¬ãĤ¤
ĠHar ris
éĻ º
ãĤĴ å§ĭ
ell ite
Ġsus pend
Y ou
Ġper fect
ãģ® ãģ¡
Ġê° ģ
Ġt ell
Ġadd ing
åľ¨ æŃ¤
Ð¾ Ð
ĠG ib
åĨħ ãģ«
ĠAf ghan
ev in
p ers
Ġf it
ãģ® å¾Į
ĠSt at
com m
Ġform ally
ĠB art
Ġvisit ors
ä» ı
ĠAdd itionally
O rig
ĠFI FA
ĠI ron
ĠN ik
ĠìĿ Į
writ er
0 3
æµ· å²¸
lah oma
Ġdecl ine
è¼ ķ
Ġstr uck
Ġd ated
ĠAss oci
Ġtrans ition
d i
é¡ º
ë³ µ
è¨ĵ ç·´
ĠPe ace
ì² ĺ
Ġë Ĵ
. '
å¯ ¿
Ġ190 5
ãĤı ãĤĭ
ĠJ ay
Ġaccount s
Ġcy cl
Ġro se
mer ce
ĠAr k
Ġpl ate
ãģĭãģ¤ ãģ¦
ãĥģ ãĥ¥
Ġwe eke
ĠëĺĲ íķľ
æĮĩ åĩº
ah n
èģ¯ åĲĪ
f ound
Ġ Ä
çĶ¨ ãģ®
ãĥĲ ãĥ³ãĥī
åĮħ åĲ«
x ual
é¦ĸ éĥ½
è¨ ³
Ġclass ic
Ġlaw yer
ĠJ am
çµĮ åĸ¶
arn er
Ġd ream
ãĥĵ ãĥ«
ä¸Ń åŃ¦
æģ ĭ
is ition
ĠC ow
Ġë² Ī
l ov
åħ¨ éĥ¨
Ġspirit ual
Ġ4 1
ĠPh ys
iv ated
all as
Ġhapp ened
ĠDep uty
å¸Ĥ ãģ®
Ġtransl ated
ĠE ric
æµ· å¤ĸ
èģĶ åĲĪ
´ ī
Ġnot e
rupt ion
ather ine
ra ce
çī¹ æ®Ĭ
pos s
ĠTok yo
ĠN i
Ġgro wn
Ġì§ ģ
ĠC ook
å¼ Ĥ
Ġrel ative
Ġaff airs
el ine
è½ »
ĠL in
ĠS el
ĠR un
ĠKenn edy
Ġsum m
l ad
ĠD ream
ĠRober ts
E N
ĠG arden
åĪĩ ãĤĬ
h ard
Ġf al
Ġsy nd
Ġ190 6
ĠM ission
éģİ åİ»
uer to
ĠH ere
éĥ¨ ãģ«
Ġf alls
ãĥĥ ãĤ°
Ġauth ors
es ter
Ġth ing
c rib
æł ĳ
æ§ĺãĢħ ãģª
Ġweek ly
ep ing
ĠB an
P lay
çĳ ª
Ġc ited
Ġm obile
Ġ190 7
Ġre nd
Ġc ool
b ach
Ġd rew
196 9
Ġappear ing
ä¿ Ĭ
éģĭ è»¢
Ġb le
ĠPh ill
n al
rid ges
ç§» ç±į
ot ten
197 1
Ġother wise
c alled
Ġwe ak
Ġevery thing
re ll
Ġref ere
Ġattra cted
Ġtravel ed
ãģ« åĬł
ri k
0 2
åįĹ åĮĹ
ĠDis ney
Ġconc rete
Ġf ra
è¡ĮæĶ¿ åįĢ
Ġ1 20
Ġìĥ Ī
Ġev olution
ĠAnton io
Ķ ëĭ¤
Ġoper ates
Ġpublic ations
Ġëĭ ¬
åľĭ æ°ĳ
ìł Ī
Ġp ray
ĠPri x
i ac
Ġgr ass
Ġvess els
çł Ĥ
èĻ «
ast s
æ¥ ļ
å°¼ äºļ
un ities
ä¹ Ļ
h ar
ãĥĹ ãĥª
ãģĹãģ¦ãģĦãģŁ ãģĮ
Ġart istic
Ġspe ak
Ġh ang
ãĥķ ãĥ¬
w en
Ġwhe el
ĠPro te
Ġre un
Ġê²½ ìļ°
ĠB ry
Ġexper iences
Ġsuff icient
Ġfilm ed
ĠA le
å» Ł
Ġpo em
èĮ Ĥ
ĠD aily
ãģ¨ åĲĮãģĺ
M I
æĶ Ŀ
v o
19 20
ĠJ ordan
èį £
Ġf led
Ġpre ced
Ġprovin cial
ä¹ ³
er g
H K
ĠC ru
s ch
çī¹ å®ļ
ãĥ³ãĥ ŀ
çļĦ æĸ°
æŃĮ æīĭ
Ġprocess es
uss ian
ĠE ag
æľī åĲį
ĠEr n
ãģ® ä¸Ĭ
ĠA BC
Ġneigh bour
Ġstr ate
ãĥª ãĥªãĥ¼ãĤ¹
Ġexper t
Ġvoc als
é½ Ĭ
ìķ ħ
Ġdon ated
Ġcl imb
æĹ¥ ãģĭãĤī
ol ph
Ġille gal
ãģ« åĩºåł´
æı ļ
Ġte ach
A L
ãģ¨ãģĹãģ¦ ãģĦãĤĭ
Ġë ł
ig g
Ġ ,
Ġt ur
Ġm ental
ĠH it
Ġstrate gy
ĠMarg aret
Ġ5 5
Ġrec ip
it als
Ġm ob
ĠIndepend ent
Ġoff ensive
ĠWin ter
ĠW he
ch ang
åı¯èĥ½ æĢ§
Ġ187 0
éĬ ĥ
ĠS on
Ġf ishing
od d
or f
igh ters
Ġeld er
Ġp apers
æĬ ±
çĲĨ äºĭ
Ġmanufact uring
ol ly
Ġmon ument
å° ī
Ġdef ensive
as ters
Ġp ric
èĳ Ľ
or g
Ġex ception
bre ak
ĠI owa
éĤ Ģ
æ³ ½
Ġsh if
ä¿Ŀ æĮģ
Ġen for
çİ Ħ
íĻ ©
Ġform ing
ãĤ³ ãĥ¼ãĥī
ĠMont real
å¯¾ æĪ¦
ãģ«ãģĬãģĦãģ¦ ãģ¯
Ġcomplet ion
Ġí ĳľ
Ġê·¸ ìĿĺ
Ġì´ Ŀ
ãĥ¢ ãĥ³
åĳ¨ è¾º
é¬ ¼
èĶ ¡
åİ» ä¸ĸ
ĠK am
eth od
Ġh am
Ġsevent h
Ġinstr uments
çļĦ ä¸»
æĵį ä½ľ
Ġmark ets
ew ork
æľīéĻĲ åħ¬åı¸
ult an
Ġcontin uing
Ġsurround ed
ĠMississ ippi
Ġdefe ating
çĨ Ł
Ġëª ©
Ġw ave
ĠCat hedral
ĠMc K
Ġë¯¸ êµŃ
Ġ íķĻ
in tend
Ġrest rict
ãģ«ãģª ãģ£ãģ¦
é¡ »
ĠCon vention
ĠN ag
ĠK arl
ĠAg ency
åĢĻ è£ľ
er ted
è½¦ ç«Ļ
ĠW W
æ¯ı å¹³æĸ¹åħ¬éĩĮ
ĠíĶĦ ë¡ľ
ĠReg ion
ãĤĴ åıĸãĤĬ
Ġext ens
äººæ°ĳåħ±åĴĮ åĽ½
Ġass ass
B O
ì ³
è¿ ģ
ãĤ¢ ãĤ¯
å¯¾ è±¡
Ġd ang
ãģĦ ãģ«
Ġgreat ly
Ġlast ed
çĶŁãģ¾ ãĤĮ
Ġinflu ential
M y
Ġrough ly
n ed
éĻ °
è£ ı
ãģ® ä¸ĭ
è»Į éģĵ
åĪĨ åĪ¥
ç¥ŀ ç¤¾
Ġencoura ged
Ġloss es
Ġd im
è¥¿ åįĹ
Ġb es
ĠA ud
ig rated
ãĥ©ãĤ¤ ãĥĸ
è§£ éĩ
Ġcam era
ĠF inn
iv ation
h us
ãĥ¼ãĥ ´
Ġsp oke
ãĤ¢ ãĥĬ
Ġ190 9
Ġex pos
åģ ¶
d in
I f
ush ing
Ġa cted
Ġw arm
ãĥ¬ ãĤ¯
Ġê° Ħ
z i
Ġvis iting
m ate
ĠMor gan
éĢļ ä¿¡
the less
Ġsomew hat
ĠL ane
Ġpl ane
ç¨ ¿
ä¸į æĺİ
æĻĤ ãģ®
ol o
ĠAm b
ìĹĲ ëıĦ
Ġj uris
H S
è¡ ¡
Ġeffect ively
ĠB ack
Ġs udden
Ġw rong
æ´ Ĺ
Pro duction
ĠL ang
f rom
Ġv ic
ĠE arly
æĳ Ħ
196 7
ĠP ed
port ed
ãģĵ ãģĵ
A c
Ġappro val
ĠDen mark
il it
Ġabs or
Ġdyn asty
ë§ Ŀ
ast e
ĠD anish
ign ment
Ġsol ution
Ġìĺ ¬
m od
Ġsu icide
ĠBelg ium
ĠHon or
ĠAl ban
Ġc ook
ĠConf eder
å®ĺ æĸ¹
ĠDef ense
Ġbeg un
Ġëĭ¹ ìĭľ
ä»» åĭĻ
Ġnorth west
Ġtransl ation
Ġexec uted
æĶ¿æ²» äººçī©
A D
Ġmed ieval
éģ Ĺ
W orld
ĠY our
ãĤ¤ ãĥī
ĠAtlant a
Ġass embly
Ġout put
Ġr u
ĠOk lahoma
Ġev al
Ġê²ĥ ìĿĦ
ä½ı å®ħ
Ġrepla cing
ĠK ings
ĠPet ers
grad uate
Ġequip ped
Ġre act
il arly
çŃ ¾
hy th
Ġv o
ãĤ¿ ãĥ«
ĠHistor ic
ä¸ °
Ġv ision
Ġbatt les
æī ©
å¸Ĥ éķĩ
196 4
Ġafter wards
Ġrapid ly
ĠOr thodox
ĠM icro
äºº ãĤĴ
Ġh its
åĪĨ åĪ«
Ġcontrovers ial
ĠQue bec
å¡ ĺ
ãĥł ãģ®
ä¼ į
Ġrep ro
ãĤĴ çĶ¨
Ġ vert
Ġb en
äºº å£«
ĠAlex and
196 6
B l
ãĥĵ ãĤ¢
Ġë ģ
éĻ ·
åĬ ³
ä¸Ģ åº¦
em en
Ġint ention
Ġcover ing
Ġp itch
ĠM unic
Ġw ine
åŁ· è¡Į
è¥¿ åĮĹ
Ġam end
ä¸įåĲĮ çļĦ
ĠM ach
Ġpr int
äºĭ ãĤĴ
che ll
Ġrecommend ed
å¸Ĥ éİ®
ĠMatt hew
Q u
Ġdraw ing
ĠF M
Ġíĸ Īëĭ¤
ãĥ¼ãĥ« ãģ®
æģ ¢
H owever
Ġchap el
åĭ ŀ
ĠDe an
ĠAnth ony
ĠAn na
Ġconst ruct
ĠConnect icut
ç¢º èªį
ac on
Ġmeet ings
ãĤ½ ãĥķãĥĪ
S U
ĠP uerto
ç¤ İ
ãģ« åĪĨ
ro up
ãĥ¼ãĥ© ãĥ³ãĥī
æĻĤ çĤ¹
ik i
æĽ¸ è¨ĺ
ä¸ī åįģ
æĵ ´
Ġdown town
éģĭ åĸ¶
Ġf urn
ì ±
p es
éĽ ľ
Ġhors es
ĠD ark
èį ¯
ãģ« éĢ²
Ġcoast al
ess ions
Ġadop t
Ġrem ember
æį ·
å± ¯
åħ¥ ãĤĮ
ĠH and
Ġne ut
ĠF al
ov iÄĩ
ĠC ost
éĶ Ģ
çİ Ľ
ct s
åĽ½ ç«ĭ
ret t
ĠL iter
æĬ ĳ
Ġnewsp apers
196 5
Ġmass ive
ĠFle et
Ġpre gn
ç´ «
Ġint ellect
è£ ķ
Ġtre ated
194 6
ĠR ow
åį ¢
ìł Ģ
ĠArgent ina
ãģ§ãģį ãģªãģĦ
ĠCol omb
Ġac know
ãĤµ ãĥ¼ãĥĵ
Ġsur f
æĸ¯ åĿ¦
çµ± æ²»
Ġsup plies
Ġdiv isions
ĠSe attle
l ook
çĬ¶ æ³ģ
as hed
ro ve
ĠLaw rence
ĠN ar
u j
Ġsk in
ä¸Ģ å¹´
ãģ®ä¸Ń ãģ§
Ġë¯ ¼
Ġchang ing
èĹĿ è¡ĵ
Ġ5 2
1 000
ĠB ull
ç½Ĺ æĸ¯
Ġc atch
ç¥ Ŀ
åĲĳ ãģĳ
ç«ĭ ãģ¦
å¾ µ
Ġhundred s
ĠH op
ĠS port
ĠGl as
vel and
ĠStud ios
å¤© æ´¥
lab ama
195 8
ãĥ³ ãģ«
Ġsuff ering
Ġn et
è¼¸ éĢģ
ĠL am
1 20
Ġnov els
Ġsurv iving
Ġconcern ed
Ġsuppor ters
Ġc ricket
x ts
Ġm ir
çķ¢ æ¥Ń
è¯ Ĺ
å¤§ çµ±éłĺ
ĠTer rit
è± Ĳ
åĲĮæĻĤ ãģ«
æł Ħ
Ġì§ ĳ
éĬ ·
let ics
ãĥĥ ãĤ«ãĥ¼
éĺ¿ æĭī
ri ent
æ¯ķ ä¸ļ
Ġ190 2
çĦ ¼
ĠS R
ä¸į è¶³
Ġthreat ened
ĠP ict
Ġf est
Ġpost ed
ĠBrother s
çĨ Ļ
çµ± ä¸Ģ
ograph ical
èĹ ¥
ĠNaz i
ä½įæĸ¼ è©²
ĠSt r
Ġemer gency
ãĤª ãĥ¼ãĤ¹ãĥĪ
ĠP ow
é¥ °
å² ³
Ġcou ples
æİ ĺ
Ġë² ł
id ency
íķĺ ëĭ¤
oty pe
æĴ® å½±
in ction
éĥ Ĭ
å½ĵ åľ°
åĩ ±
Ġmov ements
Ġret ain
2 50
Ġat mosp
ing ly
ĠCh ile
T O
çķ° ãģªãĤĭ
Ġfr ame
if er
ming ham
ì§ ĳ
so ft
Ġh ockey
W est
ann y
Ġl oyal
é© »
ç§ĳ åŃ¸
S O
ĠAll iance
Ġrece pt
ãģ¨ æĢĿ
åľ Ī
g ow
Ġbran ches
Ġg one
ĠPit ts
Ġsurg ery
Ġrec re
èŃ° éĻ¢
æĻ ¶
Ġt act
ĠGerman s
ĠëķĮë¬¸ ìĹĲ
ig e
Ġ4 3
og le
ç· Ĭ
ac c
æĪĸ èĢħ
ãĥĨ ãĥ«
çı¾åľ¨ ãģ¯
çĳ Ł
æľĥ èŃ°
è¾ ĵ
ä¸» æĮģ
âĢ ī
ç¯Ģ çĽ®
ä¸Ģ å®ļ
Ġs ter
Ġapparent ly
ê¸° ë¥¼
ĠN ev
ãģĤãĤĭ ãģĦãģ¯
æ¥Ń åĭĻ
Ġunder t
Ġ190 4
ĠEn vironment
Ġwh ilst
èº« ä»½
Ġcol ony
åł ħ
res ents
ĠM oon
Ġse ed
B et
Ġc ards
éģĭ çĶ¨
Ġhost s
ĠCle veland
Ġex isted
ç¾ħ æĸ¯
éĽ ¶
ĠCh amber
Ġvess el
è¶Ĭ åįĹ
ĠR ol
ĠWalk er
m at
éĦ Ń
ãĤ¿ãĤ¤ ãĥĪãĥ«
ä» ®
æ¬§ æ´²
ĠBroad way
Ġw ides
ãĤŃ ãĥ¥
å»ĥ æŃ¢
å¾ ½
ud a
Ġtrad ing
ĠGl obal
ell i
ĠSh ah
Ġmod ified
ìĭľ ìķĦ
ĠP ap
ê¸° ìĹĲ
Ġpen alty
ĠS af
ĠR yan
ĠìŀĪ ìĹĪëĭ¤
Ġhabit at
Ġcolle ctions
Ġremain der
æ¡ ĥ
M any
' ve
Ñ Ĥ
i ors
æŃĲ æ´²
å² Ĳ
Ġfranch ise
Ġthir ty
ĠP lace
åİŁ åŃĲ
Ġìķ ½
ãģ® ãĤĤãģ®
ä½įäºİ è¯¥
Ġequ ivalent
ot ton
éĢ ®
Ġcompon ents
Ġcirc uit
Ġs now
åł´åĲĪ ãģ¯
æĿ Ĥ
ul ating
è»į éļĬ
A F
ãĤ¹ãĥĿ ãĥ¼ãĥĦ
ĠWel sh
åĲį ä¸º
ĠMark et
ĠProt est
į ¼
ĠIn vest
Ġturn ing
P er
im et
ĠëĴ ¤
æĪĲ çļĦ
Ġse nd
M c
çģ °
Ġtransport ation
åĬĩ åł´
Ġher itage
å¡ ļ
Ġdisp la
æľī çļĦ
ä½ľ æĪ¦
Ġmain tenance
èīº æľ¯
% ï¼Į
Ġdepart ure
æµĻ æ±Ł
ĠAl an
å¤ª éĥİ
D C
Ġclaim ing
æīĵ ãģ¡
b ridge
Ġvis ible
éĽĨ ä¸Ń
ust ed
çį¨ ç«ĭ
in ations
ain ts
èĽ ĭ
ĠJud ge
os m
Ġparticip ation
åĲį çĤº
se a
Ġreported ly
æĿ±äº¬ éĥ½
äºº åĵ¡
èħ ¹
è² ¿
Ġinj uries
a uty
Ġdiscover y
Ä ±
d ie
Ġto w
ĠLouis iana
Ġph one
Ġê²ĥ ìĿ´
Ġoccasion ally
ter ior
åįļçī© é¤¨
ct ic
Ġdirect ors
Ġagricult ure
ãĤĴ çĽ®
ç§» åĭķ
ĠBalt imore
æ¡ Ĥ
Ġmiss ions
çĶ£ æ¥Ń
Ġh ope
p at
ãģ« ãģĤãģŁ
ï¼ī _
Ġlic ense
ãģĭ ãģĭ
Ġnick n
æ¼ ¸
èĮ ²
Ġmod e
Ġ190 1
Ġtr uth
att an
m ath
Ġrecord ings
è´ µ
çĽ §
ĠUk raine
and al
Ã ł
Ġcous in
ç«¶ æĬĢ
res ident
Ġemploy ment
ç¬¬äºĮæ¬¡ ä¸ĸçķĮå¤§
ĠD yn
ĠInd ians
194 1
ĠHer itage
ĠAuthor ity
ãĥŀ ãĥ¼
Ġattend ing
åĥ §
Ġgrad ually
Ġt urb
æķ´ åĤĻ
ĠThe ater
Ġf ruit
iv ate
è´ Ń
ãĤĭ ãģĵãģ¨ãģĮ
ãĥ© ãĤ¸ãĤª
ĠY an
è» Ł
Ġplan et
ĠB uff
è® Ń
ro ke
Ġhe aring
äº ¿
ĠR ick
ab ilities
ãĤīãĤĮ ãģ¦ãģĦãģŁ
ri x
è¡¨ éĿ¢
p read
ĠP ur
h o
åĭĿ ãģ¡
åŁ ĭ
Ġf il
èĩº çģ£
Ġere cted
ãĥ¼ãĥ Ļ
Ġind icated
ament al
åĮĸ åŃ¦
ĠInst ead
ĠN av
çĽ¸ åĲĮ
T ube
194 8
èĬĤ çĽ®
and o
old s
ĠSing h
åĩ ½
åį ¿
st an
Ġto ols
Ġsat isf
ĠLa ure
Ġsaf e
åŁº ç¤İ
ap olis
åĲĮ ä¸Ģ
anc ell
ĠF riend
re hens
ic on
Ġspe nding
æ£ ĭ
Ġ rif
Ġìł Ģ
Ġ190 3
é ¶
Ġlandsc ape
è´ ¢
Ġopport unities
ĠH amp
W ork
Ġdef ence
Ġìł Ĳ
èĬ ³
Ġunder ground
åŃĲ ä¾Ľ
ç¶Ń æĮģ
Ġevery one
Ġthous and
ĠA labama
ial s
Ġexc ell
Ġreg ime
ĠAp p
ran g
Ġtest s
ãĤ¢ ãĥķ
Ġinf rastructure
æ³ Ĭ
W A
ĠArch itect
ic op
ãģ¯ ãģĺ
å¤ª éĻ½
am an
Ã «
æłªå¼ı ä¼ļç¤¾
Ġw ants
olog ists
apt ist
ãģ¯ ãģĵãģ®
è¨ĺ è¼ī
åº Ļ
çļĦ ãģ«ãģ¯
194 4
ä¸į éģİ
Ġwork sh
ä¸į è¿ĩ
ith uan
ĠB achelor
æĢ Ĵ
ĠMount ains
ãĤĴ ä½¿çĶ¨
usal em
ĠAust rian
Ġinf antry
Ġbo ats
N ot
æ¿ ĥ
Ġëł Ī
Ġrep resents
æı ¡
Ġcharacter istics
ĠTai wan
ĠG ri
æĽ¸ é¤¨
é² ľ
ãĤ¢ ãĤ¸ãĤ¢
Ġpl us
cast ing
Ġill ness
w all
ç«ĭ æ³ķ
Ġemer ged
Ġadapt ation
äººåı£å¯Ĩåº¦ æ¯ıå¹³æĸ¹åħ¬éĩĮ
Ġsh ares
Ġ4 7
çĸ ¾
ĠF ern
éļ £
Ġto ured
æıı è¿°
ãĤ¹ ãĥ¼ãĥĳ
ç® ±
é£ ²
äºº éĸĵ
il ty
æ¼Ķ åĶ±
U N
our se
Ġpan el
æĻ ī
éĭ ¼
Ġresc ue
Ġconc erts
Ġse es
Ġthe ore
Ġed ited
h ost
Ã© s
æµģ è¡Į
Ġread y
ãĤ« ãĥ¼ãĥī
å°ı ãģķ
åľ° ãģ®
Ġn av
Ġpro c
k ed
éĢ® æįķ
å°ı èª¬
çĬ ¬
T E
Ġattrib uted
Ġcas ual
Ġl ieutenant
Ġëª »
ãĤĴåĲ« ãĤĢ
å¾© å¸°
m aster
Ġmount ed
è£ Ķ
Ġw orship
Ġimmedi ate
èªį ãĤģ
åħ »
ĠEn ergy
ç¬¬ äºĶ
Ġthe at
ĠPortug al
r ity
åĽŀ åĪ°
Ġ <
è¾² æ¥Ń
ĠH ockey
pro fit
å¯¹ äºİ
Ġchap ter
m ates
t op
Ġsy m
ĠSar ah
ãĤ¦ ãĥ«
n et
æĬķ åħ¥
ãĥĭãĥ¥ãĥ¼ãĥ ¨
Ġ5 1
å°į æĸ¼
as a
R ober
æ¬ ²
ĠíĻ ķ
ĠBir mingham
ĠN ash
Ġpass age
í ļ
Ġprin ted
le m
Ġadvert ising
åĨł è»į
an ia
Ġpop ulations
Ã ´
Ġpr ime
ãĤıãĤĮ ãģ¦ãģĦãĤĭ
ãģĭ ãģª
Ġext ent
Ġamong st
ë³ Ħ
åĽ£ ä½ĵ
ud es
ĠTra ining
åķ Ł
ĠF ive
çĻº å±ķ
Ġcomp ris
Ġì »
ult ane
s q
C an
Ġbenef its
Ġn ations
or er
ul um
Ġenjoy ed
Ch rist
èĢħ çļĦ
ĠR y
æĢ» ç»Ł
Ġo verse
Ġs outheast
v y
194 7
195 6
he astern
Ġf ur
ĠC are
Ġ4 6
ir ation
åĪ© äºŀ
ãĥĩãĤ¶ ãĤ¤ãĥ³
og s
ĠN CAA
ĠM aur
éİ ĸ
Ġmake up
c ies
ĠKel ly
Ġunus ual
ĠS ac
éĢ£ éĤ¦
ãģ» ãģ¼
C omm
R I
ĠW ard
gress ive
åĮ ¹
Ġ ãģ¯
ãĥ³ãĥ ĵ
Ġmarket ing
Ġv s
ĠCan al
Ġabs ence
ĠÃ ī
ãĥŁ ãĥ¥ãĥ¼
Ġdistingu ished
è² «
å¤© æĸĩ
åĩº çļĦ
çĶŁ äº§
Ġab road
åĲ ¯
éĬ ħ
é½ Ĳ
ĠR ub
ãĥĭãĥ¥ãĥ¼ãĥ¨ ãĥ¼ãĤ¯
ĠNor man
ãģ« èĩ³
ĠB oys
ch i
ĠCon stant
ãĥ¡ãĥ³ãĥĲ ãĥ¼
Ġë Ĭ
å¹´ åľ¨
ĠY ug
196 3
Ġflow ers
Ġqual ifying
n i
Ġbound ary
çĽ ĸ
Ġwrit es
ĠRuss ell
ĠG ran
ãĥĪ ãĤ¥
ĠWh at
æŁ ´
Ġsubstant ial
çŃī ãģ®
ä¸Ń éĥ¨
196 2
Ġpat rol
Ġmount ains
ĠCons ervative
ãĢĢãĢĢ ãĢĢãĢĢ
åĮĹ æµ·éģĵ
ëĭ ¬
Ġs oul
M ost
Ġê¸° ë¡Ŀ
ĠStew art
Ġl ob
ĠK u
Ġblock s
æ¸Ľ å°ĳ
ĠëĲľ ëĭ¤
ĠN ever
Ġ18 60
ĠD isc
H E
åĭ Ł
æª ¢
è® ¿
Ġb ot
Ġê²ĥ ìľ¼ë¡ľ
éĺ ¶
æ£ Ĵ
Î ¿
ran ean
ĠCamp bell
ĠL l
G A
Ġse gment
Ġeas y
åĩ ı
ãģĳ ãĤĮãģ°
åĨł åĨĽ
ãĤ¤ ãĥĻ
aw are
! "
Ġdra g
æħ Ī
ĠF il
ĠBe at
Ġflow s
Ġcustom ers
Ġproduc ers
ĠT ourn
ĠS ud
ĠD ave
Ġdem olished
äºĶ å¹´
ç¸½ çµ±
Ġfriend ly
195 5
Ġsuspend ed
ãģłãģ£ãģŁ ãģĮ
ĠAlf red
oc a
P ost
Ġmod er
åħ ģ
çİĭ åĽ½
ãĥĥ ãĤ¸
Ġsw itch
Ġstat ue
ĠR ugby
Ġenter tainment
ĠRog er
Ġcr ash
éĢĻ ç¨®
íİ ĺ
ĠAust in
ãĥ¦ ãĥĭ
Ġrel ocated
Ġrul ing
m al
ä¸į å°ĳ
c ut
ìĺĢ ëĭ¤
ë¦ ¼
h ai
ãģ¾ ãģ§ãģ¯
ĠAd ams
d oor
Ġele ven
è¿Ļ ç§į
ĠTreat y
Ġsent enced
S ec
mph ony
oun sel
u ated
t es
ĠN ob
Ġt ied
ãĢį ãĢģ
Ġwides pread
å±ķ ç¤º
G erman
å¤ĸ åĽ½
Ġstrugg le
ĠK y
g ie
om as
Ġì² ´
åįĥ ç±³
T P
ĠìĿ´ ë¦Ħ
om es
ay an
Ã© t
ank s
Ġr ivers
æ· ¡
T wo
Ġsh ore
èª ĺ
ĠE ver
Ġten ure
ra k
çī© èªŀ
193 9
Ġas ks
ĠO d
Ġjuris d
ort on
ãĤĴ ç¤º
ĠF rid
Ġb at
le ans
åī Ľ
ãĥ¡ãĥ¼ãĥĪ ãĥ«
ãĥį ãĥ«
Ġag ents
ĠK ey
ĠR ap
ãģªãģ© ãģ§
ä¹Ĺ ãĤĬ
Ġnomin ation
Ġbe ar
are st
ê² ¬
Ġadap ted
ĠA M
Ġan ch
Ġuse ful
Ġfinal s
éĽĨ åĽ¢
æģ Ĵ
ĠM ond
éĲ ĺ
Ġcomment ed
Ġthem es
ÃŃ n
ĠAr n
åŃĺåľ¨ ãģĻãĤĭ
ìĽ Į
çĶŁ çĶ¢
ia h
ĠUp per
è»į ãģ¯
ĠC BS
Ġdest ruction
l s
ê· ¼
æ¯į è¦ª
Ġarchitect ural
or us
æ¸ Ĳ
ìĻ ¸
Ġsouth west
æ£ Ģ
oc ol
éģ į
m und
rain ian
Ġwhere as
Ġn one
Ġesc ort
Ġyoung est
äº§ çĶŁ
ĠH ell
Ġbe autiful
Ġbe ach
ãĤ« ãĥª
Ġrest oration
äºĮ å¹´
ĠThom pson
Ġoccas ions
ĠHis pan
ãĥĳ ãĤ¤
Ġ2 50
Ġmin imum
ph a
Ġcompet itions
ĠJoh ann
ĠHe b
ĠG ene
å® ¡
å°ı åŃ¦æł¡
Ġseek ing
å° ĭ
Ġsett lers
Ġconst ant
å¼ķ èµ·
ĠB ed
ĠF all
ĠHind u
ar at
åķĨ åĵģ
æķ° ãģ¯
Ġl ap
la p
Ġw ars
ãģ¾ ãĤĭ
ene z
æħ ¢
ĠF A
ab ad
ens ed
Ġpublic ly
æ¹ ¯
Ġbeh alf
ĠSh a
ĠA y
çĶ¢ çĶŁ
Ġconv in
J R
it ure
Ġpres erved
Ġs ailed
Ġinst ru
è©¦ é¨ĵ
ĠJer usalem
Ġê·¸ëŁ¬ ëĤĺ
Ġreb uilt
Ġíķ Ń
Ġtem por
Ġex ternal
ĠIn formation
å¤± æķĹ
è¸ ı
åĨį åº¦
ĠD h
äºº ãĢħ
ĠBrook lyn
ĠM em
ĠW right
ĠK az
s uch
é¡ ¶
æĺ Ĩ
è· ¨
st ic
Ġposs ibility
è¡ °
æĶ¹ éĢł
æħ ķ
196 1
çĶŁ åĳ½
Ġfrequ ency
ath y
ocr atic
Ġgrand father
Ġround s
ĠF ried
å¤ī åĮĸ
Ġex posed
Ġfrequ ent
Ġì ½Ķ
An other
å°ĳ å¥³
Ġview ed
Ġelim inated
å½ ¦
ĠS S
ann els
ĠD allas
ãĥ³ãĥ į
çİĭ åº§
Ã ¥
Ġdes ire
Ġdec ides
ĠB ruce
ener ation
ĠW ol
Ġperiod s
b ut
ĠCh all
Ġc ul
l ater
l on
ĠN BC
Ġdescrib e
ĠFrank lin
ìĺ Ī
ĠV inc
ãģ« å¾ĵ
Ġch amber
éĢ² å£«
Ø §
Ġcreat ive
193 7
arch y
ä¿¡ ä»°
p m
Ġhon our
å·¥ åł´
å°Ī è¼¯
ãĤª ãĥ¼ãĥĹ
ëħ Ģ
ìĥ ī
Ġc up
åĬł æĭ¿
ãģĿãģ® ãģŁãĤģ
ĠSen ator
ä¼ģ çĶ»
ub le
ĠT ower
ãĤ¹ãĥļ ãĤ¤ãĥ³
ĠMed icine
ä¸į åı¯
A wards
it arian
ãĤı ãģļ
æĳ ĺ
Ġann ually
Ar t
åĲį ãģ¯
åĴĮ å¹³
Ġint ent
Ġtrib es
æĸ° ãģĹãģĦ
éĩĳ èŀį
Ġtim ber
é¢ ĳ
Ġcontrib ution
ĠP as
åĸ ¬
Ġw ings
oun ced
ĠOr leans
ig s
194 2
åĩ ¯
æ³¨ æĦı
Ġrelationship s
Ġnetwork s
ark s
ãģĦ ãģ¦ãģĦãĤĭ
l as
åħ¨ çĲĥ
Ġpick ed
Ġclass ified
ãĤ¤ ãĥ³ãĤ°
fer ences
195 4
Ġfac ing
ĠM eanwhile
å°İ èĩ´
ĠSchool s
Ġsust ain
ĠN elson
ãĤ·ãĥ£ ãĥ«
ä½ĵ èĤ²
Ġpers u
ĠL ib
Ġparticip ants
å¼Ģ åıĳ
Ġel se
æ²³ åįĹ
Ġr ugby
ç·ı åĲĪ
Ġres olution
ĠD ance
ç¨® é¡ŀ
Ġcommand ed
ä¸Ń ãģ§
ä¸ĵ è¾ĳ
Des pite
å¯¼ èĩ´
è¡¨ æ¼Ķ
ãĤĴè¡Į ãģĦ
ou ver
Ġbelong ed
çİ© å®¶
Ġkeep ing
Ġam ateur
Ġany one
Ġweap on
la c
Ġpurs ue
ãģ« æĪ»
Ġsupport s
ĠS n
Ġapart ment
ãģ® ãĤ³
ãģ® ãģĤãĤĭ
è¡ ¥
ç§ĳ æĬĢ
C E
ìľ ¡
åŃ Ł
ãĤī ãģĮ
ark ed
Ġpat ient
Ġp ure
arc hers
ãģķ ãĤĵ
çĤ Ń
Ġdrug s
at ur
éģŃ åĪ°
Ġdesign er
Ġphen omen
Ġrespond ed
è Ł
åĩº ãģĹãģŁ
f are
Ġv ast
Ġassoci ate
l ie
Ġsub stitute
ĠMor ris
ç° ½
ut ers
Ġin ner
Ġmerch ant
Ġn om
ĠDon ald
æĪ ª
Ġim perial
ãģ² ãģ¨
ìĿ´ëĿ¼ ê³ł
Ġag encies
çļĦ å°ı
Ð º
æĮģ ãģ¡
ĠìĤ¬ ìĿ´
ym n
b ound
ãĤĮ ãģ¦ãģĦãģŁ
Ġ189 8
ĠE vent
Ġvide os
çĪ¶ äº²
ãĢģ âĢľ
ëłĪ ìĿ´
d r
Ġc able
195 9
èİ İ
ãĤ¹ ãģĮ
Ġpo ems
ëĲĺ ëĬĶ
St ar
éħį ç½®
Ġdeploy ed
ĠMar ie
è¼ Ŀ
The y
f inals
éļ ª
Ġrep air
it ially
æŁ Ķ
Ġtal ent
Ġì ¢
Ġw edding
çĦ¡ æ³ķ
åĲį ãĤĴ
ä¼ °
ĠCh ampions
ĠKn ight
Ġexc av
íĻ ĺ
in ist
ìķ ł
èĳ ¡
· ¨
éĩĮ æĸ¯
ĠM ethod
ĠGirl s
ä¿¡ æģ¯
è§£ æķ£
Ġ ST
ç¢ ¼
ĠTr ade
um ph
Ġaim ed
sequ ently
ĠRob inson
ç¤¾ éķ·
N ational
er k
uz z
éĸĭ çĻ¼
Ġ6 00
ãĤı ãģŁ
ĠHung ary
æľĪ ãģĭãĤī
ant ine
ĠL ocal
ãĤĴ çĻºè¡¨
iven ess
ĠDe ath
åĪ© äºļ
çµĲ æĿŁ
Ġpal ace
ĠCar ter
ash i
äº¤ æĺĵ
æĭ¥ æľī
å¤ļ çļĦ
Ġab use
ãĥķ ãĥŃ
greg ation
Ġrese archers
est one
195 2
éĴ Ł
åĨĻ çľŁ
Ġcan c
Ġcho ose
æŀ Ŀ
Ġgovernment s
å¤§ ãģª
ãĤĴ çĻº
æĺ Ĥ
èģ ´
ä»¥ä¸Ĭ ãģ®
æĭī æĸ¯
Ġreve als
ĠAnd re
a is
ì§ ¸
h u
Ġdepend ing
195 7
ĠCh art
è° ¢
re le
Ġgen re
Ġsec ured
æĵģ æľī
Ġparliament ary
ĠR ace
è½ ¨
åı Ľ
Ġcent ers
ic iency
ç¶ ±
Ġdoes n
ĠE very
åıį å¯¾
u its
äºº é¡ŀ
ĠR io
ãģ®ä¸Ģ ãģ¤
h igh
ä¸» æ¼Ķ
çĲĥ éļĬ
Ġdeb t
åī Ĭ
ãĤĴåıĹãģĳ ãģ¦
at ched
åĿ ª
Ġex cess
ĠAg ricult
åĲ ¹
è³ ĵ
Ġdet ailed
ec ess
ëŀ ľ
ĠF ather
b ody
ĠWind ows
Ġview ers
åĽ½ çİĭ
åĩº ä»»
æ¨¡ å¼ı
åĪĹ è½¦
åħ ¹
ĠWork s
åĲį åŃĹ
Ġgen us
H z
å¤ º
ãĥ¬ ãĥ³
Ġscholars hip
è¡Į æĺŁ
åħ¨ ä½ĵ
æĿĲ æĸĻ
Ġins urance
ĠMov ement
ĠMan h
å¹ »
åľ° ä¸Ĭ
åĿ Ĭ
on omy
ĠMet ropolitan
Ġval id
ĠGlas gow
äº ¨
Ġdr iven
ä» ª
ĠSt ory
ĠK evin
çģ ¯
Ġmat ters
ä½Ĩ åľ¨
Ġtra p
ĠYug oslav
éĽĨ åľĺ
çĽ® æ¨Ļ
éĢĻ ä¸Ģ
Ġrecover ed
ĠPat ri
Ġscient ists
Ġportray ed
en cing
ĠT ig
çł ģ
çĽ Ĺ
æĹł æ³ķ
Ġdep ict
Ġk it
Ġsw it
äºĭ ãģĮ
Ġdiam eter
èĭ± è¯Ń
C ar
og a
Ġcon vention
Ġprocess ing
Ġex ists
Ġinf l
ì¿ ł
ĠHung arian
E ng
æĮ ¥
Ġinstrument al
çī¹ åĪ«
sh aped
ĠPri or
Ġadult s
ĠPitts burgh
l en
ä¾Ĩ èĩª
ĠC er
ë ĥ
ãģļ ãĤĮ
éĺ µ
ĠU C
Ġsignific ance
æ± Ĺ
åĮº åŁŁ
ro c
åĲĦ ç¨®
Ġsh ock
ĠLim ited
ç² Ĵ
Ġde ck
ĠF ellow
Ġimmigr ants
le ton
Ġë³ µ
ãģ« åŁº
ç» ľ
re ck
ãĥ« ãĥī
Ġfarm ers
ĠM aj
ç»§ ç»Ń
Ġexpl o
åģ´ ãģ®
Ġdom ain
ĠPrin cess
ĠDe ad
è¿Ļ ä¸Ģ
194 3
æºĸ åĤĻ
çĲĥ éĺŁ
Ġdiscuss ed
æº ¶
Ġcan n
ç ĺ
å·´ å£«
åľ ĵ
ãĢĤ ãĢİ
è¡¨ æĺİ
ĠRepresent atives
å¼· ãģĦ
ĠAg ain
ãĤ¢ ãĥ©
ĠB omb
Ġë² ķ
æħ ®
éĩĩ çĶ¨
Ġë Ĩ
Ġrem ove
æķĻ åłĤ
C O
Ġintellect ual
ä¸Ń æľī
rist ol
ĠMur ray
ch t
ĠU EFA
Ġpro port
S W
æķ Į
çĽ¸ æīĭ
Ġident ify
Ġind igenous
Ġnorm ally
Ġì¡ ´
ĠCh and
j amin
op les
ĠS in
ĠV eg
Ġspe aking
æŁ ¯
Ġg ay
ack s
b at
Ġfund ed
ãĥ´ ãĤ©
Ġterrit ories
K O
B E
ĠLe ban
ro ck
å½ĵ ãģŁ
f ire
ãģĹãģŁ ãģŁãĤģ
éĿŀå¸¸ ãģ«
ãģ¯ ãģĿãģ®
æĶ¿ æ¨©
ê ´ĳ
ãĤ¯ ãĥ¬
o om
Ġne ither
Ġtra il
ew here
ous es
ä» Ķ
Ġst able
iter ranean
ç¹¼ çºĮ
æĹ ¨
Ġst im
ä¼ļ éķ·
Ġadv ice
è¡ĮæĶ¿åĮº åĪĴ
ï¼ ħ
åľ° ãģ«
æ° §
ãĤªãĥª ãĥ³ãĥĶ
ãģĦãģŁ ãĤģ
ç©º éĸĵ
å®ļ ç¾©
Ġg ate
ri el
ç®¡ è¾ĸ
it ual
ric ted
Ġdomin ated
ant asy
Ġcorpor ate
è¡ĮæĶ¿åįĢ åĬĥ
ro id
ä¸Ĭ ãģĮ
ãĤĴ ãģ¤
ĠìĿĺ íķ´
ï¼Į ãĢĮ
es c
Ġar c
ëĦ Ī
l ades
Ġdisplay ed
Ġgu ilty
ĠC re
ĠìĦ¸ ê³Ħ
Ġcompet ing
ge on
Ġm ines
op es
å½ °
æľ ĭ
å½¢ ãģ§
ä¸Ń å±±
ãģĽ ãģŁ
195 3
æĭ Ĩ
ãģĹãģ¾ ãģ£ãģŁ
Ġalcoh ol
ç»ĵ æĿŁ
n ce
ãĤµ ãĤ¤ãĥĪ
Ġforest s
ig ible
Ġw ire
i Ã³n
act s
Ġre ven
clos ed
Ġ189 9
Ġsub st
éĻ ©
Ġvers us
ill o
æĿ¥ èĩª
ï¼Į âĢľ
Ġev ac
G P
F irst
ç§» æ°ĳ
Ġpro fit
å¤§ ä½¿
ĠG on
å½ĵåĪĿ ãģ¯
Ġce ased
ĠMarsh all
S up
Ġdisp ute
ãĥ¼ ãĤĴ
éĮ ¦
ow ed
åħĥ åīį
ì Ķ
Ġret reat
R O
Ġs ight
Ġrepresent atives
ĠM ack
ä¸Ģ åĲį
o j
ãĥĩ ãĥ¼ãĤ¿
Ġst rict
èĭ± æĸĩ
ç¤¾ ãģ®
Ġposs ession
éĥ µ
åĬł ä¸Ĭ
l ik
ĠV ic
Ġrepresent ation
Ġw el
éģĶ æĪĲ
çµĲ æ§ĭ
or ous
ë ¹
Ġoper ational
Ġph r
Ġl ose
Ġcomp ens
ĠB ible
Ġê°Ģ ìŀ¥
f eld
çµĦ åĲĪ
M ay
) ï¼Į
è¨Ģ èĳī
èµ µ
éģ¸ èĪī
ĠK it
ĠHe nd
Ġcomp la
è¨ Ĥ
ip ped
ĠR and
æĶ¹ åĸĦ
ĠCap ital
åħ±åĴĮ åĽ½
t ical
Ġestabl ishing
Ġthr one
çĢ ¬
è¯ ĳ
ĠS i
ä¸Ń åŃ¦æł¡
è² ŀ
Ġmon itor
k W
ãģĽ ãģļ
ìĺ ¨
Ġmov ies
Ġearn ing
Ġven ue
ment ary
åĩº ãģĹ
æľĢ æĹ©
ĠìĨ į
Ġcle arly
åį µ
æĹ¶ ä»£
ĠV ik
Ġdra f
d y
ĠF el
åģ¥ åº·
ê² ĥ
ĠE qu
èĢĮ åľ¨
ãĥľ ãĥ¼ãĥ«
Ġsee ing
Ġ AR
Ġag ree
éĿ ĸ
ac le
ä¿Ŀ åŃĺ
ĠíĻľ ëıĻ
Ġpartn ers
å« Į
ãĥ¯ ãĥ¼ãĥ«ãĥī
cont in
Ġres emb
Ġcons ervative
å¤ ķ
G o
æº Ŀ
è´ Ī
Ġpremi ere
Ġiniti ated
Ġsent ence
åĲĮ æĦı
åı² ä¸Ĭ
ä¸ĭ è½Ħ
èĢħ ãĤĴ
ĠM ong
ham mad
Ġweeke nd
Ġsp aces
Ġass isted
C M
ab or
ç»ĵ æŀĦ
Ġrequ ested
Ġmiss ed
Ġapp ly
æĥ ĳ
J ames
D E
ro se
Ġ1 000
ä¸ĭ è¾ĸ
Ġpart ly
Ġass emb
Ġprinc iples
ĠStan ley
S ch
c over
Ġfac ilit
èģĶ èµĽ
ĠPort land
it able
å¹´ èµ·
é¡ŀ ä¼¼
Ġmusic ian
ãģĮ åĩº
æĹ ¦
æĪĲ éķ·
Ġm art
åĩ ¡
Ġindic ate
ì§Ģ ëĬĶ
ä¹Ŀ å·ŀ
äºº åĳĺ
è¦ĭ ãĤīãĤĮãĤĭ
Ġdeath s
Ġpat ron
h our
ĠF ood
Ġf ile
è¿ĳ ãģı
ĠTourn ament
Ġwear ing
Ġinterse ction
è· ³
è£½ åĵģ
ĠCo le
193 8
or ial
çį Ħ
ãĤĴ åıĹè³ŀ
ĠRich mond
è²¿ æĺĵ
cast le
ĠTam il
ĠJos Ã©
G M
p erson
Ġy ield
ĠGra ham
ĠH orn
ĠR ena
ë¦¬ ëĬĶ
éĽ» æ°Ĺ
Ġstr ing
ëª ©
ĠB eck
Ġ ~
è® ¨
ãĤ¹ ãĤĴ
ãĤĬ ãģ«
ĠN BA
anc ouver
ĠJim my
éĢī ä¸¾
å¤ļ æ¬¡
Ġstep s
Ġass ets
åı¤ å±ĭ
Ġmar ry
ĠF ine
è¾¼ ãģ¿
Ġliber al
Ġw inners
Ġinteg rated
Ġh olid
æĬķ è³ĩ
Ġsim ultane
Ġpred omin
èªķ çĶŁ
ãģ«åŁº ãģ¥
åİŁ æľ¬
ĠW ing
ĠíĨµ íķ´
Ġast ron
íĹ ĺ
on i
ĠAp ple
aw ay
çĻ» éĮ²
Ġcomple ting
èĹ į
Ġguitar ist
Ġf itted
athe red
æµ ħ
ĠS uch
Ġc ash
Ġtrav elled
Ġb id
Ġco ff
Ġch annels
æ²» çĻĤ
ĠPlay er
æĿ¥ ãģ®
Ġn urs
Ġì¡° ìĦł
ãĤ¢ãĥ¡ãĥªãĤ«åĲĪè¡Ĩ åĽ½
Ġtank s
ĠH old
Ġcircum stances
çĩ ķ
arg ed
Ġconcent ration
ĠP un
ãĤ¤ãĥĻ ãĥ³ãĥĪ
bor ne
è¨ Ĺ
Ġdismiss ed
ĠL ank
ĠCh ampion
å¸ ģ
åıĳ è¡Į
ĠL ud
iv an
Ġchar ity
Ġiniti ative
èĸ Ħ
Ġland ed
i op
ãģ«ä¼´ ãģĦ
Ġlab our
ĠC hem
ur st
Ġbelie ves
os ph
Dav id
Ġthere after
è® ²
ê° Ĳ
Ġmar ine
Ġsound track
Ġëĵ ľ
Ġë ¨
æ² ī
Ġmov es
Ġp ull
ì¡Į ëĭ¤
Ġunsuccess ful
Ġë° ķ
ub b
C P
ĠE U
åį ĵ
ĠP ad
ç¶ĵ éģİ
ç»ı è¿ĩ
Ġt unnel
ãĥ¼ ãĤ«ãĥ¼
ĠAl bum
Ġr ising
ĠA P
ĠM ess
Ġcred its
Ġsurv ive
Ġt ie
ĠL uther
ele cted
Ġimplement ed
é¤ Ĳ
u able
å®¹ æĺĵ
Ġc attle
ĠC ass
ä¿Ŀ æĬ¤
Ġchart s
Ġhe ar
Ġch ampions
ug s
ĠSt ev
Ġaud io
op al
ìĬ µ
Ġdet ail
èģ¯ è³½
åŁº éĩĳ
ĠW a
åĲ« ãģ¾
Dist ribution
et he
am ents
Ġm o
qu ir
åŁ Ķ
c ase
ãĥĢ ãĥ«
Ġto uring
åĬłæĭ¿ å¤§
Ġsign s
_ ãĢĮ
ĠMed iterranean
Ã Ł
å®ĥ çļĦ
Ġs ang
ãĤĦ ãģĻ
ãĤ¦ ãĥ³ãĥī
ä»ĺ è¿ĳ
åľ° åħĥ
ä¾Ĩ çļĦ
ph an
sc ale
Ġst yles
Ġper mission
Ġdang erous
P ublic
ag re
Ġtrad itions
Ph il
hyth m
Ġíķ Ħ
çĤ¹ ãĤĴ
Ġnegoti ations
æ¯« ç±³
ĠR ain
Ġfall ing
ãģĦ ãģ®
ãĥ¼ãĥ ľ
ĠL ithuan
iss ue
ĠL ast
ĠA ld
S D
ĠB ris
et on
Ġelev ation
in ating
è¥¿ æ´ĭ
íķĺìĺĢ ê³ł
ĠCons erv
Ġhonor ary
Ġacknow led
plic it
Ġad min
ãģ« ãģĤãģ£ãģŁ
ĠIndones ia
ĠF r
æİ ª
çİ° åľ¨
am o
le te
å¦ ĥ
è¦ º
åįģ åŃĹ
Ġbal ance
ãĥĢ ãĥł
Ġinterp re
åĩº äºĨ
äººæ°ĳåħ±åĴĮ åľĭ
Ġíķĺ ëĤĺ
ug u
Ġsat ellite
Ġeld est
Ġunder w
g ate
é¦ĸ çĽ¸
Ġì £
ãģ® ãģĨãģ¡
Ġ18 50
ãĤªãĥªãĥ³ãĥĶ ãĥĥãĤ¯
Ġappropri ate
èŃ ¯
em ed
ĠBy z
? "
ĠManh attan
ĠMalays ia
Ġh at
Ġ ï¼ī
å¾Į åįĬ
Ġclos er
Ġdo ors
Ġ189 5
Â ³
M e
ãĤ® ãĥ¥
Cl ub
ĠCam er
Ġtrans mission
ann er
Ġe at
æİ¥ è¿ĳ
Ġcharacter ized
ĠAbb ey
Ġsuit able
ĠêµŃ ê°Ģ
åĽº å®ļ
F amily
Ġê² Į
Ġfal se
äº Ĥ
P re
Ġext reme
ĠReg ister
æĿĳ åĴĮ
ol ition
çķ¶ åľ°
Ġsla ves
åĳ Ĥ
éĻĲ å®ļ
ĠMil an
Ġtreat y
b oy
ä¸» äºº
Ġne uro
çĶŁãģ¾ ãĤĮãģŁ
Ġinv ent
ĠP sych
u ction
ĠAll ied
ä¸¾ è¡Į
Ġcons ervation
éĥ¨ éĺŁ
æŃ³ ãģ®
Ġnot ice
ĠUk rainian
Ġwealth y
ç¾ Ĭ
ĠìŀĪ ìľ¼ë©°
at ab
Ġëı Į
Ġappro ached
Ġê·¸ë¦¬ ê³ł
ing ham
195 1
ĠO ur
Ġsuper ior
Ġsub mitted
ãĥķ ãĥ«
ĠTr ump
Ġm al
ĠFin land
è¿ĳ ä»£
ĠK an
Ġì² ľ
Ġex ceed
éĺ² è¡Ľ
st ers
Ġliqu id
èĴ ¸
å°ı åŀĭ
ip h
ãĥķ ãĥª
æ¶ ħ
Ġcamp s
Ġbatt alion
ili ar
Ġspons ored
p ent
è¨Ģ èªŀ
æľŁ ãģ®
äº Ń
ĠE mer
ĠC arm
Ġ5 3
è¨Ī ç®Ĺ
Ġdepart ed
è¼ Ľ
ãģĻãĤĭ ãģŁãĤģãģ«
ãĤĪ ãģı
ĠE xt
Ġpred ecess
Ġtrib e
Ġ189 6
éłĺ åŁŁ
ãģª ãģĳãĤĮãģ°
Ġdefin ition
av an
Ġmathemat ics
Ġincre ases
å§ Ĳ
å³¶ ãģ®
Ġ id
' d
g un
Ġdemonst rated
Ġ íķĺëĬĶ
ur ers
æ³ķ äºº
å½¢ æħĭ
éĥ ĳ
æŀ ł
éĽ ĩ
ak u
Ġsculpt ure
on ian
ĠC rit
èĪī è¡Į
Ġcivil ian
st yle
ic ate
ĠG ill
Ġre venue
Ġrank s
Ġprov ision
æĹ¥ åľ¨
ĠDef ence
Ġfe e
Ġout er
Ġ189 7
ĠMad rid
ĠRe form
Ġsym pt
ĠS oon
Ġvot ing
Ġíķľ êµŃ
æĹ ģ
D r
ãĥ¼ãĥ Ł
min ute
Ġpart ially
ac ed
s er
ĠN orm
crib ed
æĿ± éĥ¨
ram a
od a
ĠíĮ Ĳ
Ġatt orney
ãģ«ãĤĪ ãĤĮãģ°
çĻ¼ è¡Į
Ġì¦ Ŀ
ancell or
G O
æľĪ åı°
æµ· åĨĽ
Ġê²ĥ ìĿ´ëĭ¤
b ane
æŁ Ħ
du ctions
ç¦ Ħ
æĨ² æ³ķ
åĭ ĥ
ĠN on
Ġ5 4
ĠB ristol
g raph
Ġw et
Ġm or
Ġmon astery
ĠB illy
æī ķ
Ġì² Ń
Ġs isters
è± Ĩ
Ġrad ical
è· ĳ
ãģłãģĳ ãģ§
Polit ical
Ġcond em
ren a
Ġlook ed
åıĤ çħ§
ĠM ans
ãĤ¦ ãĥł
Ġhigh light
D VD
åĨ Ĵ
Ġprinc iple
Ġt ort
Ġcab inet
Ġcl othing
E E
ov o
ç¸ ģ
åĪĨ é¡ŀ
ĠWh o
å¹ «
as i
ĠF ace
m aking
at in
ãģ«ãĤĪãĤĭ ãģ¨
ram s
ãģ«ãģ¨ ãģ£ãģ¦
f inal
Ġinn ings
arm a
; _
ãģ« ä½įç½®
m o
Ġelect rical
ĠEgypt ian
Ġexperiment al
est yle
ãĤ¶ ãĥ¼
ĠR est
S outh
ĠV ancouver
Ġtri als
ĠH ud
Don ald
éŁ ĭ
Ġro ots
b el
ä½ľ æ¥Ń
Ġeg gs
ĠHispan ic
è¶ħ éģİ
Ġhel icop
ĠIn s
Ġë³ ĳ
B ar
æĢ§ èĥ½
åĭ¢ åĬĽ
éĽ» è©±
è¿ ħ
âĢ ĺ
et a
ss on
ì¼ Ģ
ĠMot or
f olk
Be fore
Ġpet ition
ch o
ãģĦ ãģļãĤĮ
çļĦ ä¸»è¦ģ
è§ ī
N C
åĽĽ å·Ŀ
ëŁ ½
ãĥ³ãĥ ľ
Ġcompet itive
Ġte xts
Ġess ential
Ġparen t
Ġbre aking
Ġgener ated
Ã© n
ãĥĨ ãĥ³
ograph ics
éĢ Ĥ
åįģ åħŃ
S w
ĠB enn
Ġl in
å¤ª åŃĲ
åīį èº«
mon th
ĠR ound
Ġoppon ent
åİ ³
Ġem peror
Ġhous ed
ì° °
Ġdec isions
ict ional
åĲį åı¤å±ĭ
ãģĵãģ¨ ãģ«
Ġsched ule
éĸ¢ éĢ£
ĠBang lades
Ġcross ed
Ġ186 1
íı ī
uk i
Ġëĵ¤ ìĸ´
ãģ« è»¢
ãĥŁãĥ¥ãĥ¼ ãĤ¸
Ġdiscuss ion
å¸ ®
W ind
æĺİ æľĿ
Ġë© Ķ
az ines
Ġphotograph s
Ġ186 5
å¯ ¸
Ġmechan ism
Ġc emetery
ĠDel hi
ëį Ķ
Ġorgan ised
Ġ186 4
e enth
ĠSc ient
Ġr um
ĠEv ans
Ġs essions
ãĥ© ãĥł
ĠBern ard
Ġhun ting
åĪ¶ å®ļ
ĠB ird
poss ible
ĠAd vent
ation ally
í ģ
R el
ĠMuslim s
ar io
ç¶ļ ãģĳ
ĠCult ure
Ġdesc ent
Ġpattern s
Ġpubl isher
Ġall iance
ç¦ı å»º
æĭ¡ å¤§
ĠEconom ic
ĠComm unications
åĸ¶ æ¥Ń
193 6
Ġf ab
ĠS ax
Ġê· ¼
ĠAth letic
éłĺ å°İ
Ġschol ar
Ġtrad ed
Ġreg ulations
ĠR ud
Ġreb ell
Ġ189 3
Ġpercent age
ĠMar s
ĠW restling
ê³ ¡
Ġre j
ç©º æ¸¯
Ġíķ ©
Ġr itual
å§ĭ å»º
Ġcommunic ations
ä¸ª äºº
l b
çº ½
Ġj unction
ĠH MS
è¥¿ æĸ¹
Ġb aby
Ġman age
at on
Ġpre st
Ġ188 9
ĠCent ury
Ġpict ures
å® ¾
Ġre duction
se ud
è¢ ģ
Ġsurv iv
Ġexhib ited
Ġb anned
æĸ ľ
ĠD ub
ĠD ak
Ġcon clusion
Ġplatform s
åı Ļ
ĠAfghan istan
ĠN atural
ãĢį ãĢĤ_
Ġë§Į ëĵ¤
ĠAn ti
Ġviol ent
Ġnec k
Ġvol umes
Ġcontin u
ãĤ¸ãĥ£ ãĥ¼
b rid
Ġh al
Ġhy pot
è¯ ¸
ul i
ĠSh ang
f am
ãĥĪ ãĥĥãĥĹ
ĠYork shire
ë¨ ¸
Ġon going
Ä «
é¢Ĩ å¯¼
ĠL ower
èī ĺ
ĠClin ton
ĠD J
ãģĻãĤĭãģĵãģ¨ ãĤĴ
ä¼ł ç»Ł
ĠG oth
ach t
ol ar
Ġëĭ¤ ìĭľ
ãĥĶ ãĤ¢
ãģªãģ© ãģ«
ob a
Ġres iding
åŃ¸ å®¶
ä¸Ńåįİ äººæ°ĳåħ±åĴĮåĽ½
Ġ9 5
L S
ĠUt ah
ãĤĴ æĭħå½ĵ
che st
Ġdis band
æĸ¯ ç§ĳ
åıª æĺ¯
çİĭ æľĿ
æĸĩ ç«ł
i our
ĠV enez
Ġacqu isition
ĠP ubl
Ġdev oted
Ġ188 5
æ©Ł æ¢°
ãģ® ãĤĤ
ch ing
ir i
Ġclos ing
ĠCommission er
as ant
Ġ186 2
S im
Ġcr imes
ä¸Ń æĸĩ
ĠG az
Ġfun eral
åĬ¹ æŀľ
fess ional
çį »
åĬĽ éĩı
Ġrat io
ibb ean
y d
Ġstrateg ic
åıĺ åĮĸ
ul u
over e
ìĬ¤ ìĿĺ
Ã¶ r
Ġco aching
ãģ® åŃĲ
åĤ³ çµ±
ĠTr inity
R S
Ġphot ography
ãģ® ãģĭ
å·¥ ä¸ļ
ĠAng l
Ġsur pr
Ġinflu ences
ĠAtt orney
ach ment
ĠìĤ ´
è®Ĭ åĮĸ
ĠB aptist
Ġo cean
åĨĽ äºĭ
å¥½ çļĦ
ç´¹ ä»ĭ
ç»ĵ æŀľ
Ġdisc rim
Ġí Ī¬
Ġrec alled
Ġsur ve
ä¸Ģ ä½į
ãģĿãĤĮ ãĤĴ
åħ¬ æ¼Ķ
è´ §
Ġpric es
åīµ ä½ľ
ul us
1 30
æİ² è¼ī
ãĥ© ãĤ¹
ok ed
åĨ Ĭ
H ar
åıĸ ä»£
ä¸Ģæĸ¹ ãģ§
Ġal ter
å® ı
æ¯ı å¹´
Ġearth qu
æ³ ¥
çĽ¸ éĹľ
Ġen rolled
å¿« éĢŁ
Ġconne ctions
Ġarr iving
åĪĿ ä»£
ãģĽ ãĤĭ
è¾¼ ãģ¾
Ġprot ests
Ġdoll ars
n ik
Ġë§İ ìĿĢ
Ġterm inal
ëĲĺ ê³ł
ĠFl oren
ãĤ» ãĥ³ãĥĪ
è§£ æ±º
Ġprop ag
Ġpeak ed
ryst al
ĠA qu
ĠS hip
ĠP y
Ī Ĵ
ãĥĳ ãĥª
urric ane
c ient
Ġup grad
ä½įæĸ¼è©² åľĭ
ãģ« ãģĹãģ¦
çĽ¸ åħ³
ĠOrgan ization
ĠAss istant
èŃ ²
ãĤ« ãĥĬ
Ġor chestra
Ġelect ron
çĶ¨ äºİ
ĠW ang
å°ĩ è»į
èĩªèº« ãģ®
åħ¬ å¸ĥ
ĠN HL
O per
éłħ çĽ®
V P
Ġexp ensive
ãģĹ ãĤĪãģĨ
æĲ ¬
ĠBrazil ian
ĠO bs
æĢ§ ãĤĴ
Ġb ay
ĠCon n
åĨħ éĥ¨
è¾ Ĩ
Ġprodu ctions
åľ Ĩ
Ġfilm ing
ot he
Ġe ighth
Ġw rest
ãĥĹ ãĥ¬ãĥ¼
ë¦¬ ë¥¼
ä¸Ĭ ãģ§
æ°ĳä¸» åħļ
ãģ¨ãģĹãģ¦ ãĤĤ
Ġ5 6
" ;
Ġ189 2
Ī Ħ
ro t
Ġlink s
oc c
ãģĭ ãĤĬ
p hew
R T
ãĤ³ ãĥŃ
ro oms
Ġcampaign s
U nder
ĠCharl ie
Ġpract ical
Ġcompon ent
è¼ Ķ
ä¹ Ķ
h ill
Ġspok en
Ġk ne
Ġ186 3
Ġspe nd
æķĻ å¸«
éŁ ¦
ail and
å¿ĥ çĲĨ
ä¹ĭ å¤ĸ
Ġchar ter
ãĥĸ ãĥ¬
è²´ æĹı
Ġh a
èª² ç¨ĭ
ĠMu hammad
èģ¯ çĽŁ
ä¹¦ è®°
ĠN eg
èĤ ¥
Ġinvol ves
ä¸Ńèı¯ äººæ°ĳåħ±åĴĮåľĭ
å¹¶ åľ¨
Ġíİ ¸
z ed
ãĥ³ ãģ¨
ĠWar ren
ãģĺ ãĤĭ
èĢ Ĳ
Ġbe ating
çµĦ æĪĲ
I m
Ġthe r
ens on
ĠLegisl ative
æĴ Ĵ
ĠC hel
ç´ ¯
ìĿ´ëĿ¼ ëĬĶ
ĠSy mphony
ĠëĮĢ íķ´
Ġ189 4
Ġd ual
å½± çīĩ
äºº åľ¨
è¡Į åĬ¨
ĠR ic
ĠAd vis
ĠUn it
Ġcontro ll
Ġlim its
Ġhousehold er
ãĤĴ éĸĭ
ĠN ord
å®Ł éļĽ
Ġ8 00
¸ Ķ
Ġê ´ĳ
eng er
st ad
Ġwithd rew
ĠV I
St ation
ĠC her
Ġb right
Ġres ort
å®ĥ ä»¬
cer tain
N T
ë² Ķ
ond s
Ġgro ss
çŁ ¢
Ġvot ers
Ġstreng then
ĠPh oen
å µ
ĠëĺĲ ëĬĶ
ä¸¦ åľ¨
ĠB aker
è²¬ ä»»
ãĤ¢ ãĥĥãĥĹ
we et
Rober t
ãĤ´ ãĥ¼ãĥ«
E T
P ar
ĠF itz
åįģ åħ«
å¼ ¦
ãĥ« ãģ¯
ne x
ĠT rad
if ies
ĠN ation
Ġr ide
ĠB urg
ãĤī ãģªãģĦ
æĪ¦ ãģ®
å½ Ń
ãĤĵãģ§ ãģĦãĤĭ
ij ing
ãģ© ãģĨ
as er
æµ ©
ĠChrist opher
ĠM es
ì¸ ł
ĠVictor ian
ĠPark er
ä¹ ı
ĠK il
ãĥĩ ãĥ¥
ĠMet ro
r us
Ġorig ins
ĠW arner
ĠìŀĪ ìĹĪ
er ior
ë¶ ģ
Â ¹
ãĤī ãģĻ
ãĤ ħ
èĬ¸ è¡ĵ
Ġchampionship s
Ġide al
Ġhon ors
ç¶ļ ãģį
c are
åĪ ·
Ð »
ä¸Ģ æŃ¥
Ġcon j
ĠBase ball
ĠMon te
æ¼ ģ
èĪ Ĺ
èĩ³ ä»Ĭ
Ġr ig
ĠJohn ny
ele ct
R ich
ç¹ °
overe ign
Ġ els
ĠíĨ ł
Ġpre ferred
on ies
ĠRac ing
Ġd anc
Ġtor ped
z es
èĳ£ äºĭ
é ´
Ġminor ity
å·ŀ å¸Ĥ
è¨Ń åĤĻ
ä¼Ĭ æĸ¯
Ġperson ality
çĶ¨ æĸ¼
ãĥŃ ãĥĥãĤ¯
ãĥŃ ãĥ³ãĥī
ãĤĴåĭĻ ãĤģ
R eg
Ġdefend ed
å®ī å®ļ
Ġem pt
Ġrele ases
åħ¨ ãģ¦
ĠStud io
ĠShort ly
app ing
ãĤ¢ ãĤ¦
Ġc argo
arri er
çĹħ éĻ¢
is p
ìĬ¤ ëĬĶ
å¸Ŀ åľĭ
ĠMit chell
Ġarrang ement
ĠF alls
èģĶ çĽŁ
Ġwas te
Ġav o
Ġj um
Ġdomin ant
ĠPers ian
Ġmach ines
éĩįè¦ģ çļĦ
Ġexerc ise
Ġm arch
m ers
onym ous
ol ia
æŃ ¡
Ġf ighter
ä¸ĭ ãģ®
ì¦ Į
ĠJ un
ãģĭ ãģ«
éĮ ¢
am ics
ect or
Ġproduc es
è¯ ī
çĬ¯ ç½ª
ult ure
N S
z ing
ä½įäºİè¯¥ åĽ½
g el
ĠB ranch
åı Ķ
ĠS ultan
Ġj ury
Ġconvent ional
9 00
Ġhe ir
hel m
Ġlong est
¤ Ħ
ç¾ħ é¦¬
Ġjud ges
ĠHar rison
Ġels ewhere
åºĥ å³¶
ĠR av
ãģĹãģŁ ãĤĤãģ®
ãĥ©ãĤ¤ ãĥĪ
ãĥĳ ãĥ¼
Ġcan al
Ġdivers e
å¦» åŃĲ
1 10
ãģ§ãģį ãģŁ
iss ions
æĪĳ åĢĳ
ĠP rom
ĠProtest ant
Ġpromot ing
Ġd ub
Ġpr on
Ġ8 5
Ġf old
ĠV ar
gor ith
ç· ¯
Ġv ul
Ġto ol
æĻĤä»£ ãģ«
rep rene
ĠNich olas
æ¬ ¢
Ġcon gress
Ġm oral
ĠC art
ĠO range
Ġvent ure
ĠT ang
M od
æĸ¼ æĺ¯
Ġw ick
Ġc od
u ber
Ġp ip
ĠRA F
Ġloc ally
art ing
Ġ188 8
ç·¨ éĽĨ
ĠHamp shire
Ġelectric ity
ĠíĺĦ ìŀ¬
ãĢĤ ãĢĬ
Ġmag azines
Ġc avalry
ç½Ĺ é©¬
Ġcount ies
ĠìľĦ ì¹ĺ
Ġsol ar
Ġt ropical
å¿ħ éłĪ
Ġswim ming
Ġexpos ure
Ġout break
ĠAl ice
íķĺ ë©´ìĦľ
æĪĳ ä»¬
Ġinform ed
Ġí ħ
Ġextens ively
Ġ189 1
du cted
äºİ æĺ¯
ra ham
å¤§ å¤ļ
Ġexclus ively
ĠL ad
å° ĸ
Ġseem ed
åıį å¯¹
åıį å°į
èĨ ľ
å¯ ¨
åľ ı
a ud
ãĤĵ ãģª
æĦı è¦ĭ
åĬł çĽŁ
Ġdifficult ies
å¸Ĥ ç«ĭ
æĽ´ æĸ°
Ġprepar ation
èªŀ è¨Ģ
ĠSe ven
æľī äºĽ
Ġman if
çĸ Ĩ
ose xual
E S
Crit ical
P art
ï¼ ı
ĠC atal
å¡ ©
Ġì º
è¢ Ń
P aul
ãĤĴ éĻ¤
Ġmechan ical
work s
ĠCarl os
íĥ Ī
Ġexec ution
ãĤŃ ãĤ·
ĠM other
al ia
ĠBen jamin
Ġunder st
ĠGri ff
Ġconvers ion
er ia
å¹ķ åºľ
ĠSte el
æ½ ĺ
E uro
ĠG rey
ĠGu y
ĠBar ry
è¯Ń è¨Ģ
ĠArch bishop
193 5
å¸Ĥ éķ·
éĻĲ åĪ¶
ãĥĲ ãĥ©
è¿Ľ å£«
åįł éłĺ
äºº ãģ«
éģ ħ
Ġarg ument
ort ion
Ġìĸ ¸
è¶ħ è¿ĩ
ĠB ox
ick ing
ĠMod el
elf are
Ġfle w
M ich
Ġinaug ural
ur u
ĠFrid ay
ĠAnd y
ãĤĨ ãĤĭ
æĹ ¬
éĢ£ è¼ī
Ġsold ier
Ġgradu ation
Ġgu ar
D F
Ġh ip
r ass
åĳ¨ å¹´
le ction
Ġbatter y
ĠR ico
Ġbroadcast ing
äºĭ å®Ł
ĠYear s
Ġfarm ing
èħ ¦
ìĤ ´
Ġcol ors
æĸ¯ åŁº
éĴ ±
Ġìĭ ¬
ëŁ °
ir ates
ĠCont rol
ĠP A
Ġcoal ition
it is
p ow
Ġal ive
ĠMic hel
æĤ ²
Ġb on
Î ¹
åŀ Ĥ
ãĤĴ æ±Ĥ
è¦³ åħī
ãģ¨ åĲĮæ§ĺ
å¯ ¬
ib ilities
èĲ Ħ
ì¶ ķ
e ast
ĠChrist ians
rehens ive
ãģ¯ãģĺ ãĤģ
ot ion
Ã ¦
ãĥĵ ãĥ¼
çŁ¥ éģĵ
Ġs occer
Ġin se
åħ± äº§
ĠR idge
Ġt ennis
ãĤĴä¸Ńå¿ĥ ãģ«
ä¸» è§Ĵ
èĳ¡ èĲĦ
èĭ± å°º
Ġdial ect
ĠD ra
ĠSl ov
Ġre ct
ĠRang ers
ä½ĵ ãģ¯
å°Ĩ åĨĽ
Ġn inet
Ġcollabor ated
ãĥĻ ãĥ¼ãĤ¹
Ġthink ing
ar ation
çŃ ĭ
ä½Ľ æķĻ
Ġs aved
ë Ĥ¬
un c
åŃ¸ ç¿Ĵ
æ² ¼
ĠStud ents
Ġp od
ãĥŁ ãĥ¼
Ġfest ivals
Ġcom fort
Ġmer ger
I M
Î ½
b es
ãĤ° ãĥ¬
row s
éĸĵ ãģ§
Ġattempt ing
éĺ² å¾¡
åŃ¦ ä¼ļ
Ġburn ed
Ġíķ ł
Ġesc aped
éĽĳ èªĮ
ãĥĥ ãĤ«
å¤§ éĻĨ
ĠTra il
an im
Ġexpla ins
ro v
ìĤ¬ ë¥¼
Ġë ĨĴ
Ġprovin ces
Ġinsp iration
ĠPh D
Ġvis its
ĠC all
ìħ ĺ
å¹´ åīį
m ont
Ġb ath
é¢ Ŀ
ĠSec ret
ç§ĺ å¯Ĩ
ĠF ell
Ġrel ation
ot es
ĠB ud
æĿĳ èĲ½
éļ ł
O W
Ġoverse as
b ow
ãģĮ å¤ļãģĦ
Ġrare ly
è¿ĩ ç¨ĭ
Ġent hus
ĠíĶĦ ëŀĳ
o ons
æĴ ŀ
Ġì¹ ĺ
ĠEn t
Ġrefer ences
ìĿ´ ìĹĪëĭ¤
Ġgen etic
Ġfif teen
ĠCar ibbean
æĦı èŃĺ
Ġr id
åĲ ĥ
Ġdec ide
ĠL ist
ĠH as
ĠCharl otte
Ġb ag
Ġacc ord
et ry
193 3
ĠR u
Ġsettle ments
Ġp ages
Ġphys ics
Ġr ated
æī¹ è©ķ
ire ct
è³ ¢
ĠCl ar
Ġele ctoral
ä¸ĸ ãģ®
Ġdeliver y
Ġinterview s
ãģ¨ è¿°ãģ¹
Ġs alt
æľĢ å¾Įãģ®
Ġtrib ute
Ġrock s
ĠElect ric
ĠT ol
Ġst em
Ġcooper ation
ĠM all
ĠWith in
æ¨ª æµľ
Ġres umed
è¿Ķ åĽŀ
ãĥĹ ãĥĪ
Ġr ub
Ġconcern ing
æĭ ³
ĠAng lo
Ġpoin ted
ĠSal v
f ish
O P
æĴ¤ éĢĢ
Ġm ac
âĢ¦ âĢ¦
ĠD om
iet h
Ã¨ re
Ġì° ½
ĠYou Tube
Ġass ists
Ġdem ands
ĠFurther more
rup ted
ç¹° ãĤĬ
çĻ¼ è¡¨
ĠV erm
au ge
æ©Ł ãģ®
Ġeff icient
ĠT ob
Ġb acter
Ġindust ries
ãĤī ãģı
ãģ« æĶ¹
Ġlay er
éģ¸ ãģ°
Ġaff air
å°Ĩ è»į
ue z
éľ Ĭ
ĠFran ces
ĠOb ama
ãģĻãĤĭ ãģªãģ©
Ġdis ch
our t
æĸ¯ çļĦ
éļ ¸
ìĿ¼ ìĹĲ
v ol
Ge orge
ĠS C
ĠS id
d ef
op y
ro ph
âĢĿ ãĢģâĢľ
éĩĳ å±ŀ
ãĥľ ãĥ¼
Ġin put
id al
ĠThere fore
h um
M on
Ġcr uc
Ġorgan is
ĠUl t
æĩ ·
Ġfl ights
åıĳ è¡¨
ĠMun ich
ç«¶ é¦¬
ĠCh ang
y gen
Ġcl ock
æļ «
R et
æĹħ è¡Į
ãĥ« ãĥ¼
æľº åľº
ĠVenez uel
ix on
Ġorigin ated
Ġclin ical
æĹħ å®¢
å® ½
åŃ¦ ä¹ł
æ¯ Ģ
ä½ĵ åĪ¶
èģ· æ¥Ń
å¹´ æĻĤ
ĠLe eds
éĩįè¦ģ ãģª
F I
ĠC ob
éļ ¶
Ġinher ited
åįĶ åĬĽ
ĠN am
ä¿ ³
Ġn ut
Ġf ill
ãĥ³ ãĤº
åŃ ¤
æĢ Ģ
Ġbirth day
S L
åªĴ ä½ĵ
Ġimplement ation
ĠAd miral
å®£ è¨Ģ
Ar ch
ì³ Ĳ
åĨĽ éĺŁ
ĠHun ter
Ġ188 7
åĽ½ éģĵ
Ġconv icted
Ġdis contin
ela ide
çĭ Ĥ
åħ± çĶ¢
Ġgall ery
er r
æ®ĸ æ°ĳ
ãĥ© ãĥ³ãĥĢ
Ġs ure
Ġslow ly
ĠH ig
ĠChristian ity
ĠRoman ia
ĠJ ason
è¢« å®³
ĠK um
ĠTh ailand
ĠP il
æ©Ł åł´
åĬł åĿ¡
ĠG ary
ĠAl ong
ĠL ov
Ġre aches
çļĦä¸Ģ éĥ¨åĪĨ
ĠHawai i
à ½
Ġdr ivers
Ġsubsid iary
ç® Ń
Ġdescrib ing
ĠP av
Bet ween
çµ ²
b us
Ġper mitted
Ġkid n
Ġsubmar ine
éĽ ķ
st ory
ĠFre edom
ãĤĴ æ®ĭ
íĻ ľ
æĸ° éĹ»
ĠT ib
íĸĪ ê³ł
Ġl es
P ri
ames e
ĠC P
ãĤ¢ ãĥ³ãĥī
en berg
ĠP le
Ġab oard
ãģ¤ ãģ¤
m aker
åħ§ å®¹
Ġgu ests
Ġsh ift
åĲ ¾
ä¸ Ī
) ãĢĤ
nd a
ëĤ ł
ĠA ction
ĠH av
åħ¬ æ°ĳ
ĠArk ansas
â ĨĴ
Ġfor g
ĠLat ino
Ġhor iz
ç« ŀ
N orth
ol en
f ers
ĠE ug
in os
Ġent ers
ĠKir k
ĠS et
æĬ «
m other
å¯¾ å¿ľ
å¦ ®
Ġì² «
p resent
Ġhel ps
ĠBanglades h
Ġfe ud
f low
Ġwalk ing
çµĮ é¨ĵ
Ġconnect ing
ĠBroad casting
enn ial
Ġ188 6
è°ĥ æŁ¥
j u
Ġt ies
æľº æŀĦ
æĬ ŀ
ĠBe g
Ġcur ren
èª ł
ĠM i
Ġoppon ents
et ies
on na
ãģ¾ãģ§ ãģ«
ĠMain e
ĠSp irit
s he
ap ped
Ġt ag
ĠìķĦ ëĭĪ
è¡¨ è¨ĺ
ĠC ode
Ġne phew
al g
Ġb low
em ic
Ġrep orter
æĦ ¿
ãģ® éķ·
ĠRoman ian
Ġleg s
ĠT ag
ry pt
ãģĦ ãģł
Ġsp ir
Ġsh ops
ãĤĴ æľī
ĠWay ne
Ġd iver
Ġsla ve
ä¹ Ī
ĠI ce
Ġconf ig
Ġë ĸ
Ġag es
æĺł åĥı
æ³ ³
åįĹ æĸ¹
A ust
Ġle af
oth y
Ġmanag ing
193 2
ãĥ¼ãĥ İ
ĠUn like
ĠMer c
ëĮĢ ë¡ľ
Ġdep icted
Ġreg ul
ĠBelg ian
ult ural
Ġin hib
è³ĩ éĩĳ
ett a
Ġtw in
Ġ íķĺìĺĢëĭ¤
ãģ¨ ãģ«
ãĤĴæŀľãģŁ ãģĹãģŁ
Ġê¸ Ī
Ġprote ins
Ġinterpret ation
ĠStand ard
ows ki
Ġhistor ians
% ãĢĤ
åįģ ä¸ī
ĠIs a
Ġf oss
é£Ł åĵģ
åħĪ çĶŁ
Ġlocomot ives
èģ ½
ĠArab ic
et ing
Ġcomm enced
Ġdown load
åĲ ¬
ãģĪ ãĤīãĤĮãģŁ
Ġcontin uous
Ã ª
Ġ5 7
ĠGu ine
æĨ ¶
ãĥ« ãĥł
ĠHit ler
Ġpul led
ĠBris bane
èµ· æºĲ
Ġlegisl ative
ç¥ Ģ
ĠM eg
Ġ6 6
æ· »
ë Ŀ
Ġev olved
est on
ĠHud son
ç¨ ²
Ġcop per
ç£ ¨
Ġ188 1
Ġrest ricted
ĠJ ama
çī© è³ª
kee per
å¨ģ å»ī
Ġus age
S M
el i
æ¹ĸ åįĹ
çĽ ¾
Ġre organ
ç»Ħ æĪĲ
ows hip
Ġt ub
x i
èª¿ æŁ¥
H en
åĲĪ æĪĲ
åĲİ çļĦ
Ġra ising
Ġpar am
æĿ¡ ç´Ħ
Ġs iege
éĤĦ æľī
r ors
Ġwas n
Ġt ill
å¤© ä¸»æķĻ
å¦ Ļ
å» ¢
Ġout standing
å·Ŀ ãģ®
Ġg olf
inent al
åħ¨ éĿ¢
é¡ ¾
ãģĦ ãģªãģĭãģ£ãģŁ
ãĥĬ ãĤ¤
od ore
at ar
Ġe igh
ìĹ ´
ĠUS S
ĠAp pe
ĠE sc
Ġgu ide
ĠSt ars
Ġdu o
Ġb achelor
Ġconvin ced
çĸ Ĺ
i ology
ĠG rad
19 27
æľĢå¤§ çļĦ
è¨ĺ èĢħ
n oon
ĠCub a
Ġportra it
å·ŀ ãģ®
ĠSy ria
ĠA round
ĠW oman
ë¡ Ģ
ä¸ģ çĽ®
åĥ ļ
ĠLl oyd
Ġcanc elled
èĭ Ĺ
è²¢ çĮ®
Ġì² ł
æĵ ĩ
ĠJ azz
ĠTurn er
åįķ ä½į
ĠRe port
Ġans wer
Ġcon fess
åº Ł
p re
ash a
èĭ± æł¼
Ġneut ral
Ġl ibr
Ġpro ve
Ġaccess ible
é ·
Ġjurisd iction
19 28
w as
æİ ī
Ġwrit ings
Ġdecor ated
åħĥ ç´ł
ok ing
n ia
ç¦ı å²¡
åĬĽ çļĦ
ãģ« çµĤ
è½ ¯
ä¸Ńèı¯ æ°ĳåľĭ
æĬµ æĬĹ
ãĤ¤ ãĥ³ãĥĪ
u art
P e
ĠNov a
è¿ĺ æľī
æĽ¸ ãģį
Ġt elling
ĠTro phy
éĪ ´
ĠW es
app y
ag ar
Ġdis app
è¿½ åĬł
193 1
Ġdo ct
Ġfeel ing
193 4
Ġal gorith
Ġremov al
Ġwid er
Ġrecover y
Ġmark s
ãĤª ãĥĸ
åĮĸ ãģĹãģŁ
aj a
or ne
ĠSe ction
ĠEvent ually
ra wn
ĠP ant
g ame
æĭ ©
Ġsympt oms
çŁ¥ ãĤīãĤĮãĤĭ
E P
Ġim possible
è³ĩ æł¼
ì¡ ´
z z
æĸ° åĬłåĿ¡
è® ¯
Ġp ounds
' ll
R ele
Ġob st
é¶ ´
ĠG ate
Ġr is
ĠN ad
ĠHar bor
å´ Ķ
ĠSe e
ĠBe ijing
ĠUnivers al
uk a
èĽ ĩ
Ġp ushed
è¥¿ äºŀ
åįĬ å³¶
å»º çī©
çĲĨ è§£
Ġisol ated
ĠBl ock
Ġtradition ally
Ġ188 4
Ġb orders
ĠPier re
arri ors
ë¯¼ êµŃ
æĽ¾ ä»»
Ġp y
åĨħ ãģ§
Ġconstitution al
Ġf ulf
ĠCo al
Ġatmosp here
ha us
it ime
å· §
Ġdraf ted
éŁĵ åĽ½
Th omas
ah a
Ġcateg ories
é£ ¯
ç´ Ľ
ä»¥éĻį ãģ¯
Ġth in
ì¶ Ķ
Ġra nd
Å Ł
Ġnob le
ann on
ãĥĿ ãĥ¼ãĥĪ
ĠA er
Ġmurd ered
Ġsit ting
Ġpow ered
ĠC ad
ĠComm ons
ty m
å¾ ĳ
Ġë ¸Į
Ġenem ies
éļ¨ å¾Į
ãĥ¯ ãĥ¼ãĤ¯
Ġun like
Ġsh r
ë ģ
Ġfin ance
Ġ5 8
Ġleg acy
ĠF act
æĮĩ ãģĻ
è¯ ¾
ĠS r
re z
æĺ¯ åĲ¦
Ġhapp y
ĠìĹ¬ ëŁ¬
Ġb ases
Ġst ead
Ġg athered
ãĤ¹ ãĥĶ
Ġus ual
Ġ7 2
æĺİ ãĤīãģĭ
ab i
çĽ¸ äºĴ
ä¸» é¡Į
ç¿Į å¹´
ĠS ig
Ġsub sc
çĽ ĺ
V E
å»º è®¾
m un
å¢Ĺ åĬł
iv ic
Ġtax es
ãĥĨ ãĥ¼ãĥŀ
ä»¥å¤ĸ ãģ®
Ġë² Ħ
19 29
Ġv oy
ä½ Ķ
Un ited
Ġhe ct
ĠC elt
Ġend ors
ĠI van
åĸ® ä½į
Ġdrum mer
è¿ĳ å¹´
ĠZ one
ä¸Ĭ ãģ«
ä¸Ń åŃ¸
Ġchalleng es
ĠHeb rew
h p
Ġpers pective
íĥ Ħ
ãĤģ ãĤīãĤĮãģŁ
Ġ EC
ĠAm az
éª ĳ
ĠNap ole
Ġreport ing
A ct
Ġqual ify
ĠSerb ian
Ġresign ation
è° ĭ
çļĦ ç¬¬ä¸Ģ
ot al
ĠB ron
Ġcou p
ĠV el
st rong
ç¸ Ħ
ä¾ĭ ãģĪãģ°
Ġm os
äº¤ æıĽ
vel t
Ġsle ep
Ġg ear
ãĤĤ ãģĤãĤĬ
Ġì£ ½
Ġabs ol
Ġ5 9
ãĤ® ãĥ¼
Ġin ches
ĠLe v
N HK
ass y
Ġclass ification
æĽ¾ åľ¨
over y
Ġcolumn s
éĽ» åĬĽ
ĠSocial ist
âĢĿ .
çĻº è¡Į
Ġcons olid
è° Ī
æ¯ ģ
ĠCult ural
fort un
æľ¬ ãģ®
Ġco at
ĠAd elaide
ê² ¨
Ġrang ing
ĠS ign
H A
ãĥ³ãĥ Ĭ
ê¸ Ģ
åĽ° éĽ£
ĠM ak
âĢĿ ãĢĤ_
å® °
Ġplayoff s
est y
ĠìĤ ¼
ĠJ enn
ect ive
ãģ ľ
ç´ ĭ
è© ¹
Ġnar rative
ĠT ak
èŃ ľ
Ġp or
ê· ¹
Ġ *
ĠR ing
Ġbi ological
Ġ1 30
Ġg rey
ĠN eb
ĠB ey
ä»£ çĲĨ
om ic
f ree
Ġre ducing
æį Ł
ĠëĶ Ķ
Ġman s
Ġcont ested
ĠSystem s
ãĤĴ ç¶Ļ
Ġf ighters
ãģĻ ãģĲ
éĸĭ æ¥Ń
Ġpe oples
Ġsy mp
Ġwa iting
æĸ¹ æ¡Ī
Ġan tic
ãĤ¿ ãĥ³
Ġlat est
æľī éĹľ
Ġj u
å® ª
åı¸ æ³ķ
Ġaware ness
æīį èĥ½
Dem ographics
ãĤ® ãĥª
b r
ãģĹãģŁ ãĤĬ
åĽł èĢĮ
éº ¼
V A
ĠC atherine
e per
Leg acy
B lack
ĠConfeder ate
Ġâ Ĥ¬
Ġrom antic
ãģĮ è¡ĮãĤıãĤĮãģŁ
åŃ¦ ç§ĳ
Ġinst ruction
ãĥ¼ãĥ« ãĤº
Ġexper iments
çŁ¥ åĲį
ëĬĶ ëĭ¤
åĦª ç§Ģ
æľī åħ³
Ġexcell ent
ãĤĵãģ§ ãģĦãģŁ
ch ild
å·´ é»İ
forman ce
ĠS aints
Ġtemper atures
ä¸ĭè¾ĸ ä»¥ä¸ĭ
ä¸ĭè½Ħ ä»¥ä¸ĭ
éĢĶ ä¸Ń
ty pe
ëĿ ½
ke ley
ãĤ¿ãĤ¤ ãĥł
çļĦ çłĶç©¶
19 18
Ġfoc uses
os ed
ãģ§ãģĤãĤĭ ãģ¨
Ġbound aries
ew ay
Ġfriend ship
Ġdifficult y
G u
æīĢ ãģ®
inc inn
s or
Ġtalk s
ĠRe f
Ġarr ives
Ġ188 2
th at
ĠBarb ara
æ¨¡ åŀĭ
ç´Ģ å¿µ
Ġexpla in
ç³» ãģ®
éĸĭåĤ¬ ãģķãĤĮãģŁ
ĠA ber
åĶ± çīĩ
èµ ŀ
ãĥķãĤ¡ ãĤ¤
è£ħ åĤĻ
Ġcolla pse
ä»Ĭ æĹ¥
å¯ Ĵ
ĠNor folk
m ile
Ġimpro vements
çİ° ä»£
ĠFin ally
Ġexhib itions
Ġintern et
ãģ® å½±éŁ¿
ĠY e
è³¼ åħ¥
ĠK o
æĹ º
Ġ rib
Ġcon ven
æģ¯ åŃĲ
v ia
ç© ´
ĠO m
ä¸Ńåįİ æ°ĳåĽ½
Ġto t
åīµ è¨Ń
Ġcasual ties
ãģ® æīĭ
Ġrand om
Ġw restling
Ġask ing
U C
ãģ® å®Ł
Ġtarg ets
Ġcinem a
ä¿Ŀ å®Ī
æ£® æŀĹ
ç· ©
ãĤº ãĥł
ĠR hod
Ġvert ical
ir ms
çĶ¨ çļĦ
ĠT un
is hers
ir k
p y
Ï Ĥ
å¹´ å¾Į
medi ate
Ġcirc le
ãĥĳ ãĥ³
ab a
M il
ĠCamp aign
ish ops
æ¥½ æĽ²
ä¿Ħ ç½Ĺæĸ¯
Ġemot ional
çĭ¬ èĩª
ĠMac ed
Å ¾
ĠBl ood
Ġrecogn ised
b ai
em ploy
ĠS P
ĠF isher
ĠL is
akes pe
Ġsm ooth
çı¾ è±¡
æıĲ æ¡Ī
æĴ °
éĥ½ æľī
é¡ Ķ
ãĤĴ å¼ķãģį
Ġbe auty
ĠìĻ Ħ
å®ļ æľŁ
ī ´
w w
åĩ Į
æĮĩ æĳĺ
ect ed
åĨħ éĸ£
å¤§åŃ¦ ãģ®
Ġev il
ink ing
ä¿Ŀ çķĻ
ĠSpr ings
æģ µ
osp itals
o ft
im ir
Ġsup plied
ĠH amb
Ġwid ow
Ġswit ched
ific ial
á º
Ġacc eler
çªģ çĦ¶
Ġre vers
é ¯
ãĤµãĥ¼ãĥĵ ãĤ¹
Ġê°Ģ ì§Ģ
ĠM ind
Ġg iant
Ġthe rapy
ĠB ath
æľĿ é²ľ
hol m
çģ Ń
Ġcons cious
ĠP ra
ãģĦ ãģĮ
Ġkilomet ers
p in
é³ ³
ãĤĴ æĮĻãģĴ
Ġtempor arily
ĠL iving
ĠColl ins
sc ar
ĠK os
Ġme at
ĠBeng al
Ġrank ing
Ï Ħ
æĬ ½
incinn ati
æħ §
L P
C omp
å¶ º
or ia
ĠAbd ul
Ġbank rupt
ĠDig ital
Ġro ut
Ġs ugar
í Ħ
ĠLe ad
çºª å¿µ
ĠD iam
éī ±
å¯ Ľ
Ġan nex
ç¨ĭ å¼ı
è´ ¡
æĪĸ æĺ¯
ĠShe l
ë° Ľ
Ġparticip ating
ĠIndust rial
éĶ ¦
Ã³ w
èĭı èģĶ
è¨ĺ è¿°
Ġkey board
çĲ ³
æķ° æį®
ãĤĴ æıı
ëł ¸
Ġexclus ive
Ġa w
åĪĨ ãģ®
Ġ9 9
ĠPhoen ix
it ro
ĠW or
æī¿ èªį
Ġcolla ps
Ġsus pect
ĠM alt
vious ly
èĺĩ èģ¯
Ã¶ n
Ġì ĵ°
çĦ ¦
æŃ£ åľ¨
Ġterm inus
çļĩ åĲİ
éŁ© åĽ½
æī¹ åĩĨ
ĠOl iver
Ġt orn
Ġvolunte ers
ĠEx per
åĿ ļ
up t
E conom
ãĤ¢ãĥķ ãĥªãĤ«
Ġcap s
Ġrem ote
w inning
ãĢĤ ï¼Ī
Ġlegisl ature
èĵ Ŀ
æĭī åħĭ
èĻķ çĲĨ
å¢ ³
æ©Ł åĻ¨
åĽ½ ä¼ļ
ãģķãĤĮãĤĭ ãģĵãģ¨
åĪ© çĽĬ
Ġs oph
ĠJ osh
Ġc yl
ĠMas ters
è²łè²¬ ç®¡è½Ħ
ir ts
å¤ ·
u is
æĸĻ çĲĨ
ĠBuddh ist
ten se
çĩĥ æĸĻ
ific ate
å¹´ æĹ¶
éĳ ĳ
å¤Ħ çĲĨ
Ġmin istry
Ġtop ics
Ġexhib it
Ġfram ework
Ġdise ases
ãĥ³ãĥ Ļ
ãĤ¢ ãģ®
ĠBl ues
ĠChap el
ĠSm all
A ss
Ġ18 40
Ġed itions
Ġcolle ges
ä¸»äºº åħ¬
ang ular
èĥ ¸
Ġmanufact ured
åħ§ çļĦ
Ġlow est
Ġ1 10
ĠR ot
Ġcarri er
ìĿ´ ê³ł
um s
ãģ¯ ãģªãģĦ
æĮĩ æĮ¥
å¿ į
åºĥ ãģı
ĠH ope
ol ve
Ġdelay ed
çĭ Ń
Wh at
Ġsk et
ä¿Ħ ç¾ħæĸ¯
Ġw orn
åŃĲ çļĦ
åĮĸ çļĦ
Ġl ists
b ird
ĠUr ban
å¿ħ é¡»
ĠS oul
Ġf at
ĠPol icy
In ter
i ya
çĽ ĥ
um m
Ġbor ough
ĠP ack
ist ing
æľī äºº
b in
èĩªåĪĨ ãģ®
ĠY ale
å¡ Ĭ
Ġdram atic
ĠS che
ì ½
Ġfund amental
id o
ìŀ¥ ìĿĦ
ĠG ard
Ġs ke
ig o
ãģ¾ ãģĻ
ĠH om
ĠK ap
ë³ Ģ
Ġ187 1
c hers
The se
ĠNiger ia
Ġemphas is
ë¡ľ ìĦľ
a us
ĠI an
ĠSerb ia
Ġg ardens
f ront
è¾ °
Ġcl oud
ĠCom ple
Ġcom ments
R P
ìĥģ ìĿĦ
äºĮ ä¸ĸ
è® ¢
Ï ģ
Ġê²½ ê¸°
ĠConst ruction
ç½ ķ
å¤§ å¹ħ
ãĤ¤ ãĤº
ip per
ãģ¨ãģª ãģ£ãģ¦
or o
ãĥ¡ ãĥĩãĤ£ãĤ¢
cel and
Char les
Ġwill ing
Ġclos ure
åł± éģĵ
19 19
Ġfavor ite
Ġê ¶Į
w ig
Ġintern ationally
Ġsimultane ously
akespe are
Ġbrig ade
ĠDemocr at
åĮĹ æĸ¹
m its
æĶ¹ ä¸º
åªĴ é«Ķ
æĪ° é¬¥
ãĥĽ ãĥ¼ãĥ«
ĠDemocr ats
æĶ» åĩ»
Ġlog o
Ġh idden
ç©į æ¥µ
ĠT ogether
Ġarr ive
ĠPl ant
ç©º è»į
Ġcross es
çµ± åĲĪ
çļĦ é«ĺ
è¿Ļ æĺ¯
Ġhypot hes
Ġobject ive
Ġcor ruption
ĠVeg as
Ġc iting
ĠA rena
ĠC ase
Ġgra ve
E M
om on
it ic
Ġì¹ ľ
ìķ Ļ
B L
å¼ ¥
ìĿ´ ëĬĶ
ãĤ· ãĥ³
ock et
ring ton
N N
ĠClass ic
Ġopt ions
ĠM ason
å¾ ¹
Ġsp ell
ç½ĳ ç»ľ
çĸ «
Ġshop ping
ĠS yn
ĠChall enge
à ¥
Ġt ight
åħ¬ åĽŃ
éĢĻ æĺ¯
Over view
an ne
ĠMag n
Ġg ift
Ġm igr
äººæ°ĳ è§£æĶ¾
æĢ§ ãģ®
ĠCur rent
çī¹ èī²
ĠL ate
Ġper mit
Ġenfor cement
s ur
ĠY ang
ik o
Ġaccomp any
Ġ188 3
ling ton
Ġinter cept
Ġcoin c
Ġrecru ited
Ġfl ank
Ġpass ion
åĲį èªī
Ġexpl an
ier ra
åįģ å¹´
éļı çĿĢ
ä¸į åĨį
N P
ĠRec ord
ull ivan
è¿ĳ ãģĦ
B rit
et ition
Ġde emed
æĶ¹ çĤº
Ġben ch
un ct
æľĭ åıĭ
ict ions
cel ona
Ġch oir
æłĩ åĩĨ
åıĬ åħ¶
Ġcolle agues
ster dam
æĶ» æĵĬ
ie v
ose velt
B est
ë° ±
ĠB es
ãĤĴ åıİ
ì± ħ
C ent
ä½į ãģ®
Ġdist inction
éĿ¢ çļĦ
Ġmarg in
Ġth or
ĠL ag
F ilm
ent le
ĠNew castle
Ġsound s
Ġo dd
press ed
ë° ķ
Ġra b
ãģĿãģ® ä»ĸ
O L
ĠV as
èĢħ ãģ«
Ġident ical
ĠC old
éĩį å»º
éĺ ®
ä¸ĩ äºº
æĥ ¡
ç¨ĭ åºı
æĿ¥ çļĦ
Th rough
Ġpre v
Ġbre eding
ãģªãĤī ãģªãģĦ
Ġbus es
å¾ ª
t wo
st ery
Ġinter change
éĮ ¯
Ġtest ed
Ġdis aster
ĠL en
ĠG ray
åŃ¦ å®¶
è´Łè´£ ç®¡è¾ĸ
çŃ Ĵ
æ¢ ¯
p iece
Ġres id
ĠGl en
Ġappro aches
éŃ Ĥ
Ġ187 6
Ġcoin s
æľĢ å¤ļ
Ġrece ives
Ġr iding
çİ¯ å¢ĥ
Ġcomp ilation
ĠDer by
ut ors
ĠB our
Ġrun ner
ĠPeters burg
ĠìĹ° êµ¬
Ġrespect ive
ĠPen insula
Ġprof ile
Ġimprison ed
ĠAl aska
Ġthe ories
å°ı æĻĤ
å¦Ĥ æŃ¤
Ġfle e
éļ¨ èĳĹ
iz er
ãģı ãĤĭ
ä¹Ł è¢«
éļı åĲİ
çĵ ľ
è¨ º
ä¸ĭè½Ħä»¥ä¸ĭ åľ°åįĢ
al ph
Ġattack ing
Ġf ictional
Ġsp in
çł´ å£Ĭ
ä¸ĭè¾ĸä»¥ä¸ĭ åľ°åĮº
ä¹ °
Ġmain stream
s a
ì§Ģ ë¥¼
å°ı æĹ¶
ãģ«éĸ¢ ãģĹãģ¦
ĠBr ight
ç¬¬ åħŃ
ĠR oll
Ġm ask
ĠCirc uit
ĠG un
Ġs ick
Ġto x
çµĲ åĲĪ
Ġg ran
æ² Ł
éķ· æľŁ
åıĸ ç·ł
Ġj ail
atter ed
ãģ ¬
ãĤ¸ãĤ§ ãĤ¯ãĥĪ
ĠBuff alo
Ġcom ed
r ary
ĠP rad
Ġcor ps
Ġattend ance
Ġdrink ing
æĻ® åıĬ
å± Ī
å»¶ éķ·
Ġfor ty
Ġre la
Ġoper ator
ãĥĻ ãĤ¹ãĥĪ
elt a
ĠíĻ ©
ĠBook s
éķ· å®ĺ
Ġthan ks
ic ing
Ġsim pl
åģ´ ãģ«
am pton
M al
ãĥī ãĥª
Ġconsum ption
ĠAt hens
ĠVen ice
ĠN ep
Ġab ilities
ä¸Ģ æĻĤ
æĿ± åįĹ
Ġ6 2
ĠFinn ish
ri en
Ġn inth
è¢ ĸ
ĠZ e
ç½ °
ĠK now
ãĥ³ãĥĪ ãĥ³
Ġmin i
ann i
am er
ab et
Ġaff ord
ĠT u
Ġí ļ
Ġf asc
we ek
ber ry
ĠArmen ian
Ġë Ł
å±± æĿĳ
æĻ ´
ĠPar ish
éĸĭ å¹ķ
Ġbl ind
ĠP ay
ä»£ çĽ®
Ġlook s
ĠSt orm
ĠN et
Ġbusiness man
g rim
Ġarg ues
Ġëª¨ ëĳĲ
Ġobl ig
t rans
å¤« äºº
D I
19 14
Ġpla in
Ġsp r
éķ ľ
ãĥŁ ãĥĭ
Ġser ial
è¡Į ä¸º
èª¬ æĺİ
ĠGr ade
éģ¸ æĵĩ
ak ia
ig inal
è¡Ŀ çªģ
Ġcontract s
Ġf iring
Ġreform s
è¿½ ãģĦ
Ġcitiz en
M art
ĠH ann
Ġinstall ation
Ġamount s
P at
Ġpat ent
äºĭ æĥħ
Ġrad ar
åľ° çĤ¹
am ation
ãĤ¤ ãĥ³ãĥĩãĤ£
Ġanim ated
Ġfam iliar
en cer
çĻ»åł´ ãģĻãĤĭ
ãĥ¼ãĥĬ ãĥ¼
æ¶Ī æģ¯
ĠA zer
ãģ« å¤īæĽ´
æİ¨ éĢ²
Ġt um
ä¸į å¾Ĺ
å£ ĩ
Ġfor th
Ġchalleng ed
Ġpost s
ãĤı ãĤīãģļ
Ġthere by
Ġrestaur ants
Ġl ingu
éĢī æĭ©
ens is
è³ĩ æºĲ
Ġch rom
ĠJ a
ĠB rew
Ġdevelop ments
Ġtechn ologies
et ary
ä¿¡ åı·
Ġrese ar
Ġpark ing
Ġeconom ics
ĠMicro soft
ĠRog ers
Ġelement ary
ãģŁãģ¡ ãģ¯
Å Ħ
Ġa qu
ĠP in
ĠR aw
Ġ ï¼Ī
çµĲ æĪĲ
Ġì± Ħ
Ġspecial ized
ĠB und
Ġprep are
raf ts
Ġess entially
èĭ± éĽĦ
ĠFac ulty
åºĹ èĪĹ
on ial
Ġíģ °
Ġdiplom atic
è²¡ æĶ¿
Ġphys ician
çķª åı·
åıª èĥ½
S F
ĠAd v
Ġaffili ated
ĠH ad
ãĥĥãĥĪ ãģ®
æľī æķĪ
Ġel igible
let es
Ġhy per
ìĦ± ìĿĦ
Ġcur ric
Ġfif ty
ì° ½
Ġprevent ed
ĠPhilipp ine
æľª èĥ½
Ġmeas ured
è¦ģ ç´ł
ĠC lay
çļĩ å®¶
ar an
ang le
ãģ¨ ãģķãĤĮãģ¦ãģĦãĤĭ
ack ed
Ġdrum s
19 25
åĨħ çļĦ
Ġsc ores
ĠIran ian
Ġphot o
é¡¹ çĽ®
n an
Ġactiv ist
y stem
å¹³æĸ¹ åįĥç±³
R ed
ç¶ļ ãģı
ces ter
Ġrele vant
çħ Ļ
k ov
åĪ¥ ãģ®
ãĤ¢ ãĤ«
est abl
æĿ± è¥¿
è§£ èª¬
g ments
å¸Ĥ åľº
J an
Ġh ills
Ġto urs
ãĤĴ åįĴæ¥Ń
ë³´ ëĭ¤
ãģ¡ ãĤĥ
Ġpla cing
Ġper ceived
ĠTh ose
Ġun ex
ĠVinc ent
ĠByz antine
Ġlabor atory
åĪ ļ
ä¸Ģ äºº
Ġpl astic
æĮĩ ç¤º
Ġw ish
Ġë £
Ġtick et
ãģĤ ãģ£ãģ¦
ãĤ½ éĢ£
le e
ĠL ock
ãĤĴ æīĭ
ĠMc L
ir ty
ĠJer ry
ĠH ob
æĲ ľ
æĪĺ æĸĹ
æĹ© å¹´
Ġre plic
ĠF if
Ġtrans mit
ç» į
ãĥĩ ãĤª
éĥ¨ çļĦ
w ald
ãģĴ ãģŁ
åĪĨ éĩİ
ãĤµ ãĥ«
çĶŁãģ¾ ãĤĮãĤĭ
Ġ187 8
Ġ7 6
ãģĦ ãĤĴ
Ġde pression
ĠSa udi
ĠD raft
ãĢħ ãģ®
Ġcut ting
Ġhe nce
ĠDr ive
ãģĻãĤĭãģĵãģ¨ ãģ§
Ġbomb ing
Ġact ively
Ġëıħ ìĿ¼
ĠPolit ical
Ġdemand ed
Ġíı¬ íķ¨
Ġ187 2
ãģĮ éĢ²
Ġfail ing
Ġput ting
ãĤ¯ ãĥ©ãĤ¤
th rough
Ġd atab
ãĤ¬ ãĥ«
Ġphr ase
ĠAl t
ĠíĮ ¨
Ġph arm
Ġprom ised
å¹´ ãĤĪãĤĬ
æ¸ ī
éĽ» è»Ĭ
ĠJeff erson
æ°´ å¹³
ãģ« å±ŀ
end ar
åĦ Ł
Ġg ram
Ġd rove
19 24
ĠB uch
augh ter
è¨Ń æľī
Ġì¶ ©
Ġlaws uit
ĠTerrit ory
ond a
Ġans w
iv ia
ä¿® éģĵ
è®¾ æľī
b ul
Ġt ens
ĠG round
Ġfeel ings
ĠFloren ce
ĠT on
Ġ NE
æ°ĳ éĸĵ
Ġra c
ĠU g
Ġaccommod ate
ĠV lad
Ġì ·¨
as hes
Ġê· ľ
ĠB ald
rack s
ĠG or
Ġ9 8
ĠC incinnati
ĠH unt
Ġrefuge es
Ġun certain
ä¸ĩ åĨĨ
M r
H igh
ĠL an
en os
Ġfab ric
Ġ8 8
ä¸ Ŀ
ĠF ull
æĻĤ ãģ«ãģ¯
Ġval uable
en burg
çĶ¨ éĢĶ
èª¿ æķ´
ĠL ear
æĹ¥æľ¬ ãģ§ãģ¯
ĠSh akespeare
Ġindic ating
ãģĦãģ¦ ãģĦãģŁ
åĪĨ éĽ¢
Ġcharacter istic
ac o
æģ ¶
.. ..
éĺ¿ å°Ķ
è©ķ è«ĸ
Ġn am
Ġc ounsel
Ġceleb ration
ãĤĴ ãģ¨
íļĮ ìĿĺ
Ġtravel ing
ãĤ¹ ãĤ±
Des ign
Ġdocument ed
P ort
ãģĪ ãģ¦ãģĦãĤĭ
Ġreal ized
Ġìłķ ë¶Ģ
ĠV ideo
åĪ¤ å®ļ
ä¸Ĭ æĺł
Ġm aps
Ġacc um
Ġsamp le
Ġaffili ate
af e
Ġconsist ent
æĦı æĢĿ
ãĤ® ãĥ£
Ġ6 3
Ġass um
æ®º å®³
ä»ĺ ãģį
ãĤĴæĮģ ãģ¡
ĠSpe ed
re ction
i ate
Ġinh ab
Ġexact ly
ĠF em
åŁºçĿ£ æķĻ
çŁ³ æ²¹
uss ia
ic he
ĠHol land
S ever
åĬ¨ çī©
ĠSer ge
A g
Ġover t
ìľĦ ë¥¼
çĻºè¡¨ ãģķãĤĮãģŁ
ap ing
ĠS now
Ġpolit icians
Ġm ail
Ġmanufact urer
Ġdescend ants
æ¢ ¨
âĢ ¢
ĠRo osevelt
é¡¯ ç¤º
Ġd iet
in ery
ĠD og
Ġfra ud
ä¼Ŀ çµ±
ç¶ ł
ĠPer ry
Ġ186 7
ãģĵãģ¨ãģĮ ãģĤãĤĭ
Ġsurre nder
ĠPol y
ĠSe ason
ĠI mm
vent h
æĿ Ń
ĠM ul
ãĤµ ãĥĥãĤ«ãĥ¼
ãĥŁ ãĥ¥
ãģĿãģĵ ãģ§
çĻº éĽ»
Ġbeat en
ç¦» å¼Ģ
B N
ãĤª ãĤ¹
b ing
Ġwor st
all ing
ãĥ¡ ãĤ¤
æ³ķ æ¡Ī
ĠM end
Ġdisc overs
ater n
éŁĵ åľĭ
c ott
Ġb ull
ĠC inem
ĠTer ry
ĠProte ction
Ġdog s
å¡ «
Trans port
pl ed
ess ed
ãĤ´ ãĥ«
ĠAm sterdam
ĠP ont
ub s
Ġmag ic
ĠGuard ian
éĢĿ ä¸ĸ
ĠCh ron
æħ £
ĠJon athan
Ġtravel s
a wn
ĠBar celona
å¡ ĳ
Ġprin ting
em y
Ġb oss
å¤§ è¦ıæ¨¡
tym ology
19 12
end ing
çķ¥ æŃ´
Ġfl our
ĠL uke
Ġrel ie
as p
æĸ¹ ãģ®
Ġel abor
ĠG ay
Ġto mb
Ġcolon ies
ĠE c
æ©Ł è»Ĭ
Ġcl ot
ĠH ugh
Wind ows
ĠS alt
Ġex plicit
Ġge omet
Ġdiss olved
Ġbehav iour
èĥ½å¤ ł
Ġreleg ated
T y
åįĶ æľĥ
Ġ186 8
or ious
é³ ´
Ġp ap
is an
Ġd ict
âĢĿ ,
Ġf aster
Ġë° ±
ĠSur vey
Ġem pire
ĠC ond
å±± è¥¿
ãĤ¸ãĥ§ ãĥ¼ãĤ¸
Ġor n
az ar
æıĲ é«ĺ
Ġcrop s
Ġst ake
Ġunderw ent
ĠMunic ipal
ĩ ´
ĠCh a
Ġ186 6
Ġs overeign
D R
Ġref lected
èĥ½å¤ Ł
ãĤĪãģĨ ãģ«ãģªãĤĭ
çĲĨ è®º
Ġb ell
å± ı
Ġproced ure
æĦŁ æŁĵ
i ast
å¾© æ´»
Ġìķ ¼
Ġearthqu ake
è¡Ľ æĺŁ
ĠC ricket
æ³ķ èªŀ
ĠBer keley
éĻ ¥
Ġindic ates
osp el
è¨Ń ãģĳ
ĠB ot
ãģ« ãģĭãģĳãģ¦
E m
at us
å·¥ äºĭ
Ġor chest
éĽ¢ éĸĭ
Ġdistinct ive
ĠF u
çĮ Ľ
å±± åı£
v et
ç» ¿
ãģĦ ãĤı
ĠJ e
Ġf ib
ä¸ĥ å¹´
Ġsh aring
åł Ģ
éĩ ĭ
ãĤ« ãĥ©
åįı ä¼ļ
ro d
ĠChe ster
ãģĵãĤĮ ãģĮ
Ġ187 5
Ġre ward
± ¸
y st
Ġafter noon
å®ļ çļĦ
ãĤª ãĥķ
èĦ Ĥ
at ra
å¯Į å£«
ip er
èĵ ®
ĠB ert
åİŁ ä½ľ
Ġsup plement
ãĥī ãĤ¥
Ġn est
ãģĮ å¿ħè¦ģ
Ġind eed
åĤ¾ åĲĳ
Ġinterest ing
amp a
ĠSh aw
ĠíĬ ¸
á ĥ
æĪ¦ å¾Į
æµ· æ´ĭ
or p
Ġse nding
ãĤ¢ ãĥª
çĻ½ èī²
ãģ® ãĤ¨
Ġas h
å¤± åİ»
Ġprom in
ë¶ Ī
ĠColle ction
ĠM uch
Ġdepart ments
æ³ķ è¯Ń
ä¹¾ éļĨ
Ġpro x
í į¼
Ġpro l
N G
Ġelev ated
ä¸ľ åĮĹ
Ġrul er
Ġbar rel
ĠP ic
è¦ ĩ
ĠP el
éļľ å®³
19 22
åį³ ä½į
Ġhand ed
ä¸Ģ å®¶
Ġste ep
Ġ187 9
19 26
ĠIn itially
Ġcontrol s
ĠEth iop
om ed
æĺĩ æł¼
ìĿ´ ìĹĪ
Ġpay ment
ĠTre as
Ġaddress ed
M ark
ĠY am
Ġ18 48
ĠH erman
ĠK l
Ġmaintain ing
Ġserious ly
Ġchem istry
Ġst ops
ãĤĴ èµ·ãģĵ
ĠPear l
Ġcontrib ute
ãĤªãĥª ãĤ¸
o i
Ġp seud
å°ĳ ãģªãģı
ĠIndepend ence
Ġdel iber
çĻºå£² ãģķãĤĮãģŁ
Ġt rick
Ġì¤ĳ êµŃ
Ġcompar ison
Ġl ie
h or
Ġin ducted
é Ħ°
Ġf lex
ĠĠĠĠ ĠĠĠ
Ġg ap
ac les
p la
å³ ¡
fam ilies
ç¢º ä¿Ŀ
ãģĮ å§ĭ
éĥ¨ éķ¿
ãģ« æīĢå±ŀ
ãģĭ ãģĦ
Ġsusp ension
Ġ" [
äºĭåĭĻ æīĢ
ey er
æ´¾ ãģ®
çı¾ åł´
ĠHe avy
éĤ »
æĦı å¤§åĪ©
ç· ĳ
Ġg if
Ġfall en
Ġcl ar
èŃ° æľĥ
ãģ®ãģŁãĤģ ãģ®
ĠM ann
ult s
Ġorgan ic
C al
ĠJ oy
å¤§ æľĥ
Ġ18 30
Mich ael
Ġëĵ± ìĿĺ
Ġro ot
Ġrein for
ĠS ic
Ġins pe
ed ed
Ġ187 4
Ġsust ained
ĠL ions
å¡ Ĺ
èģ ĺ
æĻ ¨
Ġox ygen
ĠTig ers
ãĥĪ ãĥ³
á ¹
ãģĭ ãĤĮ
ff ield
Ġfor cing
Ġer ror
M ed
ãĤĴ ãģĹãģŁ
ĠCh air
ĠCra ig
Ġ187 3
ëŁ ¼
ãĥķãĤ¡ ãĥ³
ç¯Ħ åľį
Ġpup ils
De velopment
ãĥ¡ ãĥ¼ãĤ¸
Ġ9 6
ãģ¨ ãģĿãģ®
s m
Ġl ights
ãĥ¦ ãĥ¼
ij i
èĮĥ åĽ´
Ġí ĶĮ
C R
Ġun less
_ (
Ġdivor ce
æ°ı ãģ®
Ġveter an
Ġinter action
n ew
19 23
Ġeng age
ä¸¾ åĬŀ
Ġfoot age
Ġs av
ãģĮ çĻºçĶŁ
ĠEx change
Ġ ãĢĤ
Ġsusp ic
ãĥŃ ãĥ³
Ġdist urb
è³ Ľ
ok es
Ġcarri es
ĠB asketball
ç¾© å¤§åĪ©
ĠHistor ical
r ise
Ġsh ield
Ġleg it
ĠLank a
æĺ¾ ç¤º
Ġê²ĥ ìĿĢ
æŃ³ ãģ§
âĤ ĥ
ëŀľ ëĵľ
ist ical
Ġpo ison
T r
Ġsub urb
Ġcult ures
ãģĭ ãĤĮãģ¦ãģĦãĤĭ
m ill
r ators
á µ
ãĤĴ è¿İ
æ± ĩ
Ġm amm
ãĤŃ ãĥªãĤ¹ãĥĪ
ĠDen ver
ĠEd wards
ĠM ales
ĠAb u
Ġsur prise
éļİ ç´ļ
éĹľ æĸ¼
S an
éģĭ è¼¸
é½ ¢
ãģ¾ ãģł
ĠSong s
ach i
Ġsub d
Ġspok es
im m
Ġstruct ural
Ġunivers e
ãģĮ å¤ļãģı
ĠV ers
åħ³ äºİ
çĮ ¶
le vard
èĪī è¾¦
Ġcl im
Ġread ers
ĠBul gar
ãĤ¯ ãĥ«
Ġp ale
å¤§åŃ¦ éĻ¢
v ar
æľĿ å»·
åĪ¤ æĸŃ
Ġperson ally
Ġal ien
Ġpre fer
ä¸Ģ åĲĮ
é °
Ġmer ely
ĠTe ch
ä¹Ł åľ¨
Ġ6 7
ab s
Ġrev ival
Ġt ube
g io
Ġstat ements
Ġrepeated ly
ĠìŀĪ ìĸ´
M O
Ġ6 8
ĠIndust ry
Ġë¬¸ ìłľ
il ia
Ġrebell ion
çĶµ åŃĲ
ãĤĴ æ±º
éĸĭ æĶ¾
åĤ µ
çļĦ å¥³
ë ķĮ
Ġto ler
od ed
Ġunder graduate
é«ĺ ä¸Ń
ãģĦãģı ãģ¤ãģĭ
Ġwind s
Ġcl an
ĠS or
ĠS ad
å¡ģ æīĵ
åģ µ
Ġalleged ly
Ġind ex
19 17
ãĥĥãĤ¯ ãģ®
Ġsc en
ãĤ· ãĥĨãĤ£
å¾· éĩĮ
Ġsh arp
Ġcollect ive
åıĳ å¸ĥ
æ½ Ł
ĠShang hai
ãĥĲ ãĥ¼ãĤ¸
æ© «
Ġalleg ations
çĶº ãģ®
çĻ Į
Ġspe aker
é© ļ
éĵ¶ è¡Į
ĠM A
æł¸ å¿ĥ
ĠOper ations
ĠBor ough
Ġsum mit
Ġmil k
Ġwork er
i u
Ġvul ner
ãĥĹãĥŃ ãĤ°ãĥ©
ill es
åĲį åīį
ĠI celand
em pl
æŃ¦ è£ħ
ìĪ ľ
Ġbelong ing
Ġb one
rap ped
f our
ãģ¨ ç§°
omet imes
Ġc raft
Ġadvert is
os es
åĬ ±
i ability
çĽ´ èĩ³
Ġtack les
Ġdisband ed
ĠTechn ical
åħ¬ å¼Ģ
ä¼ģ ä¸ļ
ä¸Ģ åĪĩ
Ġgrand son
Ġ6 1
ĠAb raham
æ·· åĲĪ
ĠT erm
åģ ī
ãĥ¯ ãĤ¤
enes is
b ie
ãĤ° ãĥŃ
åĽ£ ãģ®
ĠJ ess
Ġfac es
åįĥ èĳī
Ġorganis ations
èĴ ĭ
ĠHel en
hold ers
åİ Ħ
åĮ» åŃ¦
Ġrem ix
åĮº éĸĵ
ãģ¯ å¤§
å»º ãģ¦
Ġìĭľ ì¦Į
Ġeng agement
Ġpil ots
ath on
ou stic
Ġc ave
Ġwarn ing
åŀĭ çļĦ
Ġcomp ress
å°¤ åħ¶
ĠGil bert
ĠC urt
he tic
Ġimpro vement
Ġrat ings
g om
ou ch
èĦ «
Ġunderst ood
Ġfl ash
ĠF ight
Ġinvestig ate
L ou
ĠE g
ãĥ© ãĥ«
Ġsign als
ĠMur phy
è¯ ¯
Ġtour ism
Ġsk ill
èªį èŃĺ
ĠFin ance
ĠM ult
g arian
ãĤ¯ ãĤ¹
Ã© l
d isc
Ġimm igration
ĠBr un
Ġen roll
åħ¼ ä»»
åįĢ åŁŁ
åı¤ åħ¸
ĠìĦľ ìļ¸
Ġeff iciency
ç«ĭ åł´
Euro pe
ãĤ¢ãĥ¡ãĥªãĤ« ãģ®
ac co
Ã¼ n
Pri or
min ster
Ġconsum er
ĠOr d
Ġrev ol
ed a
å£ ŀ
ãĥªãĤ¢ ãĥł
ä¸Ģ èĩ´
19 00
ĠHug hes
è¿ħ éĢŁ
Ġhand le
ĠìľĦ íķľ
ĠGra ce
åıĤ æĪ¦
Ġr ice
ĠìĨ Ĳ
è¢ ĭ
Ġse ized
p op
ĠS ah
Ġgen es
st ead
cy cl
Ġra id
ant a
ìŀĲ ê°Ģ
ĠHor se
Ġin tense
Ġfollow ers
Ġconf ron
Ġtrib ut
ĠPed ro
ãģ¨ å¯¾æĪ¦
] ,
Ġship ping
Ġsever ely
åĩº åı£
Ġpark s
ĠDrag on
Ġb ridges
å£« åħµ
ĠìłĦ ìŁģ
èħ Ĳ
ĠRob in
ear ing
ĠH aving
Ġgain ing
et e
Ġdisc ip
re ated
æ¶Ī è²»
å¹³ åı°
ĠTy pe
quir y
it udes
åĦ Ĵ
æĪĲ äºĨ
isc opal
Ġpredecess or
å¹´ éĹ´
åĩº å¸Ń
Ġen abled
Ġhop ed
æĸ°ãģŁ ãģª
ĠPalest ine
ĠGon z
ç» ©
ĠNever theless
å» Ĭ
ĠìĿ´ ë£¨
Ġy ard
van ced
è² §
O ut
Ġj ump
Ġpriv ile
Ġ ãģĮ
ĠìĦł ìĪĺ
ãģ® æĪ¦ãģĦ
Ġannoun cement
æ¯Ķ ãģ¹
ĠL oc
Ġab und
Ġsudden ly
st own
re ts
Ġst ored
ãĤĴ çĶŁ
åĿ ı
ĠTib et
ãģ® ãģ§ãģĤãĤĭ
ĠO il
ĠB og
æľĢ è¿ĳ
Ġw ard
æĢ ĸ
ĠëĦ ¤
ĠS occer
Ġ187 7
Ġstation ed
è¥¿ äºļ
h n
ì¦ Ŀ
Ġinter vention
er as
ĠFer r
ãĥį ãĤ¹
ĠHamb urg
um er
Ġexam ination
Ġp airs
ãģį ãģ£
ĠPict ures
Ġprison er
m ade
t r
Ġcat hedral
Ġarchae ological
Ġí Ĵ
Ġm emor
M ac
h is
èĩ¨ æĻĤ
ãĥ¦ ãĥĢ
GB T
Ġcommit ment
Ġ |
in ator
æľ¬ éĥ¨
ãĥ©ãĤ¤ ãĥ³
ãģķãĤĮãģ¦ ãģĦãģªãģĦ
Ġpro of
Ġ7 00
Ġrefer ring
ä¸Ģ ä¸ĸ
Ġìļ ©
ĠCom ics
Ġex ile
ãģĻãĤĭ ãģ¨ãģĦãģĨ
Ġmed als
éĺ¿ çĪ¾
åıĸ æ¶Ī
ãģŁ ãģĦ
Ġhect ares
åĵ² åŃ¦
çŁ¥ èŃĺ
ĠI b
è³ŀ ãĤĴåıĹè³ŀ
id ad
åĪ¶ éĢł
ç¾İ æ´²
id ance
ãĤ° ãĥª
Ġemploy ee
ĠAzer bai
Ġreg ist
umb ent
oin ted
éĢĻ æ¨£
ĠW ed
Ġt ape
Ġl iv
å£ ½
è¨ª åķı
ãģ¹ ãģį
Ġneighbor ing
èĢĮ æĺ¯
ĠH em
Ġelect ro
Ġevent ual
æĬķ æīĭ
æĻ® éģį
èĦ ĳ
Ġord inary
Ġpat ri
Ġhy brid
èĦ ħ
Ġgrow s
çļĦ æĿĳèĲ½
ro us
ĠHer bert
é«ĺ çļĦ
Ġre de
åī £
çľĭ åĪ°
Ġman ip
A lex
Ġperman ently
è¿Ļ æł·
Ġcomp uters
è¡¨ çİ°
la ir
å¾Ĺ ä»¥
ĠY u
ä¹Ŀ å¹´
äºº å¤§
Ġbel t
Ġtour ist
åħ Ĩ
duc es
ĠSe b
Ġpres erve
ars on
çĻ¼ å¸ĥ
Ġcul min
ĠK on
æĻĤ åĢĻ
Ġab b
g rade
19 21
qu is
ĠWil helm
ĠInt elligence
ĠìĿ´ ìļ©
f ilm
ĠS ay
el ing
ĠG ot
-- --
att a
Ġlic ensed
Ġdial ogue
èĥ İ
ãĥĢ ãĥ¼
qu er
Ġster e
ĠV e
Ġcoff ee
L ocation
åĪĽ ä½ľ
çĽ¸ çķ¶
Ġmonth ly
ĠD ays
ĠAlbert a
uc ed
é«ĺ éĽĦ
Ġqu iet
å¯ ®
Ġconcept s
, âĢĿ
ĠMin or
åĲį ãģĮ
Ġstud ios
Ġen act
ì§ ķ
çļĦ åŁİ
åĪ° éģĶ
Ģ ë¡ľ
ä¸ī è§Ĵ
Ġbe am
Ġëħ ¼
iff s
S yn
T R
K ing
ĠL ion
f ast
Ġbelief s
è³ £
al ysis
çı¾ å½¹
I F
åĩº ãģĻ
æį Ĳ
Ġt one
ĠB av
ä¿® æŃ£
ok er
è«ĸ æĸĩ
Ġreg ulation
æ²³ åĮĹ
ëł¥ ìĿĦ
ĠM TV
Ġcomp rehensive
åĪº åı²
Ġreg ister
ĠW u
å§ ī
Ġtheat rical
Ġ7 7
ID S
ãĤĪãģĨ ãģ«ãģªãĤĬ
oc ent
Ġag greg
ĠProv in
è®¡ ç®Ĺ
ãĤ¿ãĤ¤ ãĥĹ
Ġtele phone
ãĥĳ ãĥ¼ãĥĪ
ç´ §
ãĤĴ åĪ©çĶ¨
ãĥ¬ãĥ¼ ãĤ·ãĥ§ãĥ³
he ld
åħ±äº§ åħļ
å¹´ å¤ı
ãĤ¹ ãĥ©
r ish
Ġc ogn
æĹ¶ åĢĻ
Ð ²
Ġ186 9
åĮ» éĻ¢
ĠR ivers
ĠL P
íļ į
Ġre op
è®® ä¼ļ
Ġtro uble
Ġempt y
let t
ĠCr ime
åĨ³ èµĽ
éĢ ¸
Ġëģ Ŀ
ĠG arc
Ġrequ iring
Ġcommun ist
Rele ase
uck land
ãĤ¤ ãĥ©
ìĬ ¬
Ġdefend ing
Ġëª¨ ëĵł
Ġex ha
rag ue
Ġdis order
å·ŀ çļĦ
ĠìĤ¬ íļĮ
C urrent
ãģĮ é«ĺ
Ġcl ients
Ġeditor ial
æĸĩ ä»¶
ê±° ëĤĺ
M in
å¼ ĥ
ãĤĤ ãģĤãģ£ãģŁ
åĲį ç¨±
ĠCD P
16 0
å¯ »
Ġbur ial
ì² ł
ãĢı ãĢİ
Ġencoura ge
l ane
Ġphot os
ounc ill
yl er
ä½¿çĶ¨ çļĦ
Ġj ew
ĠWell ington
åŁº ç¡
ĠN ear
Ġab olished
åĳ¼ ãģ°
ĠGu ild
Ġdivor ced
J apan
Ġthe sis
Ġaltern ate
an th
åĲ ı
åģ ½
Ġrestrict ions
Ġdoub t
m n
ãģĵãģ¨ãģĮ ãģ§ãģįãĤĭ
ãĥ© ãĥªãĤ¢
Ġpr ince
Ġgr ants
ĠE ston
åĪ° çĿĢ
éģ¸ æĬŀ
P al
è®¾ ç«ĭ
ĠM ath
Ġac ademy
writ ing
åĲ Ĳ
Ġex it
ï¼į ï¼īï¼Į
Ġ8 2
ĠC rim
Ġholid ay
ĠJ unction
æĶ¹ èī¯
I L
ĠDak ota
Ġd ancing
ĠCom merce
Ġì²ĺ ìĿĮ
Ġd anger
åħĭ åħ°
Ġf ame
Ġdes ert
åħ± çĶ£
ĠìĪ ľ
æľº è½¦
ĠW ells
ĠGuine a
ãĥĭãĥ¥ ãĥ¼ãĤ¹
ĠMar x
çİĭ åŃĲ
ĠK ath
Pro fessional
åŃ¦ ä½į
Ġ9 7
ĠN ext
å½¹ åī²
ĠM embers
P P
ä¸» åĬĽ
ä½ĵ ãģĮ
åĹ £
ĠFriend s
ĠHen ri
ç« ľ
Ġì ½
ĠG reater
ĠìŀĲìĭł ìĿĺ
ĠRo om
Ġboard s
Ġro ster
Ġíİ ĺ
Ġbr ings
Ġh ospitals
Ġsp ots
ãĤ³ ãĥ¼ãĤ¹
ĠSus an
Ġlocomot ive
bo at
Ġprest igious
Ġì¶ ķ
Ġsitu ations
è´ ¸
ãĥŀ ãĥ¼ãĤ¯
ĠM ol
b ian
æķ ¢
ok a
ĠS oph
åħĭ èĺŃ
åŃ© åŃĲ
ĠAn tar
èµ· çĶ¨
äº ľ
Ġsurviv ors
is ch
è¦ §
æĭ ĺ
Ġencounter ed
Ġb ars
ĠLu is
ëĤĺ ëĿ¼
ĠStan ford
to ok
ãģĻãģ¹ ãģ¦
Ġsh ots
è²¨ çī©
ĠW ag
ë¶Ģ ë¶Ħ
Ġab st
Ġbre ast
åħ¶ å®ĥ
Ġren owned
æĬĹ æĹ¥
Ġenl isted
è£ħ çĶ²
çľĮ ç«ĭ
J ack
n amese
Ġamb assador
ç¿ ģ
Ġbi ography
Ġsuccess ion
ãĤ«ãĥĬ ãĥĢ
Ġpsych ology
Ġaccur ate
ĠEconom ics
Ġrev ised
çķ Ķ
l og
Ġmy ster
ĠSt uart
Ġland mark
æĶ¶ åħ¥
Ġextend ing
ab e
ãģ® ãĥ¬
g ence
ĠI C
Ġ {
Ã ī
Ġdispla ys
ĠPun j
ĠëıĦ ìĭľ
he ster
åħŃ å¹´
ãģĹãģ¦ ãģįãģŁ
Ġpurs ued
ìĸ´ ì§Ħ
Sever al
Ġdeal ing
Ġb are
Ġun anim
ä¸ĸ ä»£
æĴŃ åĩº
Ġcert ified
19 11
L ike
ri fic
ĠV ent
ãĥ¦ãĥĢ ãĥ¤
ãĤ¨ ãĥª
Ġc otton
ä¼¯ çī¹
Ġang le
åį ĸ
p it
_ âĢĶ
ãĤĤãģ® ãģ§
im o
ĠN at
å®Ł çı¾
æĸĩ çī©
éĸ¢ æĿ±
Ġshif ted
g us
åħ¥ åı£
åŁºç¡ Ģ
ĠRhod es
Ġret iring
Ġg auge
å¾Ĺ çĤ¹
ãģĹãģ¦ ãģĦãģªãģĦ
R ad
Ġte eth
åĦ ĺ
æ±º è³½
ĠB ened
ĠN ature
ãģĮ çĶŁ
ä¸Ńåħ± ä¸Ńå¤®
æµ ´
Ġ18 00
Ġart ificial
éģ¿ åħį
ĠLeban on
Ġlin ear
Ġfort ress
Ġord ained
æļ ®
åĩ¦ çĲĨ
ĠNash ville
ĠF ab
Ġp ian
åŀĭ ãģ®
éĮ «
St ud
è©³ ç´°
ĠOtt awa
Ġpregn ant
19 13
Ġc ens
t w
ãĤ¹ãĤ¿ ãĤ¸ãĤª
Ġrenew ed
Rich ard
Ġbreak s
Ġjud icial
åĪ¶ å¾¡
ãģĹ ãģªãģĭãģ£ãģŁ
Ġantic ip
by ter
Ġfoc using
ëħ Ĳ
ãģł ãģ¨
Ġachie vement
st r
ãĤ¹ ãĤŃ
ìĶ ¨
ĠGo ogle
ĠL anguage
ĠSh ar
ut o
Ġent reprene
Ġaut ob
è² Į
ĠNev ada
ĠGreg ory
os hi
ĠMethod ist
ãĤĤ ãģĨ
Ġaim s
ãĤªãĥ¼ãĥĹ ãĥ³
çŃī åľ°
åħ±çĶ¢ é»¨
éĩį éĩı
éĴ Ī
un ning
C ons
çļĦ æĸ¹å¼ı
Ġ6 9
Ġsequ el
ĠSup port
ai ro
Ġred es
Ġc ad
h aw
Ġaud iences
Ġcut s
G ame
ĠM ills
Ġg rid
æª Ķ
æĮĩ åĲį
åº¦ ãģ®
Ġfew er
ĠMad ison
h arm
ist ent
æīĭ æ®µ
ĠProfess ional
Ġbl og
èĩ ĺ
çº¦ ç¿°
ä¸ ²
Ġdest ro
äºº ç±»
Ġg al
ä½ĵ ãĤĴ
Ġnam ely
Ġall ies
Ġ20 20
ãģĮ è¨Ńç½®
Ġ7 8
æĢ§ æł¼
Ġkit chen
ĠSy rian
ãĥ³ãĥį ãĥ«
O T
) :
å¯¦ éļĽ
ãĤª ãĥ¼ãĥ«
ĠDi ocese
n Ã©e
ĠB eth
Ġgar rison
ãĤ¸ãĥ£ ãĥ³
Ġsc andal
ĠR at
é£ŀ æľº
n amed
æī§ è¡Į
I R
Ġfunction al
au er
Ġpros per
/ /
å¼· åĮĸ
l ength
J ose
éķ· ãģ®
Ġobserv ation
éĩ Ĭ
Ġliter acy
omet own
æ¯Ķ ä¾ĭ
Ġprogram mes
ent ry
æµ· ä¸Ĭ
ãĤĮ ãģªãģĦ
ãģĤ ãģ¾ãĤĬ
éį µ
Ġsh orter
ĠSt re
Ġexper ts
èŃ¦ æĸ¹
å®ŀ éĻħ
åĮ Ī
æī ¬
ĠWat son
æĩ ¸
ĠS lav
ĠJ oint
Ġt issue
ĠBob by
æĸĩ åŃ¸
ĠB ond
ĠG ust
ĠMan uel
åĤ ħ
ãĥķãĤ© ãĥ«
ãģŁãģ¡ ãģ®
ra h
ĠG et
å¹¶ ä¸į
J ust
Ġgold en
Ġsus pected
ops is
mun ition
ãģ« å¿ľ
Ġfind ings
ĠK le
å±± èĦĪ
19 10
Ġo rient
ëĭĪ ìķĦ
Ġspe akers
Ġrad iation
agon ist
Ġsoci eties
Ġreb els
ê· ľ
ĠN ort
è³ ´
ĠFin ancial
æ» ŀ
ount ain
èĻ ļ
æĸ¹ ãģĮ
Ġwa it
ãĤª ãĥ©ãĥ³ãĥĢ
Ġmain land
Ġs ung
æļ ¦
ĠStud ent
Ġh orn
ä¸¦ ä¸į
Ġìķ ł
çļĦ é¦ĸ
äºĮ äºº
Ġreview ed
ãĤ¹ãĥĨ ãĥ¼ãĤ¸
åľ° éĿ¢
æ¹ ĺ
if fer
ĠH us
row ing
Ġhand ling
Ġc ow
åĽ³ æĽ¸é¤¨
Ġconcent rated
Ġì£¼ ìŀ¥
E A
ĠShe ffield
Ġvari ation
l ights
èĦ ³
spe c
Ġproceed ed
F orm
Ġ }
åĿ Ĺ
Ġhard ware
an throp
ãĤĬ ãĤĴ
p age
åıį åºĶ
Ġgener ations
S erv
Ġvari ant
Ġvers e
Ġreve al
æĺ¯ ä»¥
ato es
è ļ
į ¨
ĠR if
éģ ¼
s up
æľŁ ãģ«
æī ®
æĭį æĶĿ
Ġlif etime
ou rag
Ġmiss ile
èĢ Ģ
æĸ ĳ
Ġ185 7
åĸ Ģ
æĺ¯ ä¸Ģä¸ª
Ġcl ient
Ġautom atic
ãĥ¡ ãĤ¤ãĥ³
ĠSw an
ia o
ĠMan ager
Ġnickn ame
ĠSo ft
æµģ ãĤĮ
èĲ½ ãģ¡
èª °
Ġout door
aur us
ãĥª ãĥĨãĤ£
Ġcontrib uting
Ġrel ating
å°Ī æ¥Ń
unn y
ĠD elta
ĠMond ay
Ġsamp les
ãĤ³ ãĥ³ãĥĶ
s ub
Ġcl ergy
å¤© çĦ¶
Ġp ist
iz z
ãĥ³ãĥĢ ãĥ¼
d al
åīµ ç«ĭ
æĺ¯ ä¸ĢåĢĭ
Ġp ush
Ġsumm ary
Ġst ones
Ġ7 4
Ġ urg
ent ieth
æĽ¾ ç»ı
ĠFl ight
ĠGi ants
çĲ ī
om ber
Ġex port
å¹´ åĪĿ
åį± æ©Ł
ĠM oz
Ġcon gregation
Ġr hythm
Ġlight ing
Ġpart ial
çľĮ ãģ®
Ġpri ests
æİĴ åĲį
Ġsuggest ing
æĸĩ æĽ¸
Ġch ron
Ġlect ures
æĽ¾ ç¶ĵ
ãĤĴåĭĻ ãĤģãĤĭ
Ġkill s
Ġlist en
ĠM orning
k ar
ãģ« åĩºæ¼Ķ
et o
èħ Ĭ
ãĥ¡ ãĥ©
Ġc hest
ç±» ä¼¼
_ ãĢİ
y ers
ĠO ri
èĳĹåĲį çļĦ
Ġm emb
ĠAv iation
ĠP ast
Ġactiv ists
m id
Ġapp re
ĠMoh am
Ġfor b
ãĤĴ éĢģ
Ġcons pir
å®ĥ åĢĳ
ä¸ĵ ä¸ļ
ëĮĢ ìĿĺ
Ġcorrespond ing
Ġman ages
ãĤĴè¡Į ãģ£ãģ¦ãģĦãĤĭ
ĠT oy
Ġcivil ians
Ġac adem
æĹ¥æľ¬ äºº
ib n
ĠBut ler
Ġshel ter
ĠPrim ary
Col le
åī ¤
Ġf ro
Ġne arest
ĠSte ven
ur ated
ëŁ¬ íķľ
Ġm it
Ġlo op
Ġfavour ite
ĠB ass
ĠV ill
Ġart work
è¡Į ãģį
f urt
ot ing
ĠT as
æĶ¿ åħļ
f ounded
Ġw ore
d ess
ãģ« æĪĲåĬŁ
Ġceleb rate
H istor
Ġdeep ly
ä¿Ŀ éļľ
ĠG ang
S am
p ost
ĠC arn
Ġadj ust
ãģĹãģŁ å¾Į
ĠJ ar
ĠM ut
æı Ĵ
Ġimpress ed
Ġhor ror
Ġprov isions
æĶ¹ æŃ£
ì¹ Ń
Ġpres ents
èµ ĸ
Ġphil os
hib ition
g art
az e
ĠKe ith
as ia
ĠÃ ģ
_ ãĢĬ
clud ed
ãģ® ç¬¬
Ġ9 2
ĠComp uter
Ġrest ore
ĠI P
ĠWars aw
Ġins cription
ĠWeek ly
ĠFace book
ĠG as
åķĨ ä¸ļ
ãĤ¦ãĤ£ ãĥªãĤ¢ãĥł
å¹´ çĶŁ
å®Ł é¨ĵ
ant i
ĠA uckland
Ġhistor ically
å¸° åĽ½
ĠC reat
Ġre verse
æľĿ æĹ¥
ĠTh or
Ġt enth
çĪ¶ æ¯į
Ġav iation
ĠRe ich
Ġqu oted
å¼· ãģı
å®ī æİĴ
ê°ľ ìĿĺ
è»Ĭ ãģ®
çª ĵ
æľ¬ å¡ģæīĵ
çĻ» æĿ¿
Ġdiscrim ination
E v
ä¸ĭ ãģ«
åļ´ éĩį
R ep
au kee
ĠA ges
f ly
ĠIraq i
S aint
ãĥĿ ãĥ¼ãĥ«
Ġìķ ŀ
åıį æĩī
Ġë£ ¨
ä»£ ãĤıãĤĬ
ä¿± ä¹Ĳ
ãĥŀ ãĤ¹
om o
Ġvolunte er
æĵ İ
æĭį æĳĦ
d s
ent e
Ġdesign ation
ãĤĴãĤĤ ãģ£ãģ¦
ç¸ ¦
ãĤĴ éĽĨ
Ġport s
ãĤĴçį²å¾Ĺ ãģĹãģŁ
éĺ² æŃ¢
M us
ãĥĥ ãĤŃ
Ġh ung
èµĽ åŃ£
ĠìĿ¼ ë¶Ģ
ãĤĴ åıĸ
pr ing
åĪ¶ éĻĲ
ĠMor oc
åŃĲ ãģĮ
ãģĵãģ® ãģŁãĤģ
èªŀ ãģ®
ĠEle mentary
åįģ äºĶ
on ly
Ġdis m
ãĥĴ ãĥĥãĥĪ
ĠL arry
ĠBer g
Ġdev ast
ĠI T
m ail
è¿ ¹
ĠK ab
ĠKen ya
ëħĦ ìĹĲëĬĶ
Ġtouchdown s
Ù Ħ
l ived
Ġb rew
ĠìĿ Ģ
back s
ĠHe in
è®® åĳĺ
onom ous
ĠFran co
åıĸç·ł å½¹
ĠS ide
ĠTra ck
ãĤ¨ ãĥ³
Ġí ĮĢ
Ġpros pect
a ft
Ġph osph
Ġtask s
Ġprot otype
å®¶ æĿĳ
æĸĩ æĺİ
ĠShe p
ĠR alph
Ġel ite
Ġqual ification
ç» ª
åĪĨ è£Ĥ
or ient
Ġcurric ulum
ä¸¥ éĩį
ãģ¯ çĦ¡
spe aking
Ch inese
Ġfre ight
ic ism
ĠS ony
ĠMag ic
ĠR us
æľŁ å¾ħ
umn i
Ġreb ounds
æĦŁ åĪ°
çŃī çŃī
Ġimpro ving
G N
Ġr ivals
Ġdepend ent
å² Ń
Ġven ues
Ġf iles
ĠWal lace
ĠLe o
ĠK un
Ġdisp ers
O K
Ġl ad
Ġtransform ed
fortun ately
ãģĿãģ® ãģ¾ãģ¾
ĠìķĮ ëł¤
ĠL ux
åıĳ åĬ¨
Ġtorped o
sen al
ãĤı ãģĳ
ĠRena issance
éĨ« éĻ¢
æ³¨ çĽ®
ibl ings
åħ¬ ä¸»
ĠL og
ãģĵãģ® ãĤĪãģĨãģª
Ġf isher
íĥ Ŀ
Ġsc iences
Ġst olen
Ġdiscontin ued
Ġt ip
it ated
ãĤ· ãĥ«
ĠE ld
an j
Ġa est
ãĤ¹ãĤ¿ ãĥ¼ãĥĪ
Ġb oot
nd um
G l
ĠCard inal
ãģ¾ ãģļ
ĠArn old
Ġh ole
åİŁ åīĩ
h abil
H F
ĠHar old
P op
ĠC O
Ġsurv ival
ĠF low
Ġunivers al
ĠLeg ion
ĠLi u
Ġcre ates
Ġpun ishment
Ġthir teen
åı¯èĥ½ ãģª
C ap
Ġprofession als
ĠM ort
Ġqu een
ãĥĲ ãĥ¼ãĥĪ
ãĥĭ ãĥ³ãĤ°
Ġcounter part
c aster
äº¦ æľī
H C
ĠC ou
ãĤĴåıĹãģĳ ãĤĭ
f a
ãģ§ãĤĤ ãģĤãĤĭ
çī© ãģ®
B ig
ç¥ŀ æĪ¸
o an
fect ure
ĠSt akes
åĤ ĺ
ĠS ut
Ġvirt ual
Ġrif le
éĩı çļĦ
ë ĳ
æĥħ æ³ģ
ĠCru z
Ġw aves
ĠCost a
D NA
ĠDe b
Ġo l
Ġa uction
Ġgra v
ãģķ ãģ¾
éĺ¿æĭī ä¼¯
u h
s ized
Ġconf ront
w right
um i
Ġproced ures
Ġh ometown
Ġinv ented
ĠIs ab
èĢ ķ
ur ring
c at
C amp
å§ »
æ±Ł è¥¿
on so
åĴ ¸
Ġextend s
Ġcap ita
Ġim plic
ĠM ig
ãĤ± ãĥ«
çľĮ éģĵ
ĠN y
com pass
Ġmanufact urers
èĽĭ çĻ½
Ġpredomin antly
ë§ ī
Ġc ir
çĸ ı
é£Ł ãģ¹
F e
Ġ8 7
Ġkne e
Ġlay out
í ĶĮ
ç»Ł æ²»
Ġrequire ment
Ġsol utions
Ġindepend ently
l anguage
ad ier
Ġìĭ Ŀ
Ġcomp ound
åĪĨ ä¸º
ãĤ¤ãĥ³ãĤ° ãĥ©ãĥ³ãĥī
im s
gom ery
Ġres ource
em a
Ġìĺģ íĻĶ
ĠL ie
Ġconsid ering
é«Ķ èĤ²
ĠO g
åħ¨ ãģ¦ãģ®
uls ion
ĠLe gend
è·Ŀ ç¦»
åĬª åĬĽ
In t
Ġthreat s
å¹´ éłĥ
Ġfarm s
äºĪ éģ¸
Ġ7 3
ĠC ork
ä½ľ èĢħ
ãĢħ ãģ«
te am
Ġhoriz ont
m akers
Ġsepar ation
Ġse eds
åĻ ´
ãĥĹãĥŃ ãĤ¸ãĤ§ãĤ¯ãĥĪ
Ġdisappe ared
Ġì¦ ī
qu est
ç·ļ è·¯
èģĶ éĤ¦
ĠS ierra
Ġinstit ute
é¸ Ł
Ġdies el
l ined
èĢ Ĺ
ãģĵãģ¨ ãĤĤãģĤãĤĭ
ah l
ê¸° ìĿĺ
íĮ ¨
A K
ĠíĹ Ī
Ġpan els
èĩª ãĤī
æ´»åĭķ ãĤĴ
éģĶ åĪ°
Ġl akes
Ġk ings
ãģĮ ãģªãģĦ
ä¸Ģ ç¨®
Ġvari able
osoph ical
P ol
Ġest ates
Ġback ing
H ow
è¾¾ åĪ°
Ġs hed
Ġsc r
ĠH at
ĠSch ol
ãĥģ ãĥ§
Ġmix ture
Ġl iver
Ġal tar
Ġath letic
Ġreserv oir
rele ased
Ġco aches
çİ »
ĠFor um
ëıĦ ë¡Ŀ
ä¹ĭ ä¸ĭ
T oday
ĠEx ped
Ġadmin istered
å»¶ ä¼¸
é§Ĩ éĢĲ
å ¬
arm s
ãģĴ ãĤĭ
ĠA x
åħ¶ å¾Į
ãĥĳ ãĥ©
éļİ æ®µ
æĥħ åĨµ
Ġwar fare
Ġd iversity
ĠGoth ic
w aukee
th ird
Ġìłķ ì¹ĺ
Ġgrad es
Ġdo ctors
Ġcomp iled
up s
imens ional
ĠK ay
ĠB ag
ãĤº ãģ®
Ġë§ ŀ
Ġtransport ed
hen g
ãĥŀ ãĤ¤ãĥ«
r aska
ĠTransport ation
ĠM ap
ĠPhill ips
æĻĤçĤ¹ ãģ§
èı Ĭ
æ· ®
Ġhapp en
Ġgu idance
Ġcon vert
Ġsk i
art s
Ġmer c
Ġpresent ation
å¦Ĥ ä½ķ
åĲ¸ å¼ķ
ĠGro ve
å¹¿ ä¸ľ
ĠEx pl
å®ŀ éªĮ
Ġsuppor ter
M et
åı¯èĥ½ æĺ¯
ĠEnvironment al
Ġassess ment
ãĤ¢ ãĥī
Ġrec ruit
åĪĨ çĤº
æļ´ åĬĽ
f ive
ĠBra h
Ġstat istics
ĠëıĻ ìķĪ
ãģ® çłĶç©¶
Ġapp rent
Ġpot entially
Ġexpand ing
Ġal tered
ĠF ro
å¯¾ ç«ĭ
ĠTh under
writ ten
å¯¦ é©Ĺ
ì° ©
ater al
è² ¸
Ġ185 9
Ġconduct ing
Ġfour teen
Ġadvoc ate
ãĥ¼ãĥĢ ãĥ¼
Ġrecip ient
Ġrel atives
æı´ åĬ©
Ġdoctor ate
ãĥĥ ãĤ»
iss a
æĸ¯ åħĭ
ä» ¿
ĠE sp
è¾ Ń
éĢĲ æ¸Ĳ
P eter
Ġmoder ate
ĠìĿ´ ìĥģ
Ġlearn s
åĦ¿ åŃĲ
Ġdecre ase
Ġrele asing
w orld
å±± ãģ®
ount ed
Ġinvest ors
ĠArt illery
å« ģ
ĠLiter ature
éĺ» æŃ¢
Ġup coming
ç· £
a uc
ìĽ ¨
åħ¨ æĹ¥æľ¬
ĠCelt ic
æ± ¡
Ġhom osexual
ĠSecond ary
ç«¶ èµ°
ãģ«ãģªãĤĭ ãģ¨
Ġimpress ive
Ġaut umn
Ġscient ist
æ¾³ å¤§åĪ©
ic ations
é¼ »
å»º æĪĲ
ç©º ä¸Ń
Ġacknowled ged
ick en
Ġcar ved
Ġwatch ing
ãģ¨ãģª ãģ£ãģ¦ãģĦãģŁ
ìľĦ ìĽĲ
èĢħ ãģ¨ãģĹãģ¦
Ġair line
in ates
éĻ Ģ
Ġvict ories
N D
ãĥ³ãĥ ı
æĵ ¬
å¹´ ãģ¶
Ġmagn etic
ĠBou levard
ĠMc M
èĢĥ æħ®
Ġdra in
çªģ çł´
am ous
åł Ĩ
Ġpract iced
Ġstory line
Ġam munition
Ġhy p
Ġun com
Ġcent res
Ġcomment ary
M T
ä¿³ åĦª
ĠViet namese
ä¸Ģ æł·
åľĭ çİĭ
çļĦ åľ°æĸ¹
S al
it ol
éĢĲ æ¼¸
Ġalt itude
Ġco ached
Ġ9 3
ä¸ĭ åįĪ
ĠAr c
V I
å±± æĿ±
Ġconnect s
Ġreserv es
ov ich
Ġtourn aments
Ġex terior
Ġhy d
Ġmess ages
ĠPal mer
åħ¬ å®¤
Ġath letes
Ġvoy age
ĠD est
æľ¬ äºº
åľ° ãĤĴ
ĠA ra
ab out
! !
Ġkn ows
Ġíģ ´
Ġv ital
Ġc lay
ĠBaron et
U s
Ġpl ates
Ġsurre nd
ĠP ut
am y
ãģ« æķĹ
ĠInd ies
à ¦
Ġre ver
ĠOrig inally
ĠCroat ia
È Ļ
Ġ7 1
ãĤ» ãĥĥãĥĪ
Ġtest im
é£Ľ æ©Ł
Ġdoub les
Ġfair ly
Ġless ons
% ),
éĢ£ çĽŁ
åįģ åĽĽ
ĠAir lines
æıĲ åįĩ
tain ing
åħĴ åŃĲ
èĤ ©
ĠWork ers
æ¨© ãĤĴ
it an
ĠMar vel
Ġtrav elling
Ġan throp
av ia
åº ¶
itte es
Ġì¡´ ìŀ¬
amb ers
ä¸Ģ æ¨£
èªį å®ļ
Ġrecogn ize
åŃĲ ãģ¯
Ġnot ing
Ġcons ent
ourn als
Ġeas ier
å·¡ æ´ĭ
æĪ¦ ãģ§ãģ¯
Ġremember ed
è¥¿ èĹı
Ġjournal ists
H on
Ġengine ers
Ġn aming
ĠSte in
Ġflo ors
ãĥģãĥ£ ãĥ³ãĥĶ
åĬ £
Ġper pet
ãĤªãĥ¼ãĤ¹ãĥĪ ãĥ©ãĥªãĤ¢
E F
Ġtarget ed
p el
uss els
ĠH D
ĠG y
ĠUn til
ãĥĭ ãĥĥãĤ¯
å°ı è¯´
Ġcritic ised
Ġdraw ings
ad ian
B ecause
æľ¬ åľŁ
ĠVerm ont
ãĤĴ è¨Ńç«ĭ
Ġauthor ized
çĶ³ è«ĭ
Ġhop es
æĺ¯ æĮĩ
ĠPr ice
F rench
æł Ĺ
åĿ İ
ĠSom ers
ĠPer u
éļ §
Ġpack age
p ine
ë¡ľ ìļ´
çĬ ¹
Ġarm ies
ĠìĤ¬ ê±´
åł± å°İ
Ġupd ated
ĠT ed
r ised
ĠFran Ã§
Ġconf idence
Ġpay ing
S N
ä¸º ä¸»
ë ´ī
ĠO ber
ĠSer ie
ãģĿãĤĮ ãģ¯
Ġrel uct
æµģ åŁŁ
z ig
N ov
Ġch ronic
ĠG and
ãĤ¹ãĥĪ ãĥ¼ãĥªãĥ¼
Ġqu ad
ĠëĮĢ íĳľ
Ġ8 1
Ġment ions
B ut
æ¬§ å·ŀ
Ġhead ing
ëħĦ ëĮĢ
å¼ķ æĵİ
ãģĦãģļãĤĮ ãĤĤ
hen tic
N BA
Ġvir us
E ast
w he
ĠP on
åĳ¼ ãģ³
Ġan th
íĺ ¼
éħ ·
Ġcondu ctor
Ã± a
ĠYugoslav ia
ç¢º å®ļ
Ġacqu ire
ĠCont emporary
åľ ³
ĠK ash
ç·´ ç¿Ĵ
Ġle agues
us c
æľ¬ èº«
ãĤª ãĥ¼
ãĥĭ ãĤ³
à ®
æŁĲ äºĽ
Ġb apt
ĠCamer on
ãģįãģ£ ãģĭãģĳ
Ġconfl icts
Ġin g
Ġmin isters
Î µ
Ġsix teen
å¦ ĩ
ä¿± æ¨Ĥ
ĠFried rich
Ġst aged
Ġinf ection
red ited
art ed
Ġdem ocracy
Ġvar ied
Ġmaintain s
åĭķ ãģį
ĠEd die
èĪ Ĵ
å½ĵ éĢī
Ġinter act
Ġf ate
ãĥĥ ãĤµ
spe ed
Ġopt im
os c
ad ers
Ġbe ars
Ġv el
è¡Ľ éļĬ
äºŀ æ´²
éħį ä¿¡
ãĥķãĤ£ ãĥª
ĠLabor atory
ãģ£ãģ¦ ãĤĤ
ĠP ent
å°ĳ ãģªãģĦ
Ġrun ners
ĠD ennis
ãĤ¢ ãĥ¬
ĠO cc
éĽĨ åĲĪ
Ġìłķ ëıĦ
ĠP rest
åĲĦ ç§į
Ġdest ination
æĺŁ æľŁ
ĠAn im
Ġë°ľ íĳľ
Ġphot ographer
ëĤ¬ ëĭ¤
ĠD oc
å·¥ äºº
æ¸© æ³ī
ĠArab ia
imet res
Ġrep ublic
çī¹ çļĦ
Ġmem oir
ì¸ µ
éŃĶ æ³ķ
ãĥĵ ãĥĩãĤª
ãģĮ éĸĭ
éĥ¨ èĲ½
ãģĮ è¦ĭ
A ugust
èħ ķ
ĠNew ton
ãģª ãģĦãģŁãĤģ
id ae
S ub
æ¿ ±
Ġrang es
Ġb inding
Ġno ise
ĠErn est
å±Ģ éķ·
çĶ¨ãģĦ ãĤīãĤĮãĤĭ
ĠSt age
Ġvol unt
ĠMat hemat
Ġrevolution ary
âģ Ħ
Ġê³ ³
c ore
æī ¶
Ġm igration
åĽ½ éĺ²
ĠColomb ia
Ġenh ance
Ġneighbour ing
Ġs oc
Ġex chang
èĢĮ è¢«
ãģ« ãĤıãģŁ
Ġcirc ulation
åħ¶ åĲİ
Ġb in
Ġun ve
uck s
èķ Ń
çŁ ¿
ãĤª ãĥ«
Ġshe ep
æ¯į äº²
Ġexplos ion
ĠNe il
umber land
éĺ ´
æĢ§ è³ª
az i
Ġcompos itions
Ġconj unction
ĠWest minster
et ers
Ġtri ple
éĤ ¸
æ²¿ å²¸
umb ai
ãģ® é«ĺ
im en
è£ģåĪ¤ æīĢ
on al
Ġst ability
åŀ £
th al
Ġen able
ĠA bor
Ġsim ilarly
ĠV II
è·¯ æĺĵ
Ġp ill
Ġtre nd
éĽĨ åĽ£
ting ham
Ġanim ation
ĠP ul
ans k
å°ı èªª
ĠGu ide
åī ©
èĸ ¦
ĠDiam ond
ĠPro ductions
Ġhon ored
i ens
he v
ul ous
ĠHar vey
oun ters
å·ŀ åĪºåı²
ãĤĴ ãģĻãĤĭ
åıį å¿ľ
din and
Ġpione er
rand ed
å»£ æĿ±
ore y
Ġprompt ed
èĹ ī
ìĽ Ģ
åīį ä½ľ
Ġann ounc
D ue
ë ·
ĠC A
if ier
Ġíĸ Ī
æĵĬ æķĹ
ĠDel aware
åħ± éĢļ
èı ±
Ġcomp rom
æķ° åŃ¦
Ġê°Ģ ëĬ¥
os ing
å¤« åį¡
ct uary
éĤ ª
S ir
åł ¤
íĨµ ëł¹
h all
Ġëĵ± ìĿĦ
Ġ ×
ĠCar r
Ġse gments
æķ° ãģĮ
Ġcompens ation
å¹´ åºķ
unic ation
Ġt el
é£Ł çī©
Ġs iblings
çļĦ çī¹
ëĵ¤ ê³¼
æŃ£ å¸¸
éĶ Ļ
Ġsec ular
æ «
ãģĮ çĻº
èī² ãģ®
ĠíĶĦëŀĳ ìĬ¤
ç´Ħ ç¿°
ĠForm ula
èĪ Ł
ĠDe ep
el ia
Ġcustom er
it us
Ġspec imens
è¦ı åīĩ
åĩ» è´¥
ator ies
ĠëĲĺ ìĸ´
Ã¡ s
ç¼ ©
Ġfound ers
å¹´ è¢«
ĠA T
åºĥ ãģĮ
ä¹Ł ä¸į
Ġd ying
Ġsign ature
è¼ ©
å¼ı ãģ®
ç§ĺ æĽ¸
ĠT ong
enh agen
å¹¶ äºİ
M a
ĠBulgar ia
ãģĹ ãģªãģĮãĤī
å¾Į æľŁ
ä»ķ äºĭ
Ġ185 4
èĤ ĸ
ìł ĳ
ĠMah ar
L O
éĴ ¢
Ġdepos its
çļĦ åīį
ëı Į
oe ing
åĽ½æ°ĳ åħļ
ãĤĴ æİ¡çĶ¨
ĠGh ana
cess ion
ĠBul garian
çķ¶ éģ¸
ç¼ ĺ
ãĥ¬ ãĤ³ãĥ¼ãĥī
ĠM ust
äºº å·¥
Ġo v
ĠR ange
Ġstri king
ãģ£ãģŁ ãģĮ
Ġbas in
Ġcomp lain
ä¸Ģ éĥ¨ãģ®
er ic
åĪĬ è¡Į
Ġê¸ ¸
ĠPalest inian
ate ver
Ġbroadcast s
Ġarrang ements
Ġun employ
è»į ãĤĴ
æİ¥ ç¶ļ
Ġpsych ological
Ġinc umbent
å·¥ åħ·
ĠNapole on
èĦ ī
ç¶² è·¯
å°ı åŃ¦
ãģ¦ ãģĬãĤĬ
ãĤ¨ ãĤ¢
ĠB ach
Ġ8 6
ur se
è®Ń ç»ĥ
åŃ¦ åľĴ
h ad
ĠCons ervation
ĠLeon ard
è§Ħ æ¨¡
ĠB ent
ĠRe yn
T ra
åĲĳ ä¸Ĭ
Ġport ions
ä¾Ŀ çĦ¶
ĠH um
è»į ãģĮ
h al
æĢ» éĿ¢ç§¯
Ġare na
Ġcle ared
æľĪ èĩ³
ç¬¬ ä¸ĥ
å½¢ çĬ¶
Ġw reck
ëĿ¼ ìĿ´
A ir
Ġ8 4
ãĤ³ ãĥ¼ãĥģ
æĬ¥ åĳĬ
Sec ond
ç¸½ éĿ¢ç©į
in f
Ġart if
æŃ ¯
U pon
Ġpre y
Ġinteg ration
ãĥ¯ ãĥ¼
Ġfe els
è¨± åı¯
Ġì¤ĳ ìĭ¬
Ġthe ology
ãģ¦ ãĤĤ
H O
uss ion
Ġatt itude
Ġclot hes
ä¾Ľ çµ¦
ĠW ald
Ġflow er
çµĲ å±Ģ
ĠR ah
ĠS uz
ĠAm end
ĠG ardens
Ġinter face
ĠIn v
Ġam pl
Ġphenomen on
ĠA j
ĠRail ways
ãĤģ ãģ¦ãģĦãĤĭ
ç©º éĹ´
ip her
D o
åĮ» çĻĤ
ich i
ä¸¦ æĸ¼
æ¡ ľ
Ġassemb led
Ġman ual
Ġback ed
ath a
ãģ¡ ãģª
Ġref uses
ĠSud an
â ĸ
Ġsem if
æĽ °
æķĻ å¾Ĵ
Ġc oc
Ġprepar ing
O ld
å¾Ī å¿«
ãĥ¼ãĥ ¡
h alf
ãģĹãģ° ãģĹãģ°
Ġemer ging
Th at
j ection
æľª æĿ¥
Ġshould er
ĠH ur
Ġimprison ment
ê³ ¨
åħ¬åı¸ çļĦ
ĠÅ ł
ĠC ov
form ing
Ġt onn
ig ion
ä¸Ń ç¶Ļ
s qu
s ong
ãĤĴ ãģ¯ãģĺãĤģ
æ®µ éļİ
æģĲ æĢĸ
J u
ĠF ul
wh ite
æį ľ
intend ent
Ġprogress ive
ĠL iga
Ġë ĳ
å¿ ĺ
éĢı éģİ
ĠAngl ican
Ġg la
ãĥª ãĤ¨
ĠIsa ac
ãĤ¹ãĥĪ ãĥ©
ãģ«ç§» ç±į
Ġto ll
P resident
ãĥª ãĥ¼ãĥĪ
ĠTom my
Ġover w
åķĨ åºĹ
çĽ¸ ä¼¼
Ġ185 5
ä»ĸåĢĳ çļĦ
ru ly
ran k
ç¤ ¦
ãĥ¯ ãĥ¼ãĥī
Ġtro ubl
è¦³ æ¸¬
çī ½
åľ° å½¢
ep s
Ġbon us
st age
ĠAl ger
19 15
íķĺìĺĢ ìľ¼ë©°
our g
Ġident ification
Brit ish
Ġmut ual
çĮ «
Ġsla very
åĲĽ ä¸»
Ġpubl ish
n ut
ar us
ãĤ¯ ãĥªãĤ¹
ç¹ ª
éħį åĲĪ
ĠEs sex
bor o
Ġburn ing
Ġaccompl ished
ĠColumb us
ĠR uth
ain ing
Ġreven ge
b oys
Ġw elfare
oc y
Hen ry
æĸ° äºº
Ġillust rated
Ġor al
ĠF uture
Ġcan on
ãĥĲ ãĥĥãĤ¯
G C
Ġflu id
Ġì ¸
ãĥ¼ãĥ ¢
ĠEag les
Ġtow ers
å½ĵ éģ¸
H D
ub a
ä»ĸä»¬ çļĦ
ind a
ĠìĿ´ ìĸ´
ä¿±ä¹Ĳ éĥ¨
ä¹Į åħĭåħ°
Ġru ins
èŃ ½
Ġmans ion
ä¼ļ ãģ®
Ġtrans p
Ġassoci ations
ol ics
åĪ¤ æ±º
ãģĹãģı ãģ¯
F l
èµ ¢
qu arter
åĭķ çķ«
ãģķãĤĮãģ¦ãģĦãģŁ ãģĮ
Ġf irms
Ġfe es
Ġtrans it
ãĤĤãģ® ãģĮ
Ġpray er
Ġê ±¸
A f
former ly
b en
ĠTri ple
Ġc ock
ĠPlay ers
å¥ Ķ
Ġtalk ing
Ġcitizens hip
ãģ® ãĤ«
Ġlob by
ĠPer th
ãĤ³ãĥ³ãĥĶ ãĥ¥ãĥ¼
sec ond
ĠHig her
Ġz ero
Ġìĺģ êµŃ
éł Ĵ
çŁ¥ äºĭ
æĹ¥ çļĦ
å°ı çļĦ
Ġj et
Ġsynd rome
ĠP rague
Ġsh aped
Ġconsult ant
ãĥĿ ãĥ¼ãĥ©ãĥ³ãĥī
ĠH IV
ĠFil ip
Ġinhab ited
ä»ĸ æĺ¯
art a
éĬ ĺ
Ġworksh ops
ëĦ Ĳ
ĠD ol
ãĤĴ è¶ħ
is le
äºļ æ´²
ĠBel le
ĠìĿ´ ëŁ¬íķľ
éľ ¸
æĭł çĤ¹
ĠHer ald
äº§ åĵģ
å¢ Ļ
Ġbad ly
ber y
ĠL amb
ĠJo an
ĠD aw
è´ ı
Ġrefere ndum
bro ok
Ġev ident
ĠNorth west
èĤ¡ ä»½
åį° åĪ·
Ġun w
çĶ¢ åĵģ
Ġí ŀĪ
Ġhelicop ter
Ġl ift
Ġen compass
Ġup set
ĠPres byter
Ġbank ing
ãĤ¦ãĤ§ ãĤ¢
Ġth rown
Ġob sc
ic it
Ġpra ise
F O
æ¢ ¦
Ġl ux
ä»ĸ ãģ«
oll o
Ġim posed
ok u
Ñ ĥ
ç¯Ħ åĽ²
iat ric
Ġvari ations
Ġor bit
ãģĭ ãĤĮãĤĭ
Ġ10 1
æģ Ĩ
åĲ ķ
Am ong
ĠO scar
çĥı åħĭèĺŃ
ãģ§ãģį ãģªãģĭãģ£ãģŁ
v or
Ġb out
ĠëĤĺ íĥĢ
èĭ ĳ
Ġconv oy
Ġt ram
ãĥ³ãĥ ļ
ĠMont gomery
èħ ³
ut ical
å¸¸ å§Ķ
çļĦ ä¸ī
ro e
Ġfast est
Ġbe aring
ãĤ¤ ãĥ¡ãĥ¼ãĤ¸
Ġêµ¬ ìĦ±
Ġdub bed
ãĤ¨ãĥ³ãĤ¸ ãĥ³
ä¹ĭ ä¸Ń
ä»» åĬ¡
Ġstrugg led
ri ft
Ġrec onstruction
Ġcon ce
ĠSt ill
he rent
Ġstrong er
ĠS ullivan
AT O
ĠSp encer
ast ing
çĳŀ åħ¸
is ons
Ġde als
ur bs
ãģĬ ãĤīãģļ
ĠSing les
ìĭľ íĤ¤
ĠEag le
ĠOt to
ov anni
è½¨ éģĵ
æĸ° æ½Ł
Ġ185 8
E tymology
ĠVal ent
Ġwithd rawn
Aust ral
sh ore
Ġjournal ism
ĠM idd
ĠD od
ĠGab riel
ĠC ec
åħ¬ å°º
Ġmunicipal ities
Ġ9 1
ĠÃ Ĺ
Ġ185 1
ĠExped ition
c or
Ġover look
éħĴ åºĹ
ĠJ in
å°¼ æĸ¯
it ting
ĠL ot
éķ· ãģĦ
éĽ Į
åĬ¨ çĶ»
ç¿ Ķ
Ġexpl ore
ell ers
Î »
ĠH ous
Ġle ase
ĠNeb raska
å§ ļ
ingu ished
æĥ Ł
Ġnation wide
ĠT ow
íĭ Ģ
Ġwhe els
Ġor b
Ġstream s
ĠAmb assador
ãĤ¦ãĤ§ ãĤ¤
æľĢå¤§ ãģ®
T om
ãĤ¯ãĥ© ãĤ¹
Ġ )
Ġë° Ŀ
ĠLe ader
Ġìĺ ¨
ãģĭãĤī ãĤĤ
ĠS Ã£o
åı¸ é¦¬
ãĤı ãģ£ãģ¦
Ġon wards
ãĤĴ åŃ¦
190 9
ĠTw itter
Ġde ce
ëħĦ ë¶ĢíĦ°
ãģ«åħ¥ ãĤĬ
èľ Ĥ
ä¹ĺ å®¢
ĠKr ish
Ġconf used
l iga
Ġbene ath
Ġcomp at
Ġgener ate
æĴŃ æĶ¾
é© ±
iz ations
ch ief
ĠClar ke
Ġrep airs
åľĺ é«Ķ
ag ger
ĠS outheast
ĠMan ila
F F
åĩ ¤
æĺ¯ æ³ķåĽ½
ãģ«ãģĤãģŁ ãĤĭ
Ġì ¤Ģ
R ussian
ãĤ¬ ãĥ³
æļ ĸ
ĠI mp
ê¸° ê°Ģ
ĠíĻ ĺ
pl ant
éĿ ľ
ìŀĲ ìĿĺ
æĶ¾éĢģ ãģķãĤĮãģŁ
ĠCirc le
äº« å¹´
ĠLuc as
æĸ°ãģŁ ãģ«
pow ered
ãĥĿ ãĤ¤ãĥ³ãĥĪ
h in
è¿° ãģ®
ëĭ ´
èģ¯ éĤ¦
ĠF ighter
Ġd ock
Ġconst antly
Ġvirt ually
Ġess ay
uck er
ç´Ģ åħĥåīį
ĠK id
Ġre ass
ĠW ool
ç¥ Ī
Ġgirl friend
Ġfurn iture
ĠS ak
éĢ£ çµ¡
ĠThrough out
èİĬ æĿĳ
æĺ¯ æ³ķåľĭ
W rit
ĠO w
Ġun ions
è¾ ħ
d ire
il ian
ĠTh ai
ãĥŃ ãĤ¹
ĠPla ces
Ġadv ised
ĠPl at
ĠìĿ´ ë¥¼
ãĥı ãĥ³
é¡§ åķı
Ġm orph
Ġproper ly
f ol
ĠL ords
Ġbre ed
Ġ9 4
çĭ Ļ
ĠNA SA
ĠìĹĨ ëĭ¤
Ġ7 9
t z
æĸ¹ éĩĿ
ĠRe ading
ãģ« ä»»
æĸ Ĳ
Ġ Ø
çľ ł
ap est
ãģª ãģĹ
Ġtri ps
Ġc ub
çĶŁ ãģį
ãĤ¬ ãĤ¹
M W
w yn
Ġ ãģ¨
Ġlay ers
ãĥĩ ãĤ¤
om atic
ä½į ãģ«
ĠLiber ty
éĥ¨ å±ĭ
Ġst ick
ì į¨
Ġê² Ģ
Ġíĺ ĳ
Ġth rew
ãĥ¬ ãĤ®ãĥ¥
åıĮ æĸ¹
Ġsw ord
ĠT ax
å§ «
Ġlov ed
ãĤĴ åĬł
ĠF BI
ter bury
Ġm aid
åĭ¤ åĭĻ
ãģĮ åŃĺåľ¨
B el
Ġdoct rine
ãĥĺ ãĥ«
ac a
ìĦľ ëĬĶ
ĠH az
Ġìł ĳ
ãĥĸ ãĥ©ãĥ³ãĥī
Ġattra ction
ĠVol unte
ĠR ams
ĠStock holm
ax y
Ġbul k
Ġinterview ed
Ġenc ourag
o il
ĠK rist
ĠAgricult ure
ãĥ¼ãĥ« ãģ¯
Ġsac rif
ĠVenezuel a
Ġanal og
ãĥĦ ãĤ¢ãĥ¼
çľŁ æŃ£
ĠQ ual
M en
b uilt
åĸ ª
Ġass ign
gi ate
) "
ĠRevolution ary
ãĥķãĤ© ãĥ³
å¤ª ç©º
ord inary
æĽ´ åĬł
Ġmilit ia
ol ith
ç² Ĺ
ish a
è³ ľ
S pe
ĠBenn ett
ãĥĩ ãĤ¸
Ġlect urer
ĠMot ors
ç´Ĳ ç´Ħ
ãģĵãģĨ ãģĹãģŁ
W ar
ãĥĥ ãĤ·ãĥ§ãĥ³
çī Ĩ
æ²ĸ ç¸Ħ
ĠJ en
ãģĽ ãĤĵ
ç» ĺ
èī² åĪĹ
çĲĥ åĵ¡
èī² çļĦ
Ġg ymn
Ġninet eenth
c al
ĠF oster
æ¬¡ éĥİ
viron ments
190 5
ãĥ¼ãĥĻ ãĥ«
Ġch ore
st s
atur ally
¶ ģ
å¥½ ãģį
æĸ¹ è¨Ģ
æģ Ń
14 0
isc al
åĿ¦ åħĭ
ĠW atch
Ġcondem ned
Ġ185 6
ĠPrad esh
ĠU A
ĠSc out
Ġconsequ ence
Ġteam mate
ĠC avalry
Ġto m
ĠBe h
ĠCroat ian
ĠAr med
éĶ ¡
ä¿ ĺ
ĠA ires
Ġb icy
19 16
ubl ished
... ]
Ġíı Ń
ĠW onder
Ľ Ī
Ġf lav
ãĥŀ ãĥį
Ġj ournals
ĠBr uns
Ġproport ion
åį ľ
Ġw are
ac ing
ah o
åĭķ ä½ľ
é© ħ
éļ§ éģĵ
ĠEd ition
ĠS ang
ĠKn ights
ĠM umbai
Ġdecre ased
Ġbelong s
ìĹĪ ê³ł
æĹ¥ èµ·
Ġsail ing
Ġc osm
ĠPan ama
Ġra pe
éĺ ģ
ĠConstant in
å§Ĩ æĸ¯
Ġthor ough
ĠRe ed
Ġarg ue
ãģĪ ãĤīãĤĮãĤĭ
Âł Âł
å¡ ¾
ĠE ss
ĠC itiz
ĠSh in
æ¯İ å¹´
3 50
æł ½
å¹ Į
ĠG olf
æ¹ĸ åĮĹ
Ġ íķĺê³ł
ãĤ¨ ãĤ¤
Ġh ull
çº½ çº¦
Ġloc k
ìĨ Ĳ
R NA
å¹ ½
åĽ¢ ä½ĵ
ç¬ Ķ
ĠPort s
ãĥ¼ãĥĲ ãĥ¼
æ± ª
ãĤ¯ ãĤ·ãĥ§ãĥ³
ĠY ellow
æļ Ĥ
M B
Ġman or
íķĺ ë©´
R L
Ġvocal ist
Ġê³µ ê²©
i ated
ĠDire ct
ľ ĺ
ãģ« è¦ĭ
Ġor ange
Ġoccas ional
ĠR aid
Ġë§ ¡
C onn
çĻ¼ åĭķ
ãģ¾ ãģ¨
åĲĮãģĺ ãģı
æĬķ éĻį
æ²¿ éĿ©
Eng lish
Ġcollaps ed
en ess
èŃ°éĻ¢ èŃ°åĵ¡
ĠAdvis ory
Ġf ru
âĶ Ģ
ĠAn y
èĶ £
ĠMil waukee
æħ İ
æľ ´
b ank
Ġspecial ist
æ½ Ľ
ä¸Ń æŃ¢
ãĥŃãĥ³ãĥī ãĥ³
Ġundert aken
ãģĹãģ¦ãģĦãĤĭ ãģĮ
Ġcon ferences
ì¹ ľ
Ġdem ocratic
åı¸ä»¤ éĥ¨
Ġhe m
ãģ¨ èªŀ
ĠF ish
p ic
10 1
Ġê°ľ ë°ľ
Ġstret ch
ĠF lying
íĺ ĳ
Ġmart ial
Ġequ ally
v as
ard ed
ãĥĲ ãĥĥ
Ġquarter back
Ġinterpre ted
ĠJama ica
ĠD anny
Ġìŀĳ íĴĪ
Ġpropos als
out heastern
Ġfer ry
ĠD uc
è¨ĺ æĨ¶
Ġobserv ations
åħ¥ ä¾µ
åıį æĺł
ìĤ¬ ê°Ģ
ï¼ī ãĥ»
çĽ Ĩ
Ġinter actions
Ġh ier
Ġter rain
åĲĪãĤıãģĽ ãģ¦
ç¨ ³
ĠLe ices
ĠCab inet
ĠC ox
Ġaver aged
Ġexp elled
æķ° åŃĹ
ê¸° ëĬĶ
Ġafter math
ãĥķãĤ© ãĥ¼ãĥī
ì¸ ¡
Ġcollect ing
ãĥĲ ãĥ¬
Th ree
æ¬ £
ç© ©
æİ¥ è§¦
Ġportra its
D ou
ĠE is
ĠB ear
Ġmanufact ure
éĦ §
c ul
Ġmin imal
çĲĥ åĳĺ
i w
ĠE RA
ãĤĤ ãģªãģı
Ġabs ent
ä¸ľ åįĹ
Ġg host
ment ed
çª Ĺ
Ġdis agre
æĸ½ è¡Į
ç´Ģ éĮĦ
ĠS yl
ãĤ¹ãĥĪ ãĥ³
Ġar ray
ĠD in
ãĥ¶ æľĪ
ĠCh an
Ġkn ots
å¹¿ åľº
G S
ë¡ľ ë¶ĢíĦ°
å¸® åĬ©
éĢ£ éļĬ
ç¶ļ ãģĳãģŁ
Ġsing ers
off s
Ġwid th
çº ¸
Ġagre es
Ġquestion ed
å¹« åĬ©
Ġh az
Ġíħ Į
ĠC raw
ed ge
æĹ¢ ãģ«
ãĥŀ ãĥª
è¤ĩ æķ°ãģ®
ĠRet urn
ĠL odge
b et
æĬķ èµĦ
æķĪ æŀľ
b ek
Ġtem ples
Ġp ace
Ġd inner
Ġw ound
ãģª ãģ£ãģ¦ãģĦãĤĭ
ĠEd mund
ic ia
Ġdo zen
B er
åĦĺ ç®¡
b one
é£ ¼
E L
g roup
Ġupgrad ed
åŁ· çŃĨ
arri or
ãĤ» ãĤ¹
um ps
Ġmus cle
U p
Ġa f
çĪĨ åıĳ
m us
Ġrej oin
ĠL ink
å·´ è¥¿
éİ Į
it ely
Ġgu ards
ãĥĢ ãĥ³
ens ing
åĬ į
ĠN AS
ĠRay mond
Ġperform ers
é¢¨ æł¼
Ġtop ic
Ġìŀ ĺ
ãĤªãĥªãĤ¸ ãĥĬãĥ«
ine e
iet ies
æĶ¾ æ£Ħ
Ġtri o
iff e
Ġb ord
ãĤħ ãģĨ
Ġgather ing
ĠO wen
å¥³ åĦª
Ġb ore
Ġl ar
ĠS z
st ock
ĠRel ations
äº¤ æ¸ī
çºª å½ķ
æ°§ åĮĸ
æŃ» å¾Į
ĠëĮĢíķľ ë¯¼êµŃ
ãĥ¤ ãĥ¼
ãģ«èĩ³ ãĤĭ
Ġr ally
ä¿±æ¨Ĥ éĥ¨
Ġbu ff
Ġ8 9
Ġo w
ãģ® çĻº
å°½ ç®¡
Ġmyster ious
åŁº æºĸ
Ġte a
ãģĹãģ¦ ãĤĤ
ley ball
æīĭ æ³ķ
ĠS uff
ĠCo ach
Ġunex pected
ãĥ¡ ãĥĢãĥ«
å¹¿ æĴŃ
b uilding
ĠS A
ĠSh ir
åº· çĨĻ
Ġsole ly
ä» ĩ
ĠV iew
Ġr idge
çĭ ©
Ġconvers ation
ĠMont ana
ĠW als
ĠëĨ į
Ġlibr aries
åĩ Ŀ
æİ ĥ
ĠPr ivate
ĠM D
çļĦ éĩįè¦ģ
Ġinvol ve
Ġsp an
ãĤīãĤĮãģ¦ ãģĬãĤĬ
é£İ æł¼
ĠS oci
Ġm all
ĠSc ar
Ġíķĺ ì§Ģë§Į
åĮ ¯
èĩª è¡Į
æ½ Ń
Ġtre as
çļĦ å¤ĸ
æµ ¸
on ne
æĽ´ å¤ļ
ãĤ½ ãĥŃ
Ġprom ise
ĠCop enhagen
Ġdatab ase
ãĥĩ ãĥ¥ãĥ¼
ä½ĵ ç³»
an ing
Ġst roke
åħļ ãģ®
Ġuncle ar
ĠK ur
Ġmin eral
il ion
Ġbe er
åī ĳ
ĠAth letics
Ĳ ëĭ¤
èŀ º
d em
Ġair field
bor g
Ġal umin
C onstruction
åħĪ å¾Į
æľī æīĢ
Ġass ignment
ÅĤ aw
ĠD ale
ĠCamp us
le nd
Ġcommand ing
ĠAg re
ä¼¯ çĪµ
è¾¼ ãĤĢ
le ys
æĮģ ç»Ń
éĤ£ äºĽ
SP N
åł´ ãģ®
Ġtox ic
ail ing
Ġform ula
Ġconsequ ences
ĠPh ot
æģ¢ å¤į
çĶŁ å¾Ĵ
Ġrock et
Ġsal ary
Ġ8 3
ĠT ir
çĽ¸ ä¿¡
åħĪ åĲİ
çĪĨ çĻ¼
çļĦ åĪĨ
ë¦¬ ìĬ¤
l ist
æĹ¥ èĩ³
íĦ ´
om i
ìĽĶ ìĹĲ
éĨ Ĵ
ĠB elf
Ġcertain ly
åı¸ä»¤ å®ĺ
Ġcart oon
c os
U K
Ġvary ing
Jose ph
åĸ® æĽ²
H ung
ĠìĿ´ ëĬĶ
åĽŀ ãģ®
Ġregard less
ç¼º ä¹ı
Q ue
Ġ185 2
Ġb read
å© Ĩ
ie u
Ġent ity
ĠInter state
çģ« å±±
èģĮ ä¸ļ
éĸ¢ è¥¿
Ġemb arked
ãĤ¤ãĤ®ãĥªãĤ¹ ãģ®
Ġìĺģ íĸ¥
p ath
èª ĵ
ìĭľ ì¼
a ire
æľ¬ ç·ļ
ĠScot ia
ĠZh ang
è®° è½½
th ood
ĠK ate
orm al
miss ions
æ°´ åŁŁ
M ad
Ġpo le
ãĢı ãĢģãĢİ
Ġconf irm
S er
ĠJ ava
ãĥķ ãĥªãĥ¼
Ġcirc ular
ãĤ¹ãĤ¿ ãĤ¤ãĥ«
ĠCorn wall
ãĤ« ãĥ³
na issance
Ġdevelop ers
Ġveget ation
ry s
ĠHe ights
ĠMal ay
å¹³æĸ¹ ç±³
Ġsk y
ĠBu enos
Ġcompris es
e or
o que
ĠAd vanced
Ġfa ction
Ġvar ies
ãĥģãĥ£ãĥ³ãĥĶ ãĤªãĥ³
ëĵ¤ ìĹĲê²Į
ãģ«ãģĬãģĦãģ¦ ãĤĤ
éģ µ
f irst
ctor ate
çĭ ¼
ãĤ¹ ãĥĳ
è§ ¸
Ġadopt ion
æ¤į æ°ĳ
Ġpriv ately
Ġrenov ation
Ġcab in
t age
ä»¥ ä¾Ĩ
å¸ ³
Ġop ens
pr ises
å»£ æĴŃ
æ½ľ æ°´
ãģ²ãģ¨ ãģ¤
" _
Ġshall ow
ãģ® éĸĵ
åĲĪ åĲĮ
al ions
ĠP rison
å¯¾ çŃĸ
Ġs in
Ġpen et
ãģ® ãģĵãģ¨
qu et
Ã© r
Ġg rain
Ġbatt ing
æħ °
éĹ Ń
æľĪ åĪĿ
æĮĳ æĪ¦
æģ¢ å¾©
åľ¨ å¤§
ĠFer dinand
cons cious
Ġh ide
H P
Ï ĥ
Ġc la
Ġëĭ¤ ìĿĮ
Ġflood ing
Ġ ibn
ĠC and
è¡ĮãĤıãĤĮ ãĤĭ
ĠC ant
æĮģ çºĮ
ãģŁãģ¡ ãģĮ
íģ ´
ro le
ĠSt ef
å¸Į èĩĺ
Ġhydro gen
ãģĭ ãģĨ
Ġnation ally
çĴ ĥ
ãģ® ãģ«
ict ory
ãģĵãĤĮ ãģ«ãĤĪãĤĬ
äºº çĶŁ
ĠSe an
e u
Ġam ph
Ġown s
ĠBruns wick
çĶ ¸
uch y
æĹ¥æľ¬ èªŀ
è¼¸ åħ¥
ĠL ost
ĠNew port
çħ ¤
åįķ æĽ²
ĠR ut
èĩ³ å°ĳ
Ġê· Ģ
éĿŀ æ´²
Ġm asc
ãĥ« ãĤ¤
ä»¥ èī²åĪĹ
be at
ov an
Ġin tend
ä¸» åĤ¬
Ġautom atically
Ġd uration
l ia
12 5
ĠOak land
çī ²
Ġnumber ed
Fran k
ĠK in
Ġíĸ ¥
ĠT odd
iv ities
å±± ä¸ľ
å¥³ çİĭ
Ġby pass
ç±³ åĽ½
Ġachie vements
Ġac oustic
ãĥª ãĥ¥
åģľ è»Ĭ
Ġë° Ģ
åĭ §
åĲĪ çī©
è³ĩ æľ¬
åħĪ çĻº
Ġclos est
æĽ´ ãģ«
ĠP i
ãģ« éģ¸åĩº
ãģ§ è¡ĮãĤıãĤĮãģŁ
v ised
ĠL or
çĽ® æłĩ
is i
ãĥŁ ãĤ¢
Ġsurf aces
M D
æĽ Ĩ
ĠEm ma
æĬĹ èŃ°
ĠPro duction
Ġoppos ing
os lov
al in
å¼Ł åŃĲ
B us
ĠR ush
duct ive
Ġdes ired
ãģĿãģ®å¾Į ãĤĤ
Ġtrib al
åįĢ çļĦ
ucle ar
C S
ĠR overs
Ġsac red
åĮº çļĦ
In f
ĠP age
æĢ§ ãģĮ
ĠAzerbai jan
åĩºèº« ãģ®
ãģĿãģ®å¾Į ãģ¯
Ġdiscuss ions
åŁº åĽł
äºĭ åĬ¡
Ġinc idents
ern ess
ĠM ang
um mer
çģ ¾
am ine
ãĤ« ãĥ¬
st ed
ãĤĴ å¤±
Ġexpl oration
ãĤĴè¨ĺéĮ² ãģĹãģŁ
æ³ķ çļĦ
cy cle
ĠD rama
orpor ated
ĠN ak
Ġqu arters
ĠArt ists
ä¼ļ åĵ¡
ĠDe uts
åħµ åĻ¨
é¢ ģ
æĬ« éľ²
å¸Į èħĬ
Ġinvestig ated
åĲį ç¾©
ĠëŁ ¬
Ġm ic
Ġcrit eria
Ġad equ
Ġcol ours
å°ıãģķ ãģª
ix ed
ãĤ¹ãĤ³ ãĥĥãĥĪ
Ġcolon el
å¾Į çļĦ
190 7
Ġpe er
çĭ ±
ess a
Ġconsider ably
N or
ĠRab bi
åĮĸ çŁ³
éĻĲ ãĤĬ
åħ¬ çĪµ
E very
Ġanch or
Ġconf usion
ĠV o
çĪ¾ æĸ¯
re ation
ëĲĺìĹĪ ê³ł
el ong
è¡ į
Econom y
ph is
æıĲ åĲį
ash ire
ìĿ ĳ
ãģĦ ãģĨ
éłĺ åľŁ
Ġn erv
Ġadvis or
ĠAn cient
ãĤŃ ãĥŃ
Ġ185 3
ìĻĢ ìĿĺ
ãģĵãĤĮ ãģ«
é¦ ®
ìłķ ìĿĦ
ĠB ak
el ly
ĠB od
ãĥĪãĥª ãĥĥãĤ¯
Ġb er
ä¸» ãģª
éģķ ãģĦ
Ġw ake
ãģª ãģĭ
ë¡ľ ëĬĶ
ect s
S m
Ġpol ar
ĠProvin cial
ãĥ¼ ãĤ¼
ĠG ener
Ġpres ervation
å½¼ å¾Ĺ
L B
it ory
ĠìķĦ ìĿ´
ãģŁãĤģ ãģ®
ì´ Ŀ
c ount
å®ī å¾½
æł¡ éķ·
Ġfar mer
Ġoverw hel
Ġ LI
å¤§ éģĵ
æķ´ ä¸ª
ph al
Ġdi ocese
çĭ Ĺ
t or
åĴĮ åħ¶ä»ĸ
çŁ Ľ
ĠP and
ë¦¬ ê°Ģ
Ġre actions
Ġexplan ation
Ġoper ators
èº« ä½ĵ
ĠFour th
ĠN ine
é µ
re ens
ì µľ
Ġstri kes
Ġtour ists
Ġrein force
è¢« è¿«
æķ´ åĢĭ
Ġmon arch
Ġar bit
çµ± è¨Ī
av el
ãģĻãĤĭãģĵãģ¨ ãģ¯
æ¹ ¿
W W
ãĤ¸ ãĥ¼
ä¹ĭéĸĵ çļĦ
ĠArgent ine
Ġcom ics
Ġassass ination
ill on
Ġtra ff
ä¸ ŀ
ìĹĲìĦľ ëıĦ
ac ional
ĠMore over
ĠM obile
Ġwe aken
Ġconqu est
è¡Ľ éĸĢ
Ġdet erior
ĠIn g
ãĥķãĥ© ãĥ³
ĠW inn
å¹³ åĴĮ
Ġrecon c
çļĦ ä½ľåĵģ
Ġëĵ± ìĿ´
y cl
ro vers
ĠIs le
ĠEst ate
Ġgraph ics
ĠS ox
Ġë³ Ħ
in ite
å»º èŃ°
åįĶ å®ļ
ãģĽ ãģ¦
ĠBr ussels
3 000
ap pro
è¡Į ãģ£ãģŁ
åĪĳ äºĭ
Ġmission ary
ĠR ight
æ° ·
Ġstep ped
Ġacc us
rid or
Ġinstru ctions
h im
åįĹ æ¥µ
ĠCan terbury
å° ¹
ĠGeorg ian
ĠDur ham
Ġdist ant
ask at
åĭķ åĬĽ
R oman
Ġl ying
ĠSomers et
å©ļ å§»
ĠC ut
Ġ18 49
ãĤĴ åĽ³
äººæ°ĳ æĶ¿åºľ
Ġconfig uration
g rand
ë ĸ
190 8
ç¡ «
Ġwithdraw al
ĠL em
ä¸Ń æľŁ
åºĶ çĶ¨
Ġfr ust
M arch
é«ĺ ç´ļ
ĠDev on
Ġpartic les
ìĦ¸ ê¸°
ë¦ Ń
ãģ® ãĤĴ
ë¦¬ ìĹĲ
ä¹ĭéĹ´ çļĦ
ãģ¨ è¦ĭ
ĠL akes
ç¨ ħ
ëĵ Ŀ
M ore
åĩºçīĪ ç¤¾
ia z
ĠF at
k an
æĩī çĶ¨
Ġcust oms
ĠW here
å½ĵ å±Ģ
ĠPrinc eton
ĠW alt
ãĥ« ãĥ¼ãĥĪ
å¼Ģ æĶ¾
Ġread s
çĩ Ī
Ġsequ ences
Ġê° ĸ
æĽ¿ ãģĪ
Ġmom ents
Ġsc hem
æ¶Ī éĺ²
å¼ ĵ
ĠArt ist
ĠL ak
çĤº ä¸»
Al so
Ġí ŀ
åĲĮ æĢ§
Ġgovern ed
. )_
ãĤĴéĢļ ãģĺãģ¦
ãģ¨èĢĥãģĪ ãĤīãĤĮãģ¦ãģĦãĤĭ
è³ĩ è¨Ĭ
åĦ ²
ĠìĿ¼ ë°ĺ
æĭ Ŀ
ĠComp an
ãģªãģ© ãĤĤ
amp les
ĠHol mes
âĤ ģ
ĠëĮĢ íĨµëł¹
Ġen vironments
ãĥĥ ãĤ±
ãĤĤãģ® ãģ¯
Ġdepict ing
Ġl ung
ìŀ Ī
S mith
mm et
æķħ éļľ
Ġcan cel
çĽ ¡
Ġcruc ial
éĢ£ æİ¥
oin ts
ĠAmend ment
åł ª
Ġw atched
å£² ãĤĬ
ap ur
ĠO S
c ano
und a
Ġinnov ative
ç¨® ãģ®
G old
ëĮĢ íķľ
éĢ² åĩº
ethe less
Ġc rack
ĠB A
éļ ĭ
ãĥĽ ãĥĨãĥ«
Ġìĸ »
ĠC row
ĠìłĦ íĪ¬
å¾¡ åı²
çļĦ åİŁ
è¦ ½
åįģ ä¹Ŀ
åįļçī© é¦Ĩ
te chn
ãĤĴéĸĭå§ĭ ãģĹãģŁ
od ing
íĸĪ ìľ¼ë©°
alt ies
èĻ Ĳ
al am
ĠFran z
éľĢ æ±Ĥ
Ġs or
è²ł ãģĳ
ãĥĥ ãĥĶ
ãĥ¬ ãĤª
ĠBro s
ux ili
F S
ä¸ĸ ãģ¯
un al
è§Ħ å®ļ
çŁ¥ ãĤīãĤĮãģ¦ãģĦãĤĭ
æ£ Ł
T w
ĠArm strong
éĢ Ĭ
l ies
Ġpl anted
Ġintro duce
æľĢ ä½İ
Ġeg g
Ġreleg ation
ĠStev ens
åĮĹäº¬ å¸Ĥ
i ago
å¸« åĽ£
Ġse al
ĠG T
Ġk iss
å¹¿ å·ŀ
Ġfer til
Ġrev ived
ĠBened ict
ãģ«å¯¾ å¿ľ
åĲĪ å¹¶
Ġ ic
ĠB uc
åŁ ¼
ãĤ¬ ãĥ¼
Ġë§ ī
Ġgovern ing
Ġbankrupt cy
ĠIndian apolis
ĠP ly
ç»Ĩ èĥŀ
å±± å¤§
Ġl ib
qu al
åĲ¦ å®ļ
ĠF ly
ĠD ame
Ġag gressive
Ġun con
Ġpit ched
Ġa rose
ãĤ¤ ãĤ¢
åį³ ä½¿
Ġbor row
Ġrenov ated
ĠK ol
æ©Ł ä¼ļ
ĠR oth
æŃ¦ å¸Ŀ
Ġ á
æ¼Ķ åĵ¡
ibl ical
air y
d ied
Ġir reg
Ġswe et
in as
ĠE ve
èµ ı
f r
ì ĵ°
å¤ª éĺ³
ãģ« åıĸãĤĬ
æľ« æľŁ
åįĶ èŃ°
ĠAh med
h op
å¸ ½
Ġdyn amic
éĵ ľ
å»£ åł´
in ts
velop ed
iction ary
g ra
ugh t
ĠJac ques
ĠNot tingham
ĠRepresent ative
us a
çļĦ å·¥ä½ľ
ĠN ancy
ĠK or
ĠIn stit
ri er
æ¼Ķ åĳĺ
ãĤ· ãĥ¼ãĥ³
Ġgraph ic
H T
ä¸Ģ éĥİ
ang ered
Ġm arri
ĠS E
Ġhit ting
åŁĥ åıĬ
ĠSeb ast
è½ ´
Ġcap abilities
if ax
c ock
ä¿®éģĵ éĻ¢
ĠCh i
) )
Ġr ational
Ġ18 47
ĠPro p
Colle ge
Ġcompris ing
ãĢį ï¼ī
ĠPresbyter ian
Ġcomp ounds
ãĤī ãĤĴ
Ġvic inity
Ġ ãĢĪ
Ġë³ ¼
é¡ ķ
Ġcons ensus
Ġí Ĥ
Ġmet ab
è®¾ ç½®
å¼· åĪ¶
ãģ® ãĤµ
Ġmolec ular
Ġneigh b
Ġboard ing
ãĤ·ãĥ§ ãĥ³ãģ®
ãĤĦ ãģĮ
ãģ¨ æĶ¹
åħ· ä½ĵ
ĠìĿ¸ êµ¬
190 3
æĸ¯ å¡Ķ
Ġhost ing
ĠEv angel
ĠM ine
ĠL GBT
æŃ¤ å¾Į
æŃ¤ åĲİ
æĮī çħ§
in ished
ĠV ern
ãĤĤ ãģĹ
ãĤ·ãĥ§ ãĥĬãĥ«
Europe an
ĠGu ards
Ġpers ec
Ġpred ict
æ» ¨
æĶ¾ å°Ħ
Ġh ook
ç¥ Ĳ
ĠGene va
Ġbo ost
es ters
al an
Ġst air
åĸ «
ins ky
Ġj ack
Ġinter ven
ĠLa ura
Ġchap ters
ust ers
Ġê´Ģ ê³Ħ
ol ine
å®Į æķ´
c ourse
Ġregist ration
ĠC ort
æĪĲ æŀľ
Ġto b
çĶ· å¥³
Ġblock ed
Ġmonitor ing
è¾¼ ãĤĵãģł
è´¸ æĺĵ
Ġfre ed
ç¹ģ æ®ĸ
èħ °
ç·¨ åħ¥
ĠR anch
Ġinter mediate
ãĥİ ãĥ«
è§ Ī
ãĤĴ éĢ²
Ġterrit orial
Ġpoor ly
b est
Ġëĭ ´
Ġadvent ure
æĴ ²
å¾Ĺ çŁ¥
ë§ Ĳ
å»º è®®
th ree
Ġn ose
ä¸į ä¼ļ
ä¸į æľĥ
Ġë© ´
h urst
Ġwe igh
ĠRon ald
åĽŀ å¾©
r n
ç¶ ľ
åĨ Į
G reen
ĠP ath
èĴ ²
ãĥ¡ ãĥ¼ãĤ«ãĥ¼
ĠAp ost
ĠSus sex
Ġdiscip line
Ġabsor bed
per t
èĤ º
æľ¬ æł¼
ãĥĬ ãĥł
ĠH ull
Ġpre lim
ĠìĽ Ķ
ä¹ĭ åŃĲ
ãģ« æ¸¡
im er
w ind
Ġk ids
Ġarchitect s
ĠPer formance
æĸĩ çĮ®
Ġlegend ary
ãģ¤ ãģĳ
Î ¼
Ġfem in
enn ium
av ian
Ġprem ises
ĠLanc ashire
Ġsub t
æĻĤ ãģ¯
y ll
Ġmar ble
ĠSt ore
ä»Ļ åı°
ĠC R
Ġkind s
Ġt ale
ãģ« è²¢çĮ®
çļĦ ä¸Ń
Ġc ott
w oman
Ġbut ter
Ġcurren cy
ĠD ata
es ar
å»£ å·ŀ
éĢı è¿ĩ
çľģ çļĦä¸Ģä¸ª
ĠC IA
Ġf la
ç¥ŀ å¥Ī
æİĪ äºĪ
ç¬¬äºĮæ¬¡ä¸ĸçķĮå¤§ æĪ¦
j ust
Ġpres idency
æĭī ä¸ģ
Ġaut hentic
Ġarg uing
Ġra ids
æĤ Ł
b oth
op ic
Ġprohib ited
ãģĮ æ®ĭ
Ġcon ceived
B r
ĠChel sea
nes day
çľģ çļĦä¸ĢåĢĭ
åħ¨ ãģı
Sh ort
ĠAmaz on
ç»ı å¸¸
äº Ģ
190 6
ĠCath olics
ĠG am
ĠLe ft
äºĨ è§£
Ġmanif est
åĨį éĸĭ
ĠBC E
ãģĦãĤı ãĤĨãĤĭ
ĠEngine ers
ãģ¨ åĲĮ
çĲĨ æĥ³
M G
ĠGl ou
åį± éĻº
ĠA w
Ġf ires
K e
Ġbul let
ĠP ain
B oth
ish i
Ġmon ks
ĠComp etition
Ġdress ed
æī¾ åĪ°
ĠR af
ĠMus ical
ãĤĴå¾Ĺ ãģŁ
ëŀĢ ëĵľ
Ġhar ass
çĲĥ åŃ£
il o
Ġcopy right
ä¸ī åĢĭ
ĠPhil osophy
ĠStud y
la us
æ¾³ æ´²
ãģ® åīį
Ġ18 46
ĠN C
ĠL ar
ä¹Ł åı¯ä»¥
çĭ Ħ
æŀ ¢
ë² Į
Ġst yl
ĠCub an
ĠK ill
ãĤ¨ ãĥįãĥ«
uch i
Ġem igrated
ĠTun is
çĦ¶ åĲİ
ac hers
å± ł
ĠFilm s
Ġn avy
ä¸¤ äºº
Ġconsider ation
ĠMar io
Ë Ī
ĠMig uel
ä¸Ģ æ®µ
Ġe ating
æı Ń
ãĤª ãĥļ
ä¸ī ä¸ª
ĠSaf ety
ĠKing ston
íĿ ¬
ĠIn stitution
ìľ ¨
Ġsp ite
â ĺ
ran o
Ġsens itive
èį ĺ
ard i
L ove
ĠF ras
Ġf atal
190 1
Ġaccord ance
Ġap olog
ĠM ead
Ġshe et
oc ate
ç² ¹
Ġalgorith m
ĠDav ies
Ġins isted
ĠN g
åľŁ èĢ³
ĠCa uc
ĠC ust
æ¯Ķ è¾ĥ
ĠIndones ian
onn ie
çļĦäººåı£ ä¸º
çĮ ª
abl ing
Ġline up
çĦ¶ å¾Į
J ean
ãģĹãģŁ ãģĵãģ¨
æĹ¥ å¸¸
Ġë ī´
ne ver
ĠL A
ĠP ick
aj i
as m
æĺ Ķ
Wh ite
ĠëĮĢ ë¶Ģë¶Ħ
Ġimport ed
å½¢ ãģ®
çļĦäººåı£ çĤº
å½¢ è±¡
ç¶ĵ å¸¸
M er
çļĦ æµ·
Ġas ide
è¯¥ å¸Ĥéķĩ
å°ĳ æķ°
ãĤ¤ãĤ¹ ãĥ©
R ou
ä¸Ģ ç§į
ìĦ± ìĿ´
åĽł ç´ł
Ġguar ant
è©² å¸Ĥéİ®
ov sky
å½ĵæĻĤ ãģ¯
æĶ¹ è®Ĭ
S ing
ä»ķ æ§ĺ
Ġê´Ģ ëł¨
åħ© äºº
j ud
ur as
æ¼ ı
7 50
ĠM am
ĠDyn asty
ë Ĩ
åľŁèĢ³ åħ¶
ĠT at
av ier
olog ically
iment al
ĠTas man
Ġ3 50
ãģĻãĤĭãģĵãģ¨ãģĮ ãģ§ãģįãĤĭ
ĠObs erv
ist ani
ĠMaur ice
ĠWW E
I tal
å®ī å¾·
è¿ŀ æİ¥
ĠRom ans
è¡Į ãģĨ
éĥ¨ ä»½
Ġmechan isms
ĠI S
æĶ¹ åıĺ
ãģ¨åĳ¼ ãģ¶
éĺ ľ
ĠA aron
è¾ ½
Ġt aste
ĠR ice
ĠJ ak
åľĭ çļĦ
Ġpred icted
ç¾½ æ¯Ľ
æī¹ è¯Ħ
ä¸ī éĥİ
ãģ£ ãģ
Ġsk ull
ãģ¨ ãģ¿
ìŀĲ ë¥¼
ris ing
O ct
ä»£ æĽ¿
ç¢ ³
Ġcon tend
çĲĥ åł´
Ġpre val
ane ous
is ers
ap a
æĪ° å½¹
Ġinvestig ations
ç¢º ç«ĭ
ĠĠĠĠ Ġ
Ġë°ľ ê²¬
ç¹°ãĤĬ è¿Ķ
Ġknock ed
can ic
Ġs urn
Ġrem n
Ġ" ...
Ġsc attered
Ġt ension
Play ing
çĶ° ä¸Ń
ìĿ¸ ìĿĺ
ĠSub sequently
Ġsuff er
Ġhand led
Ġdis abled
Ġbas ement
ic ular
ag le
Ġro ok
èģ· åĵ¡
Ġdemonst rate
í ĮĢ
å®¶ äºº
â Ĺ
Ġre lay
iz ard
çĽ® ãģ«
ĠOut standing
åľ° ãģ¯
lik ely
ìĬ ¨
Ġl ip
ĠX I
êµ° ìĿĺ
ĠV oice
Ġcust ody
Ġdistingu ish
im ity
Le ague
ĠAndrew s
U SA
Ġob vious
Ġì± ħ
Ġhypothes is
åĵģ çīĮ
Ġcor poration
ĠLuther an
ĠP ink
ĠDist inguished
ä¼ Ł
Ġrival ry
çħ§ çīĩ
ãĥ¼ãĥĩ ãĥ³
Ġmanuscript s
Ġsurrend ered
èĵ Ħ
å» Ī
ãģĿãģ® ä»ĸãģ®
ĠN ATO
Ġmat ure
Ġcl erk
ãĤªãĥ¼ãĤ¹ãĥĪ ãĥªãĤ¢
f ile
Ġtw entieth
Ġout come
éĤĦ æĺ¯
Ġl aps
ãĤ¨ ãĥ¬
ĠìĥĿ ê°ģ
ìŀĲ ëĬĶ
ĠMach ine
èĩª æ®º
Ġpre t
Ġphys ically
ĠBat man
on ed
Ġst abil
Ġun c
çİĩ ãģ¯
å®¶ çļĦ
Ġjoin s
ym ph
Ġqu e
Ġdiagn osed
S y
Ġproceed ings
U P
æ¬¡ å¹´
ĠCard iff
çĶŁ æħĭ
Ġbomb s
éļĽ ãģ«ãģ¯
ar u
ĠM ail
Ġadv ocated
T ur
ãĥĪãĥ© ãĥĥãĤ¯
åľĭ æľĥ
ãĤ¹ãĤ¿ ãĥĥ
intend o
Ġv ig
ĠFell owship
Ġz ones
ĠGh ost
Ġv ault
Ġ18 12
éĢ² æĶ»
èĦ Ĭ
ĠM ik
ĠPl ate
æĪĺ å½¹
é¼ ł
Cl ass
M V
w ord
ĠT iger
Ġë ľ
èĦļ æľ¬
Ġnav ig
ĠDes ert
ä¸Ģ åº§
ĠT alk
ãģ¨ ãģķãĤĮãģŁ
ĠF lag
Ġleg ally
å¤© ä¸ĭ
åįĶ åĬ©
ag ram
Ġblack s
ĠF oot
Ġz h
Ġgrand mother
åįı åĬ©
ë ¸Ķ
ĠM Ã©
pr us
Ġinstru ctor
Ġpian ist
Ġoccur ring
ĠA A
æľĪ çļĦ
ãĥ¼ãĤ¯ ãĤ¹
Ġsculpt ures
Ġworksh op
éĢĢ å½¹
è© °
çģ Į
ãĥīãĤ¤ãĥĦ ãģ®
Ġb ones
å¤§ èĩ´
Ġra w
é¨İ åħµ
ens en
è®¾ æĸ½
qu in
çĳŀ å£«
Ġorient ation
åħ¬ å®ī
åģ ·
ĠMar ines
é¡ ı
å¾© èĪĪ
èĻķ æĸ¼
ãģ¨ çµĲå©ļ
å¹´æĹ¶ çļĦäººåı£ä¸º
V al
Ġsc ope
ĠT ree
Ġim pression
Ġrec onst
ĠPunj ab
p ay
ãģłãģĳãģ§ ãģªãģı
Ġo ct
è¿ĺ æĺ¯
è¨Ń æĸ½
ç·ļ ãģĮ
å¹´æĻĤ çļĦäººåı£çĤº
Ġmill ions
ĠM ing
Ġcal endar
ìĬ¤ ë¥¼
ĠEd ge
ĠLe x
ĠAr senal
H y
æĶ¿åºľ çļĦ
lu ence
ĠRh ode
å¸Ĥ åĨħ
å£« ãģ®
ãĤ³ãĥŁ ãĥ¥
ĠHe ath
è¬Ľ å¸«
_ âĢ¢
Ġg arn
ĠBas in
Ġmater nal
em por
æŃ£ éĿ¢
ä½ľåĵģ ãģ®
ĠH ir
åŃ¸ èĢħ
é¹ ½
èĳ¡èĲĦ çīĻ
Ġ ion
Ġpil grim
Ġmeas uring
éĻĨ åĨĽ
ul ates
oph one
éĤ ĵ
ĠX X
Ġen orm
Ġacc laimed
Ġtrans formation
ç¾¤ å³¶
èªŃ ãģ¿
hold er
L D
Ġreb el
art z
pro duced
ĠCr us
éķ· å´İ
h as
é© ¶
ç¬ ł
Ġexam ined
åĪĨ éĴŁ
Ġì§Ģ ë°©
ç¥ŀå¥Ī å·Ŀ
Ġre habil
çĶŁ æĪĲ
kins on
imens ions
ĠAgre ement
Ġbi ology
æŃ» åĪĳ
ãģ£ ãģ¨
ac ular
æĸ° çĸĨ
er als
Ġep id
åħ« å¹´
n on
ãĤĴ ç½®
ëĮĢ ë¥¼
åı¯èĥ½ ãģ§ãģĤãĤĭ
éļ ±
â Ħ
Ġver te
Ġcam eras
B rien
Ġremov ing
ters hire
åīµ éĢł
ãĤĭ ãģĮ
Ġhealth y
äº¤ å·®
ìĦ ¼
ĠK ra
Ġdr ives
ĠLou ise
ĠCzech oslov
Ġf ier
ĠSem inary
ãĤ¹ãĤ¿ ãĥ³
Ġp in
ãĥ¬ ãĥĥãĥī
ator ial
ĠAl tern
ãĤ³ãĥ³ãĥĶãĥ¥ãĥ¼ ãĤ¿
åĲĪ æł¼
Ġsuperv ision
ç³ §
ĠWood s
ĠK as
ĠSh op
è®¾ å¤ĩ
åıĸ å¼ķ
å¥Ī èī¯
oy le
Ġh ur
R ob
åĪĿæľŁ ãģ®
ĠJohann es
åĪĻ æĺ¯
Ġce iling
è£½ ãģ®
ĠTrans it
ĠFa ith
åľ°åŁŁ ãģ®
ĠS askat
Ġf antasy
åį° è±¡
ed o
g overnment
Ġë¬¸ íĻĶ
Ġc ant
´ ´
æŁı æŀĹ
ãĤ¹ ãĥŃ
ad al
Ġ ãĢĮ
Ġtact ics
Ġtonn es
im mer
Ġens emble
Ġtop ped
E le
ĠAh mad
Ġep it
ãĤ² ãĥ³
Ġround ed
Ġlif estyle
ĠO z
çĽ Ĳ
h ow
amp ed
ĠTh orn
ãģªãģı ãģªãģ£ãģŁ
ä¸ĬãģĴ ãģŁ
ä¸Ĭ ä¸ĭ
Ġliter ally
éĩį è¦ĸ
éĥ¨ ãģ¯
ĠMalt a
ãĤ³ ãĥ³ãĥĨ
å¤© æŃ£
éĺ ħ
ĠëĤ ł
è§Ħ åĪĴ
ik es
çĸ¾ çĹħ
åŃ¦ ãģ®
å¢¨ è¥¿
ĠE t
íĬ ¹
ĠWed nesday
è ł
æŃ£ ç¢º
ä¿Ŀ å®ī
L ittle
Ġaud ition
é¦ĸ åħĪ
ĠìĤ¬ ìĭ¤
æ¨© åĪ©
Ġrend ered
im an
up e
ëªħ ìĿĺ
åĲĮ æł·
é· ¹
Ġvulner able
åŃĲ ãĤĴ
Ġped est
å¤§ å¤«
Ġf inger
add y
Ġmerch ants
ĠC u
åĳ¨ åĽ²
æ¬¡ ãģ®
æ·± åľ³
ĠìĿ´ ìĹĲ
sc reen
æ±½ è»Ĭ
any on
ìĸ´ ëĤĺ
éĸ ±
æ¸ħ æ°´
å¸Ĥ è¡Ĺ
C H
Ġind oor
Ġread er
art et
ĠK em
åĪĨ éĲĺ
ä»¥ åĲİ
Ġb ats
Ġp unk
ĠAbor iginal
å½ĵ ä¸Ń
æĹ¥ ãģ¾ãģ§
çĩ Ĵ
ĠL iv
ĠPet e
ç¬¬ä¸Ģæ¬¡ ä¸ĸçķĮå¤§
åĲĮ æ¨£
é¢ ľ
ĠI BM
Ġtheore tical
L et
Ġ16 0
æ¯Ķ å¦Ĥ
yl um
ĠGrand e
he ars
ãģ£ãģ¦ ãģįãģŁ
ĠSher iff
5 000
h ouses
Ġg ates
æ¤ľ è¨İ
it ative
Ġs its
el age
ãĤ³ ãĥ«
ĠGib son
found er
ãĤ· ãĥĬ
å¸ĥ æĭī
mark et
ä¾¡ æł¼
ĠQu arter
ĠL isa
Ġin clusion
Ġden omin
Ġwild life
æĹ¥ ä»ĺ
ĠChap ter
éģ ľ
Ġaccident ally
Ġhorizont al
B en
ãģĮ åħ¥
ç» ¼
ĠM eh
ĠBelg rade
ĠJul ian
idel ines
Ġnot ion
ew ise
Ġtr ig
æ¸© åº¦
ĠEll is
ä¸ĭ éĻį
ĠE ff
Ġquant um
ĠWith out
ĠPre fecture
ĠS isters
éķ· ãģ¯
çķ¶ ä¸Ń
ĠWrit ing
çĶ» å®¶
é§ ķ
Ġun ited
åĩĨ å¤ĩ
ãĥķãĤ©ãĥ« ãĥĭãĤ¢
Ġtob acco
Ġremark able
ä½ľ åĩº
æĹı ãģ®
æŃ¥ åħµ
Ġt ruly
è³ Ī
æĭĴ ç»Ŀ
Ar thur
ĠAlban ian
n ai
B re
éĢ ¼
Ġconspir acy
b ase
U R
Ġeigh teen
åĲĪ æµģ
Ġexpl ored
Ġhon ours
Ġdirect ing
Ġpay ments
ĠV ari
Ġprov en
ĠPla za
Ġabsol ute
squ are
Ġch orus
man uel
ett es
ãĤĦãģĮ ãģ¦
ãĤĴ åıĤçħ§
St ate
Ġappre ci
Ġspec ified
Ġ[ ...]
é§ Ľ
Ġarg uments
èĢĮ è¨Ģ
com p
ĠL oren
ĠìĦ Ŀ
ĠM az
æ¾ Ħ
ang o
ĠBl oom
Ġd ors
Ġan ten
ĠSp ider
äºº ä»¬
ìļĶ íķľ
é½ ¡
èĪĪ å»º
æ¾³ éĸĢ
Ġlist ing
Ġqu it
éĽ į
Ġpromot ional
äºº åĢĳ
E ach
ĠBrad ford
ä¾µ æĶ»
Ġfac ade
Ġactiv ated
Ġe ar
Ġinaug urated
Ġcent ered
ç§ ©
Ġbox ing
ĠV III
Ġbelie ving
c ot
ãģĪ ãĤīãĤĮ
ĠC ert
éº Ł
Ġresc ued
æŃ© åħµ
ĠEm b
ĠM ull
ĠAl pha
èĢĥ åı¤
ĠB ru
Ġst int
çİĩ ãģĦãĤĭ
ĠBrook s
åĮ ł
å°ı è¡ĮæĺŁ
Ġn a
ãĤ³ãĥŁãĥ¥ ãĥĭ
ãģ£ãģ¦ãģĦãģŁ ãģĮ
ĠArchitect ure
g reen
ãĤī ãģĹ
Ġê²° ê³¼
T ax
åīĩ æĺ¯
éģİ ãģİ
ĠB ark
ãĥĸãĥ« ãĤ¯
Ġunve iled
Ġp ig
Ġsc ar
ĠLithuan ia
ic z
Ġn aturally
è¦ª çİĭ
Ġsport ing
Ġrain fall
é©¬ æĿ¥
çľģçļĦä¸Ģä¸ª å¸Ĥéķĩ
è«ĭ æ±Ĥ
ĠKer ala
Ġbl ues
Ġprelim inary
ill ance
ç»ı èĲ¥
æĭĴ çµķ
Ġab ortion
åº¦ çĽ®ãģ®
ist ence
æĦĽ çŁ¥
Ġ18 20
ãĥª ãĥĴ
Ġbr ut
íĹ Į
ĠT ask
ãģ¦ãģĦãģŁ ãģĮ
Ġm ad
çľģçļĦä¸ĢåĢĭ å¸Ĥéİ®
Ġnecess arily
Ġdeploy ment
ah an
Ġdon ations
Ġsubst ance
Ġfe eding
çľģ å§Ķ
æĤ ī
éĽ Ģ
éĻį ä½İ
å¦ ĸ
app a
Ġterror ist
is ode
ä¿® æĶ¹
od or
Ġpropag anda
ĠC F
ĠH ass
Ġeng ra
è³½ äºĭ
æ¤ İ
æĺİ ç¢º
Ġsocial ist
ãģĮ èµ·ãģĵ
B attle
Ġrespons ibilities
æĻ ©
ãĤĴ éĢĢ
å·¨ å¤§
ant le
ëıĦ ë¥¼
Ġdr unk
ãģª ãĤı
Ġplan es
åľ¨ é¦Ļæ¸¯
Ġaer ial
ç¨ į
ĠSe x
s elling
ĠV il
æĸ¹ çļĦ
Ġ18 45
å°Ĥ çĶ¨
åħ´ å»º
ł ëĭ¤
Ġp ink
Ġ3 60
od s
ãģ¡ãĤĥ ãĤĵ
ĠCh ancellor
ãĤ¸ãĥ¥ ãĥĭãĤ¢
Ġfacilit ate
æĴ «
Ġhar bour
ov es
Ġf ract
B eg
T er
Ð ´
Ã °
Ġagre ements
éĸĭ è¨Ń
ãĥ¼ãĥį ãĥĥãĥĪ
Ġdevelop er
D ay
S H
æĿĤ å¿Ĺ
as ium
é§ Ĵ
Ġprevent ing
Ġrev olt
ĠGl ass
ĠR an
ç¦ı å³¶
ãĤ«ãĥª ãĥķãĤ©ãĥ«ãĥĭãĤ¢
å¹³ åİŁ
ç± Į
è©¦ ãģ¿
ëł¸ ëĭ¤
Ġprem ier
é£ŀ è¡Į
Ġdisappe ar
ent o
ĠAgain st
ĠìĦ¤ ë¦½
è«¸ å³¶
å®¶ ãģ«
æľĢ å¾Įãģ«
åĨ Ī
ĠP iet
ĠPly mouth
ar ians
ist le
å¹´ãģ« ãģĭãģĳãģ¦
ãĤ¢ ãĥŀ
ĠV eter
ĠSh ield
åħī ç·Ĵ
ĠLe op
ãĥªãĥ¼ ãģ®
ild a
Ġmot if
ĠDun can
ĠA my
ĠìĿ´ ê²ĥ
Ġ14 0
ĠDire ctors
ĠJust in
ãĥĶãĤ¢ ãĥİ
æĸ¯ åį¡
ãĤ« ãĥ¼ãĥ«
E st
Ġcompos ers
è¨Ńç«ĭ ãģķãĤĮãģŁ
Ġíļ ¨
åķĨ äºº
å° ¿
ĠVlad imir
Ġbacter ia
ĠF ig
Ġmin im
Ġìł Ī
Ġex empt
ĠNep al
ĠB oeing
ãģĻ ãĤĮãģ°
åľ° åĲį
ĠCor p
ĠNap les
ĠHal ifax
ĠG ur
Ġreal izes
Ġconsid ers
ĠG ren
Ġren t
ãģĻ ãģ§
éķ· éĩİ
æ¯ ħ
Ġbatter ies
Ġrece iver
å¤Ħ äºİ
èĸ Ľ
Ġë°Ľ ìķĦ
æ³ķ ãģ®
W al
ãĤĴ æĬ±
ãĥª ãĥĥãĤ¯
ĠU FC
åĭ ²
éļ Ĳ
ç¶ĵ çĩŁ
å¾ģ æľį
åŃ¸ ä½į
Ġgod s
Ġdestro ying
T ele
å§ĭ ãĤģãģŁ
ĠAnn ual
Ġlim estone
æĤ£ èĢħ
ĠCh ase
è·¯ çº¿
Ġprox imity
E G
çŃ ¹
ĠFrank furt
ĠP orter
æ± ¤
é¾ Ħ
Ġinv aded
ge bra
å®£ åĤ³
K A
Ġfort une
å¾³ å·Ŀ
Ġt ent
è¿ Ī
att y
Res earch
h art
Ġconsum ers
orient ed
Ġserv ant
Ġne ur
è¤ Ĳ
ĠS hen
ãģĵãģ¨ ãģ«ãģªãĤĭ
ĠMem phis
èĤ ¢
Ġpast or
Ġexhib its
éĩĮ çļĦ
ãģķãĤĮãĤĭ ãģ¨
åĬ «
Ġb ishops
Ġh arsh
ãĥĸãĥ© ãĤ¸
åĨ ¯
Ġopt ical
å®ĺ åĵ¡
èĪ° éĺŁ
å®ĺ åĳĺ
ch ron
æİ¥ ãģĻãĤĭ
Ġrot ation
è²ł åĤ·
ĠOs lo
çĪĨ çĤ¸
Ġmem ories
lin ary
èµĽ äºĭ
éĽľ èªĮ
èµ° åĲĳ
éĪ´ æľ¨
æĹ Ń
ãĤ·ãĥ¥ ãĤ¿
Ġsm art
è¿Ľ æĶ»
å®£ ä¼ł
Ġinvest ed
è¨Ī çķ«
ãģĵãģ¨ãģĮ å¤ļãģĦ
Ġsil ent
åĽ¾ ä¹¦
ä½ľ æĪĲ
ä¸» æµģ
å±± å¸Ĥ
æĬ¼ ãģĹ
åľ¨ åħ¶
æ¨Ĥ åľĺ
ĠUs ing
ãĤĴ åıĸå¾Ĺ
ers e
Ġestim ates
æ·· ä¹±
g ard
th is
çĥ §
çķĻ ä¸ĭ
Ġde alt
Ġwitness es
Ġh oles
Ġfound ations
Ġf ights
Ġrun way
ĠP ir
ok o
Ġsymb ols
æµ· åŁŁ
Ġobtain ing
c ap
åħ¬ åħĥ
Ġinse cts
è¡Į ãģı
Ġfact ories
ç½ĳ ç«Ļ
ì° ¬
åĽŀ è»¢
âĤ Ħ
åĢ« æķ¦
å¢¨è¥¿ åĵ¥
ĠPark s
ĠHar per
190 4
ç¦ ħ
ãĥ¯ ãĤ·
Ġover come
Ġint ens
ou x
Ġinter im
ãĥŀ ãĥ©
Ġmemb rane
ij a
èµ¢ å¾Ĺ
Ġspect rum
J une
å½¼ ãĤīãģ¯
Ġstrateg ies
ä¸ Ļ
ĠCy prus
pl ane
ĠQ ing
ro at
Ġlo ans
ri ke
å¹³ å®ī
ĠEd itor
rag on
èı² å¾ĭ
æıĲ åĪ°
Ġelabor ate
ĠEm ily
ãĥĿ ãĥª
è¿ ¦
åİ ĺ
ĠS ter
ãĤĴ ä¸ĭ
W il
Ã© m
Ġflag ship
land ers
ãĤ² ãĤ¹ãĥĪ
ĠHe aven
ìĹ Ķ
ĠSch w
ĠEnter prise
Ġinv itation
Ġtrad em
ãĥĦ ãĤ£
ĠPorts mouth
h istor
Ġhuman ity
Ġf ung
ãģ« å½ĵãģŁ
å¤ļæķ° ãģ®
Ġur ged
Ġveter ans
Ġtestim ony
çģ« ç®Ń
ĠLaure n
Ġunder lying
re a
çĦ¡ ç·ļ
åŁ¼ çİī
ĠE duc
Ġcir cles
ĠCom edy
ĠV a
atern ity
Ġed ges
çĥ Ł
ĠMarc us
ĠCard inals
ĠêµŃ ìłľ
law s
ĠLuc y
Ġê³Ħ ìĨį
åīį åįĬ
Ġh ind
red it
B ook
ãģ® ãģ»ãģĭ
ç¤º å¨ģ
ĠëĮĢ íķĻ
æŃĮ è©ŀ
Ġhe ter
ĠRol ling
ĠHar bour
Ġm oon
æīĢæľī çļĦ
äº¨ åĪ©
æ¡ Ĳ
ìĽĲ ìĿĦ
Ġpen insula
å® ´
æ¶Ī æ»ħ
D ef
çĶŁ åŃĺ
ĠCh in
æ³ ¡
Ġle ather
è¾² æ°ĳ
ĠRichard son
Ġë°© ìĨ¡
a uthor
id en
Ġpolit ically
Ġd ish
onom ic
ĠPow ell
oc ene
å¼ģ èŃ·
Ġsub mit
Ġmass acre
m ember
Ġknow ing
ĠSim pson
ãĤĴ çŁ¥
Ġ18 37
è´ı å¾Ĺ
est ock
æ²³ çķĶ
ag ne
Ġiniti atives
ĠM C
æĦŁ æĥħ
ĠSur rey
ãĤĴçµĲ ãģ¶
Ġproceed s
Ġwitness ed
ord e
Ġad mission
ĠD und
çķ° ãģªãĤĬ
Ġg amb
ĠGi ovanni
Ġìº Ĳ
Ġdepend s
ĠCont inental
ater nal
Ġvari ants
Ġs ulf
æİĽ ãģĳ
Ð¸ Ñ
ä¼ ½
Ġvar ieties
â ĪĴ
èŃ° è«ĸ
åĮĸ ãģķãĤĮãģŁ
æ® ĺ
Ġar ist
ar ium
est e
å¿ Ļ
Ġall ocated
é¦¬ ä¾Ĩ
Ġbond s
ĠL ac
Ġm ild
land o
et ics
ç¬¬ åħ«
èĤ Ŀ
ãĥķãĥ©ãĥ³ãĤ¹ ãģ®
C he
æĦı å¿Ĺ
æľĪ åı·
É Ļ
æ¬¡ ç¬¬
å¹´ çĶ±
ar ity
Ġopen ly
ĠArt icle
éĽ» èħ¦
æ» ĭ
uxili ary
èĢħ ãģ§ãģĤãĤĭ
Ġp av
ĠBelf ast
urs day
Ġmult ip
Ġpoll ution
Ġconsist ently
ãĥ©ãĥ³ ãĤŃãĥ³ãĤ°
çļĦ ä¸į
ãģĦ ãģĦ
Ġìµľ ì´Ī
Ġmon op
çĵ ¶
ĠOther s
èĹ© ä¸»
ĠN as
ah u
ãģ® ä¸Ńå¿ĥ
ç± ł
ĠRac hel
ĠScient ific
w alk
í Ķ
Ġviol in
ãģĦãģıãģ¤ãģĭ ãģ®
ĠE SPN
ind ed
Ġmathemat ical
æķĳ æı´
æīĢ ãģ«
oca ust
in yl
ĠA ch
Ġì¸ ¡
ìĿ´ íĬ¸
åĩł ä¹İ
ãĤĴå§ĭ ãĤģ
å¾Į ãĤĤ
åīį çļĦ
ë° Ģ
Ġmurd ers
Ġmet ropolitan
ãģĹãģ¦ ãģĦãģı
ç¶² ç«Ļ
ath i
éģº è·¡
ĠPhys ics
ãĥĺ ãĥ³
Ġpla g
éĭ Ĵ
ĠH erm
ëĬ Ĳ
Ġê·¸ ëħĢ
å¢ĥ åĨħ
Ġapart ments
ĠBas il
et ti
Ġsl opes
ag i
ì¹ ¨
Ġit em
ĠCar ne
ä¼¦ æķ¦
Ġì ¤Ħ
Ġmark ing
ä¸Ńåľĭ å¤§éĻ¸
çĶ» éĿ¢
1 12
ĠGe off
ãĥĹãĥŃãĤ°ãĥ© ãĥł
åĭ ĺ
æ¡ £
O f
åĤ ¨
æľŃ å¹Į
ĠK urt
ãĥŃ ãĤ¤
ĠTra vel
ç¤ ģ
Ġcontra cted
Ġnot iced
ĠRepublic ans
ä¼Ŀ èª¬
ãĤĴçµĲ æĪĲ
ĠMov ie
çĪ¶ ãģ®
è¼¸ åĩº
ãĥ¬ãĤ®ãĥ¥ ãĥ©ãĥ¼
ĠSol omon
Ġê· ¹
Ġìľ ¡
Ġorgan ize
Ġunder took
ëŀ ¨
è©¦åĲĪ ãģ«åĩºåł´
ar is
ìŀĲ ë¡ľ
Ġcast ing
éĺª ç¥ŀ
Ġprec ip
ĠUnivers e
stan bul
å®Ł éļĽãģ«
Mod ern
èµĦ æĸĻ
ĠA ven
Ġ10 5
çĶŁ çļĦ
ĠìĹŃ ìĤ¬
oty pes
Ġc ro
ĠBright on
ĠB lu
æĪĲ åĪĨ
çī© ãĤĴ
Ġcomplain ts
ĠBla ke
ĠDe pression
h l
å®¶ ãģ¯
ĠJul ia
å¹¾ ä¹İ
ãĥ¼ãĥ Į
ĠM old
éĤ ĳ
ãĤ¹ ãĤ¦ãĤ§
u in
Ġr ings
Ġdec ree
å¤ļ ãģĭãģ£ãģŁ
Ġres erved
epend ent
Ġdire ctions
Ġ12 5
Ġn an
ri ans
å± ¥
off icial
ç§ģ äºº
ĠF un
Ġc ouncill
ĠWild life
Ġr amp
Ġso ap
âĶ ģ
is ive
ĠInter ior
en ary
ãģ« å¤ī
Ġt ier
Ġm a
ä¸ŃåĽ½ å¤§éĻĨ
Ġìłľ ìŀĳ
ĠBab y
ut a
åĬ ĳ
Ġw ishes
Ġdeleg ation
ç¨ Ģ
æį ī
Ġint ellig
åĬł å·¥
ãģĪ ãģªãģĦ
Ġdemonst ration
Ġaccur acy
ãĥķ ãĤ¸
cycl op
ĠF olk
av or
ĠIn spe
com es
ĠìĥĪ ë¡ľìļ´
ãĥŁ ãĤµ
Ð¾Ð ²
id i
ĠAnd rÃ©
è»Ĭ è¼Ľ
éĻ¸ ä¸Ĭ
ighth ouse
å¤§ è¥¿æ´ĭ
ãģ«å°±ä»» ãģĹãģŁ
ãĤĤ ãģĹãģıãģ¯
ĠSant iago
Ġfa ult
ãĤ¦ ãĥĥãĥī
ĠC yr
ĠC ann
Ġsub ord
Ġ1 15
Ġartif acts
ĠHop kins
M or
ç¢ İ
Ġstre ak
ĠìĿĮ ìķħ
æĭī å¤«
Ġlog ic
å¹´ æľ«
ĠPal m
ĠChar ter
ĠCoal ition
B B
Ġf ron
ãĤĴ æĦıåĳ³
Ġpar ade
æĪ Ģ
ĠìĿĺ ë¯¸
Ð ¹
cript ions
ãĤ¢ãĤ« ãĥĩ
Ġì°¸ ìĹ¬
zh ou
G I
åĲĮ æĹ¥
è¨ Ł
Ġall ied
ur ities
æĿ± æĸ¹
ĠGu ang
ä¸į è¦ģ
Th ough
Ġmolec ules
á Ģ
Ġint act
äº¡ ãģı
Ġbre ath
oc ity
ç«ĭ åį³
Ġfinal e
ĠFor mer
c s
éĩį å¤§
Ġunsuccess fully
Ġnational ist
èĹ¤ åİŁ
çı Ĭ
ãĥĩ ãĥ³
äºº åĴĮ
ãĥĩãĤ¸ ãĤ¿ãĥ«
ĠPubl ishing
E p
ĠWind sor
å¸« ç¯Ħ
ĠìĦ¤ ì¹ĺ
Ġì§Ħ íĸī
Ġunder go
åĩº éģĵ
rib le
ĠRes ources
enz ie
Ġê²½ ìłľ
Ġlast ing
Ġconscious ness
ç« £
è» Ĵ
ĠEp iscopal
éĥ¨ éĹ¨
è¦ĸ èģ´
Ġë°ľ ìĥĿ
d imensional
le z
èĤ Į
ĠL ess
Ġdis pos
ãĥĴ ãĥĪ
å¤ļ å¹´
æ¼ ł
r ition
é¨İ å£«
Ġtick ets
c z
Ġwarn ed
ĠAlexand ria
åįł é¢Ĩ
clos ure
i ott
Ġprot agonist
ĠìŀĪ ê³ł
Ï Ģ
c ard
Ġille g
ious ly
çĶ± æŃ¤
ĠW orth
åĬł åĪ©
N R
ìĿ¸ ìĿ´
Ġì¹ ¨
Ġ9 00
çĶ «
ĠFif th
éĢ ¢
Ġlack ed
ëĭ Īëĭ¤
Ġpresent ing
Ġmos que
ĠCurrent ly
ãģĻãģ¹ ãģ¦ãģ®
Ġacc laim
çļĦ å±±
Ġë°Ľ ìķĺëĭ¤
ç¹ ĭ
æīĵ çİĩ
Ġh ub
ãģĹãģŁ ãģ¨ãģĦãģĨ
ãģĻãģ§ ãģ«
T op
Ġaccept ance
äºĶ æľĪ
Ġavail ability
.âĢĿ _
æĿ± æµ·
clus ive
ĠE ight
ãĢĭ (
ĠD j
äºº ãģ§
ë ĪĦ
Ġbrand s
ar in
Ġprior ity
Ġpurs uit
Ġn ights
åįģ ä¸ĥ
ĠPaul o
æ¯Ķè¼ĥ çļĦ
ĠM S
åĮĸ åŃ¸
åľ° åĪ©
ä¸ĭ ä»¤
o op
å¸ ¥
ãģ« ç½®
å½ĵ ãģ¦
ãĥŁãĥ¥ãĥ¼ãĤ¸ ãĥĥãĤ¯
Ġw ished
åıį ä¹±
establ ished
Ġwick ets
Ġant ib
Ġcomm ittees
B ill
190 2
ĠB il
ìĭĿ ìĿĦ
ĠS aw
éģł å¾ģ
Ġproc laimed
éĢĢ ä¼ĳ
ĩ ¼
ä½ľ æĪ°
éģ© çĶ¨
ĠG Ã¶
Ret urn
Ġì¢ ĭ
å¹ ¡
ĠSchol ars
Ġperform s
ĠMan it
å¥¹ åľ¨
Not able
ãĤ³ ãĥ¼ãĥ«
è´ Ĭ
ä½ľ æĪĺ
Ġ15 00
ĠBur ton
ëĭ Į
uff icient
Ġ18 41
åİ ¦
Ġless er
æİ¨ èĸ¦
ãĥĨ ãĤ¯
å®Ī åĤĻ
ĠC anyon
ĠAlb any
åľ¨ ç±į
Ġsepar ately
elect ric
Ġres olved
an z
D isc
ãĤ¤ ãĤ¨
ĠêµĲ ìľ¡
ĠSalv ador
ĠMe chan
Ġcompet itors
æİ¨ å®ļ
Ġsm oke
åĦĢ å¼ı
ìĿ µ
ãĤ½ ãĥ¼ãĥī
ĠTest ament
ĠArmen ia
Ġenh anced
ĠRod rig
Ġrecre ational
C arl
ãĤĴ éģĶæĪĲ
an ic
ĠM ade
ĠSh ore
ĠParliament ary
h ou
ke es
nd ez
ĠP ep
ãģĮ çĦ¡
Ġpres um
Ġch a
ĠSim ilarly
Ġë ´ī
os ystem
Ġs aving
Ġwalk s
Ä ĩ
duc er
æ¡Ī ä»¶
Ġabst ract
æ¯Ķ åĪ©
Ġl over
ĠLe y
ãĥĿ ãĥ«ãĥĪ
ãĥŀ ãĤ¯
Ġdep icts
Ġpersu aded
ç·ļ ãĤĴ
æ±½ è½¦
ĠC ave
è³ª éĩı
ĠUS SR
ĠMan or
ĠChurch ill
å®Įåħ¨ ãģ«
æĦı å¤ĸ
Ġreun ited
ãĤŃãĤ· ãĤ³
Ġpost hum
ĠBa iley
èı ©
æĶ¿æ²» å®¶
ĠAng els
Ġair ing
Ġcontroll ing
éĢļ ç§°
Ġvo ices
Ġo ak
Ġc ig
ĠLegisl ature
at em
æĸ İ
ä¿ĥ éĢ²
ĠAssoci ate
Ġin fer
Ġsynthe sis
s al
ĠPl anning
ad h
Ġg entle
æĪĲ ç»©
Ġprotect ing
ê°ľ ìļĶ
Ġcomp act
æ¶ī åıĬ
is che
æķ´ çĲĨ
Ġfoss il
L aw
æĥ ľ
ãĥĹãĥŃ ãĥ¬ãĤ¹
ãģ¨ åĲį
um ble
å¹´ æĺ¥
ĠGram my
Ġm ud
ik ing
_ -
Ġenter prise
æł½ åŁ¹
Ġm m
ãģ¿ ãģ«
ĠA ur
R ock
Ġrul ers
è¡Ľ çĶŁ
ĠWag ner
å®Ł è¡Į
form ed
ĠAcc ount
ãĥľ ãĥ«
Ġlength s
Ġw at
åĪĨ åī²
Ġmob il
ãģ«ä½įç½® ãģĻãĤĭ
ĠìĤ¬ ë§Ŀ
ãĤĴçĽ® æĮĩ
ãģ¨ ãģĨ
Ġcontact s
Ġjoint ly
ĠG P
ãģı ãĤĬ
ãĤĴæŀľãģŁ ãģĻ
ä¸Ĭ å¸Ĥ
ps y
Ġcert ificate
ãģĹãģŁ ãģ®ãģ¯
ãģ® åł´åĲĪ
í ĩ´
ãĤ¢ ãĤ¹
ãĥķãĥ© ãĥ³ãĤ¯
her ic
Ġexerc ises
ĠF ra
ìĬ Ī
Ġprop ri
ĠCinem a
and ra
stad t
ĠB ever
æ¸ ĭ
çº ¯
on ation
ĠConstantin ople
Ġbr ill
åĲĮ ç¤¾
ãĥ¡ ãĥ«
ĠB ased
ĠCarol ine
ãĤµ ãĥ©
ut z
æ©Ł æľĥ
Ġdraw s
ĠíĬ¹ íŀĪ
æĹ¥ è»į
æĹ¥ åĨĽ
Î ²
éİĮ åĢī
Ġsculpt or
Ã ¯
ĠMc D
éģŃ éģĩ
Ġinher it
L and
Ġvac c
m ay
ĠD ow
ãģªãģĭãģ£ãģŁ ãģĮ
ĠìŀĪ ëįĺ
ĠV id
Ġinf ant
ìĭľ ìĹĲ
I reland
ĠSt rat
ĠV iol
Ġhost ile
ĠCap itol
ç«ĭ ãģ¤
Ġpar as
ĠS old
åĩ¦ åĪĨ
pr int
âĢ İ
åī Ĥ
å´© å£Ĭ
ĠN intendo
M ont
C or
ë¦¬ ìĿĺ
ĠC os
ĠH alf
Ġcompl icated
Ġinnov ation
æĭ Ł
ĠBank s
g ov
Ġconv iction
ĠWar wick
å´ ĸ
Ġconqu ered
Ġë²Ī ì§¸
ĠìĦ ¬
Ġcur ve
ãģªãĤı ãģ¡
ãģ¨ ãģķãĤĮ
ĠPlan et
at ro
åĿ Ľ
ĠA ub
ĠJ ung
ãģĻ ãģªãĤıãģ¡
å±ķ å¼Ģ
ĠT ampa
ĠHead quarters
ĠQu est
ĠT ab
æ¾³ éĹ¨
ĠMet al
ĠPlay Station
ãĥĻ ãĥ«ãĥĪ
æĥĳ æĺŁ
Ġun likely
ĠEx cell
åŃĲ æĿĳ
ç»ı åİĨ
ç¶ĵ æŃ·
ãĥļ ãĥ«
Ġcont rad
Ġ- -
Ġíĺķ íĥľ
Ġchalleng ing
ãĥªãĥ¼ ãģ¯
ìĸ µ
O p
æľº ä¼ļ
ri um
amb o
Ġaccommod ation
Ġcould n
Ġther mal
ãĤ¹ãĤ¿ãĥĥ ãĥķ
ì £
æķĻ æľĥ
çļĦæĥħ æ³ģ
çļĦæĥħ åĨµ
Ġf ed
ãĥ¼ãĥĪ ãģ®
Ġc ryst
Ġcerem onies
ĠBos nia
ãĥ¼ãĥĭ ãĥ³ãĤ°
èĻ ľ
ãģķ ãĤĴ
ãĤ¨ ãĥĪ
ãĥļ ãĥ¼ãĤ¸
ĠìķĬ ìķĺëĭ¤
ãģĻãĤĭ ãĤĤãģ®
è¿ Ŀ
å¤© çļĦ
æĻĤä»£ ãģ«ãģ¯
head ed
Ġbass ist
Ġpar ad
ãĥģãĥ¼ãĥł ãģ®
ograp hers
Ġc ere
ä¸Ń éĸĵ
N O
ĠA S
ĠD ob
Ġspons or
ĠHend erson
ĠTr in
ä½İ ä¸ĭ
ĠH urricane
æĻļ ä¸Ĭ
S il
Ġmet h
ãģ§ ãģĻ
Ġdef ine
Ġìĭľ ê°Ħ
å® Ľ
Ġkn ight
æ©Ł ãģ«
Ġsl ot
ãĤ¢ãĤ¦ ãĥĪ
Ġf us
éĺ¶ æ®µ
Ġspe aks
åī¯ ä¸»ä»»
Ġdecl aration
Ġwor se
ãģĮ ãģª
Ġsett ings
è´ ¤
æĢĿ ãģĦ
ì» ¤
Ġë¦¬ ê·¸
r ud
M iss
d aughter
Ġgu ided
Ġch lor
Ġcrew s
em e
ĠReyn olds
ĠìĿ¸ íķ´
18 90
ãĤ¨ ãĥī
ë· Ķ
ĠFer gus
Ġhot els
p olit
ãģ¨è¨Ģ ãģĨ
ĠP or
ĠPro per
ãĥĢ ãĤ¦
åĨľ ä¸ļ
å¹¹ ç·ļ
ĠLy on
ĠMos es
p res
å®¶ ä¸Ń
ç¥ŀ è©±
Ġd imensions
èĥ½ éĩı
çĲĥ åĽ£
iv o
ĠComple x
Ġball ot
az a
å¹´ãģĭãĤī ãģ¯
Ġdiv ide
ãģĿãĤĮ ãģĮ
ĠAn a
10 5
Ġdep ot
Ġscreen ing
Ġrub ber
é¨ Ĵ
ĠS le
ĠB alk
Ġelder ly
Ġ icon
ys on
as se
ä¸Ī å¤«
Ġ18 44
ä¸į åĪ°
D own
åĶ¯ä¸Ģ ãģ®
Ġ18 36
ĠN SW
Ġout lets
B o
çķĻ åŃ¦
ê³¼ ìĿĺ
Ġeval uation
Ġ18 38
ç¶ļ ãģĦãģ¦
ä¸»è¦ģ æĺ¯
f old
ãģĺ ãĤīãĤĮãģŁ
Ġëıħ ë¦½
c ia
ĠL ook
Ġendors ed
ĠMoroc co
Ġsustain able
Ġind irect
ats u
it ively
Ã© g
ĠC anton
Ġachie ving
Ġfrag ments
ĠK urd
s outh
åĭĻ çľģ
ric a
Ġc arriage
Ġang ry
Ġcontinu ously
omm ission
ie g
Ġrespons es
ĠB ran
åľ¨ è¿Ļ
è¢« ç§°ä¸º
inn ings
Ġir rig
éĤ ®
Ġattract ive
Ġintro ducing
ipp ing
ell ar
åľ¨ ä¸Ģ
ĠLux emb
éĤ ¨
æ¢Ŀ ç´Ħ
åľ¨ éĢĻ
ãģ¨ãģĹãģ¦ ãģĦãģŁ
ion ed
Ġsw ing
ãģ¨ãģį ãģ«
ãĤµãĤ¤ ãĥī
æĳ Ĥ
Ġprosec ution
ãĤĴ åįł
å¼· èª¿
Ġest imate
åİŁ çĲĨ
After math
Ġloan ed
ĠB end
Ġlong time
æĽ¸ ç±į
Ġrel iable
ë¯ Ģë¡ľ
Ġint ensity
è¿Ĳ è¾ĵ
ĠGer ald
æ· ĺ
Ġneighbour hood
ĠDomin ican
ĠD im
ĠT rain
ĠëıĮ ìķĦ
Ġre plied
child ren
ĠíĻ į
ple te
ĠPar am
ĠMil es
189 8
ç¸ ±
Ġhum or
ĠL ok
åľĭæ°ĳ é»¨
ç·Ĭ æĢ¥
ĠTh ursday
ĠUg anda
è»į ãģ«
op ing
æĹ© ãģı
B road
Ġsub urbs
Ġsal v
Ġf are
ĠFras er
å¤§ åĴĮ
åĤ į
_ âĢľ
Ġd ense
Ġdes per
ãģķãģĽ ãģ¦
Ġsecret ly
è¦ı åĬĥ
Ġroll ing
la ve
Ġloc als
ĠV ale
ëį ķ
åľ¨ æĹ¥æľ¬
éĢĢ åĩº
æĭĴ åĲ¦
åĨį çĶŁ
Ġspot ted
ĠRoc hester
æŃ´ ä»»
at z
Ġc ater
Ġvac ant
ĠRoberts on
Ġreop ened
åĲĦ åĽ½
Ġres pected
ast ed
Ġsur pass
ĠArch ae
ĠMon th
Ġdisp uted
Lou is
p ie
Ġc odes
ãĤ¹ ãĥŀ
ĠAp ollo
ĠW as
ä¸ ĳ
Ø ±
Ġê²Į ìŀĦ
ĠWes ley
Christ ian
ast ics
åĲį çļĦ
èŃ¦ åĳĬ
cles iast
ĠFact ory
M el
ãĤĴ å¥ª
åĬĽ ãģ®
åł´ ãģ§
Ġíı Ĳ
Ġcap ability
W R
éĸĭ éĢļ
P G
Ġpo ets
èĭ± éĩĮ
Ġbene fic
Ġl aser
Ġê°Ĳ ëıħ
ĠBrad ley
ur red
A cc
ãĤī ãģĦ
Ġun e
åīį å¾Į
ãģĵãģ¨ ãģ«ãģªãģ£ãģŁ
Ġl ots
ĠìĪĺ ëıĦ
ĠSl oven
Ġp ine
Ġviol ation
ãģŁ ãģ³
: //
ãĥĹãĥŃ ãĥĩãĥ¥ãĥ¼
è¢« ç¨±çĤº
am ination
aff e
ĠCong reg
åĨ¬ åŃ£
Ġmach inery
ĠBry an
ĠPak istani
Ġlik ed
so le
own er
Ġappe aled
ĠCle ment
æĪ¦ éļĬ
ìķ Ķ
er i
é¼ İ
ĠEll en
äºº ãģ¨
åľĸ ç¤º
Ġnav igation
ĠPr ussia
çı¾åľ¨ ãģ§ãģ¯
th ouse
Ġgradu ates
Ġadv ancing
Ġh iding
Ġ18 39
Ġtruck s
Ġê¸° ì¤Ģ
I G
ĠBal let
åĽ ļ
æ½ ¤
ãģ«ãģ¤ãģĦãģ¦ ãģ®
çº µ
ĠC rist
Ġle ased
P M
Ġb arrier
è² ¼
åĵ¡ ãģĮ
Ä Ł
ĠPrest on
Ġavo ided
v ens
Ġcare ers
íĺ Ģ
ãĥŀ ãĥªãĤ¢
ĠGl obe
Ġmid field
Ġbatt alions
ĠD w
Ġspec imen
Ġres ur
Ġmission aries
Ġcr ashed
Syn opsis
çµĮ ç·¯
Ġcon vey
ĠChron icle
Ġreinfor ced
d is
ĠP ract
Ġin land
s ix
Ġsub urban
éĢ£ çºĮ
ograp hed
èĲ §
å¾· çļĦ
ç¾© åĭĻ
å£ ¤
Ġë² Į
è§£ åĨ³
çķ ĳ
Ġdanc er
ain ted
ĠL enn
å¯º éĻ¢
mod ern
ass is
ë²Ħ ì§Ģ
ãĤ« ãĥ¡ãĥ©
che l
åį° å°¼
k ers
è¬ Ĥ
ĠBed ford
åİŁ å§ĭ
åĲĪ åĶ±
ĠìĿ´ ìłĦ
Ġd ust
col m
éģķ åıį
æ©Ł åĭķ
é© ¾
ä¸Ĭ æľī
ê° Ī
Ġwh atever
Ġstay ing
çĭĢ æħĭ
ãģ« ãģĻãĤĭ
Ġs ued
ä¿® å»º
Ġinteg ral
role um
art ime
å¤§ ç´Ħ
ä¸į æĸŃ
ãĥ³ãĥ Ŀ
è³ ĥ
ãĤ¢ ãĥ³ãĥĪ
ĠC C
lac ier
åģ´ ãģ¯
éĶ ®
ĠAlban ia
åįĢ è²łè²¬ç®¡è½Ħ
Ġmet aph
Ġfund ra
Ġrefere e
Ġse nds
ĠCy cl
ĠT yler
¿ Ĳ
åį ĳ
aren ts
å¹³ éĿ¢
ãģ«åħ¥ ãģ£ãģŁ
Ġseek s
ĠCurt is
Ġsuccess ive
Ġed iting
ĠForm ation
ãģ« å¸°
ĠGram mar
S ur
ãĥı ãĤ¦ãĤ¹
Ġfavor able
å°ĳ å°Ĩ
åħĲ ç«¥
éģİ ãģĶ
ç¾¤ å²Ľ
Ġjud gment
ĠBurn s
ĠPe ak
ĠFern ando
% ãĢģ
ãĥŃ ãĥ¼ãĥī
æĺ¯ä¸Ģ ç§į
çĬ¶ æĢģ
èŃ· è¡Ľ
he nd
Ġth read
Ġper ception
ĠB rid
è¯¥å¸Ĥéķĩ æĢ»éĿ¢ç§¯
èį· èĺŃ
enc ia
Ġcons ort
è®° èĢħ
Ġf iscal
è©²å¸Ĥéİ® ç¸½éĿ¢ç©į
H ol
Ġhapp ens
f red
Ġport fol
ĠDar win
èŁ ²
ãģ« ä½ı
åĲī çĶ°
ä¾Ŀ éł¼
å¤§ çº¦
Ġexha ust
id an
Ġlo ose
ĠUr ugu
Ġìŀ ¡
al though
èĻ Ľ
ble m
Ġrect angular
M ary
ĠSc ots
æĻ® æŁ¥
ĠPresident ial
Ġprom ising
Ġep ic
Ġrec urring
ìĬ¤ ê°Ģ
Ġm ills
éĻ ª
Ġautob iography
oc hem
Ġdestroy er
Ġper former
Ġkill er
çĶ¨ æĪ·
åĮº è´Łè´£ç®¡è¾ĸ
åĲĪ è¨Ī
ë¦¬ ê·¸
og ical
Ġconv ince
Ġwalk ed
å§ ľ
ĠSpring field
ĠAlbum s
ĠTri p
Ġìĸ´ ëĸ
ãĤ³ãĥ³ ãĤµ
and in
ĠCh uck
ĠAn at
els en
r h
book s
Ġstar ter
ãģ« è¿ĳãģĦ
ĠCamb od
ĠH aven
èģ· åĭĻ
ç»Ł ä¸Ģ
ĠP S
ãģ® ãĥª
l ic
Ġst range
å§ĭå»º æĸ¼
Ġinter rupted
ãĥ¼ãĥĩãĤ£ ãĥ³ãĤ°
ãģ®åĲį åīį
ç¾İè¡ĵ é¤¨
Ġlaw yers
åįĺ ä½į
ëħĦ ê¹Įì§Ģ
ĠPar ad
Ġêµ¬ ì¡°
åĪĨ éħį
Ġcount s
èŀį åĲĪ
éĿĻ å²¡
abl o
ĠN atal
ĠRe ver
ãĤ« ãĤ¤
og o
s chool
ãĤ° ãĥªãĥ¼
å¸Ĥ æĶ¿åºľ
I ts
isc her
æĿ¡ çº¦
å°ļ æĽ¸
æĮ¯ ãĤĬ
ĠMil ton
Ġmod est
Ġcarri ers
ĠMax im
T unes
ĠWrit ers
D T
her d
ĠMar tha
éļ ·
é«Ķ çļĦ
An n
ĠLiber ation
ãĤĴ çµĤ
çĻ¼ å°Ħ
æ¶ µ
Ġp ub
ãĢĤãĢį _
y on
è¨´ è¨Ł
ĠH ood
èį· åħ°
A V
çĽ¸ æ¯Ķ
æľ¬ æĿ¥
ë¥´ ëĬĶ
ç¬¦ åĲĪ
L L
Ġteam ed
ĠA FC
å· «
Ġorgan izing
Sup er
Ġhero es
aw i
æŃ¦ çĶ°
Ã¡ r
èµĦ æºĲ
ĠBuddh ism
Ġìķ Ķ
ĠMc Donald
ĠColon ial
Ġcompan ion
íĸĪ ëįĺ
Ġê° Ī
itor ium
Ġover th
ãģł ãĤįãģĨ
° ëĭ¤
æľī åĬĽ
mon ton
ç«£ å·¥
ĠO st
ĠW end
N ame
Ġbal let
è³ Ĭ
Ġax is
æŃ¤ æĻĤ
Ġdisp utes
ãģĶ ãģ¨ãģ«
Ù Ĩ
ag ers
ed ar
ä¸ī èı±
æŃ¤ æĹ¶
Ġaut o
Ġl un
Ġopin ions
Ġ18 42
ĠSpe aker
ãĥĲãĥ¼ãĤ¸ ãĥ§
ĠG amb
çı¾ åŃĺ
ä¸Ģ æĹ¦
Ġt ables
ãĤ· ãĤ«
Ġer rors
A pril
Ġ ãĤĴ
çĻºè¡¨ ãģĹãģŁ
ter ing
æĺ¯ä¸Ģ ç¨®
ãĥŃ ãĥĥ
ĠD ud
èĩª åĬ¨
C ity
the m
çĬ¹ å¤ª
Ġign ored
Ġbu ying
ĠD ipl
è¿ŀ ç»Ń
ãģ®ãģ¡ ãģ«
Ġmuseum s
ĠP om
ãĢį (
ãĤŃãĥ£ ãĥªãĤ¢
ç¹¼ æī¿
Ġd orm
å¢ ľ
ãĥ¼ãĥŀ ãĥ³
ä¸Ń æĿĳ
ĠAber de
um en
ĠCong o
Ġing red
Ġext inct
Ġdif f
åĽ¾ ç¤º
ĠS pect
ĠW arriors
Ġpit cher
ãģªãģĳãĤĮãģ° ãģªãĤīãģªãģĦ
çļĦ å½±éŁ¿
è§£ éĻ¤
st op
æ± °
Ġs unk
Ġdeleg ates
ĠD y
ĠRh ine
ĠTrib une
Ġsup pl
ãģĸ ãģ¾
åıĳ å°Ħ
ç»§ æī¿
ĠLanc aster
og g
éķ¿ çļĦ
ĠS of
ä»ĸ è¢«
Ġs ad
å¥ İ
ĠN umber
éĢļ ç®Ĺ
ĠSh adow
è¾ ī
Ġspe eds
s im
Ġrook ie
åľ¨ éĤ£
ĠT all
ìĤ¬ ìĿĺ
å¯ Ŀ
åħĭ éĩĮ
Ad d
ĠEug ene
ãĤ¨ ãĥĶ
J ac
åı¤ å¢³
çī© ç§į
ĠH off
ĠBalt ic
èĩª ãĤīãģ®
Ġê¸° ìĪł
b ot
åĺ ´
å¯ ĵ
ch air
ãĥ¼ãĥª ãĥ³ãĤ°
ä½¿ ãĤıãĤĮãĤĭ
ĠCl if
è¨İ è«ĸ
Ġlab els
ä¸į æĸ·
ãģ£ãģ¦ ãģĦãģªãģĦ
ç« Ł
io let
Ġbus y
Mil itary
å°Ķ æĸ¯
Ġdeg rad
çĤ ī
ä¸ī ä¸ĸ
Ġmar ched
çĶµè§Ĩ åı°
Ġrecon naissance
Work s
ĠMidd les
ĠìŀĲ ìľł
è·¯ åı£
W eb
å¤§éĺª åºľ
èī¯ ãģĦ
åĭ ĭ
Ġele ph
im eter
Ġsum mon
Ġpup il
ne um
com ed
ĠK w
Ġ18 32
ë§ ¹
Ġess ays
å¹¶ æ²¡æľī
Ġì° ¾
in stein
al la
æ¡ ĵ
Ġrequ ests
ĠBel arus
Ġreflect s
b eck
Ġfem inist
s i
Ġan ime
ĠLes lie
ĠB orn
Ġb ind
éĢ± éĸĵ
P D
ov ed
è¥ Ħ
ãĤ± ãĥ¼ãĤ¹
ĠAll an
ä»¥ åĮĹ
éłĥ ãģĭãĤī
ace utical
Ġcreat or
Ġíĥ Ħ
H ome
ãģ§ãģį ãģļ
Ġgod dess
ãģĻãĤĭãģŁãĤģ ãģ®
ere k
F our
ou b
æĪĲ æľ¬
Ġfl own
ä¸¦ æ²Ĵæľī
æķ¸ æĵļ
ãģ®ä¸Ń ãģ«
Ġt ar
c ussion
ä¸ľ äº¬
ĠBer k
Ġenroll ment
Ġmiss iles
Ġhead quarter
Ġcorrespond ence
ĠE aster
åıİ å®¹
Ġamend ment
Ġelim inate
cover ed
åį ¸
ç¦ı éŁ³
Ù ħ
Ġrecommend ations
M ag
ãĤĴ æ¼Ķ
ĠIn iti
éģ¸ãģ° ãĤĮãģŁ
Ġdet ection
Ġcrown ed
A v
å¿ Į
che z
and ro
éĻ Ŀ
Ġext ract
æĸ ¬
Ġo ri
æĺ¯ä¸Ģ ä½į
Ġë¨ ¸
Ġfact s
Ġl anes
ãĥĹ ãĥ©ãĤ¤
Ġenorm ous
ä»» æľŁ
å¾Ģ å¾Ģ
Ġirreg ular
che wan
cl amation
åĪº æ¿Ģ
æµģ éĢļ
çĶ° æĿĳ
Ġcost ume
ĠP ine
å¤§ åħ¬
ile e
Ġexp ense
lay er
ĠHer o
ol an
ĠConc ert
ĠMed ic
Ġl ig
çī© ç¨®
å·» ãģį
Ġam id
ĠS ite
Ġin cl
ãĤĴ å®Łæĸ½
ĠN acional
v ae
ĠH od
uk h
è²» çĶ¨
åĸ¬ æ²»
Ġf o
ab we
åĩı å°ĳ
Ġpop ulated
rew s
L uc
ĠK re
æ¶Ī å¤±
ĠKum ar
æ¢Ŀ ä»¶
SC O
ig i
y ards
Ġw onder
Ġdis orders
ä¸į åı¯èĥ½
ê°Ģ ì§Ģ
åħī ç»ª
ĠEm my
Ġë¶Ģ ë¶Ħ
ĠWe i
æ§ĭ æĥ³
å»ºç«ĭ äºĨ
æĹ¥ æ²»
å§ĭå»º äºİ
l it
om orph
Ġref urb
åľĭ åħ§
ë§ ģ
ĠEx hibition
çĮ¶ å¤ª
ãģ« ä¹Ĺ
åĥ ķ
ĠBla ir
Ġterm inated
Arch itect
Ġinter ference
äººåı£ åıĺåĮĸ
ĠCrim inal
Ġc ement
ĠB ears
ç·ı éģ¸æĮĻ
ĠH arm
íĤ ¨
æĺĩ éĢ²
Ġcom merce
189 5
ãģĻãģ¹ ãģį
ãĤĴ è¨ª
äººåı£ è®ĬåĮĸ
è´ ¾
Ġpregn ancy
å¹´ åĪ°
è± «
at ri
M edia
ĠD ew
pl us
r one
Ġtribut ary
ĠLe vel
ä½¿ ãĤıãĤĮ
ĠRe id
æī® æ¼Ķ
Ġìĥģ íĥľ
ãģ« éģĶ
è¦ı åĪ¶
S a
æĸ ī
ch ar
all i
C ount
ç©º åĨĽ
ĠBund es
äººåı£åıĺåĮĸ åĽ¾ç¤º
ĠAr ctic
Ġ à¤
ĠìķĦëĭĪ ëĿ¼
åħĭ çļĦ
w ill
oy a
äººåı£è®ĬåĮĸ åľĸç¤º
Ġdece ased
Ġv ine
er ie
at ics
çĽ¸ å°į
ĠDev il
Ġcontin ental
Ġphil osophical
p resident
çį £
ç¶Ļ ç¶ļ
th an
ëĲ ł
ãģ¨ãģª ãģ£ãģ¦ãģĬãĤĬ
Ġìķ ¨
4 50
G ood
ĠìĦ± ê³µ
ãĥ¬ ãĥĥãĥĪ
Ġê²° ìłķ
en o
duct s
Ġse ctors
Ġcons erv
ĠPhil harm
ard ment
æ³ķ å®ĺ
ĠCo hen
B ob
Ġtro phy
ãģ® çµĲæŀľ
ãģ® æĸ°
æĢ ķ
å®ŀ çİ°
T BS
ien ne
Ġ18 35
Ġresear cher
ãģ¥ ãģĳ
Ġp ipe
ìĹŃ ìĤ¬
ãĤĴ ãģĤ
Ġanti qu
Ġserv ants
ìĹĲìĦľ ìĿĺ
ãĤ´ ãĥ³
å½¼å¥³ ãģ¯
Ġenact ed
ĠI gn
Ġ( $
ĠZ imb
Ġb alls
ĠN athan
Ġtra iler
Ju ly
ç¥ ł
Ġp ier
çķ ľ
íķ Ħ
.. ."
Ġf et
ĠCorn ell
Ġfresh man
u um
Ġn urse
èĻ ĳ
Ġview ing
åĺī éĿĸ
Ġauth ored
åº¦ çļĦ
ä¹Ł å°±æĺ¯
Ġdis gu
occ up
åįı è®®
io x
l is
Ġsol ve
ãĤ¢ ãĥł
æīĵ ç®Ĺ
ĠF inals
ĠC ly
F red
Ġequ ality
Ġ1 17
ĠRev ival
ãĥ³ãĥĹ ãĥª
ãĤīãģĻ ãģĺ
Ġtub es
å£ ®
å±± æľ¬
ä½ľ ãĤīãĤĮãģŁ
S k
Ġcommercial ly
on ing
F re
Ġc it
ãĥ¦ãĥĭ ãĥĥãĥĪ
rit ic
ìłĦ ìĿĦ
Ġaccompany ing
çĪŃ èŃ°
Se ptember
ent in
ĠF eder
è²· åıİ
L ong
m el
edd ed
M ur
éķ· ãģı
Ġut ility
Ġr ises
Ġemot ion
ĠK ang
ĠJes se
Ġì ¼
ãģªãĤī ãģļ
ĠD ani
ãĤĮãģ¦ ãģĬãĤĬ
as is
ĠM oss
B R
Ġm aj
ĠTh ir
ãĥĢãĤ¤ ãĥ¤
Ġin quiry
Ġstrugg ling
ĠCh ad
Ġcomp rised
ĠBe a
Ġtrap ped
ĠR ural
ãĤĤãģ® ãĤĴ
Ġcommission er
Ã± o
è½¦ è¾Ĩ
Ġput s
ĠD iet
Ġdrop ping
Ġlect ure
ãģĤ ãĤīãģĻãģĺ
æĻĤä»£ ãģ¯
Ġm arsh
ìľ¼ë¡ľ ëĬĶ
Ġë§¤ ìļ°
å¿ ½
å°ĩ åħ¶
ĠNot re
as an
ãģ« çĿĢ
Ġo re
ä¿Ŀ éĻº
Ġsearch ing
æ± Ŀ
äºī è®®
ĠMunic ipality
Ġis n
ĠCol in
ĠOr lando
éĻĦè¿ĳ çļĦ
g ary
ĠAgricult ural
ak k
ëıĦ ìĿĺ
Ġce ase
åīµ æ¥Ń
æģ °
ãĥī ãĥŃ
æľĢçµĤ çļĦãģ«
ãģĵãģ¨ãĤĤ ãģĤãĤĬ
ìľ¼ë¡ľ ìĦľ
Ġsem in
ys ical
ãĤ¿ãĥ¼ ãģ®
Ġorgan isms
d an
rif ied
ãģ«çµĤ ãĤıãģ£ãģŁ
Ġëĭ¤ ìĸĳ
ãģ« çĶ±æĿ¥
ĠCarne gie
ĠProgram me
ĠTele graph
ĠY uan
è¨ĺ äºĭ
æ²³ æĿĳ
ãĤ¹ ãĥª
ãĢĭ ãĢĤ_
ĠMor rison
ìĿ´ ìŀĲ
éļĬ éķ·
Ġad mir
Ġload ed
Ġsur geon
il ateral
è´Ŀ å°Ķ
ĠMar l
Ġceleb rations
p ri
Ġ18 43
ĠK i
ys elf
he ro
ê·¸ ëŀ¨
èĨ ł
ä¼Ĭ åĭ¢
ĠW ake
Ġs a
ãģĭ ãĤĭ
co le
è¯Ħ è®º
Ġc rypt
èĬ Ĵ
å´ Ĺ
ĠE b
ãģ¨åĲĮæ§ĺ ãģ«
èĻ ¹
ĠD oll
Ġprof its
Ê »
æī ĩ
Ġmanag ers
çķĻ åľ¨
if iers
Ġcatal og
ĠBo hem
Ġcl oth
æĿ¥ ãģŁ
ä¿Ŀ æľī
ĠëŁ¬ ìĭľìķĦ
ìĤ ¼
r ust
å®¶ èĩ£
B ro
ãĥ³ãĥ Ń
Å Ľ
1 18
Ġg est
uk u
olith ic
è¥¿ å®ī
ĠRich ards
ĠSp art
Ġmy stery
å·¥ å»ł
éķ¿ æľŁ
Ġdemand ing
Ġsub stit
ãĤĴ å®Ī
the re
ĠIndust ries
Ġ âĤ
ãģĵãĤĮ ãĤī
ĠCla ud
Ġc rafts
ĠS ons
èħ º
ĠC rystal
ack ing
é¡ Ĩ
Ġb eds
end ed
å°Ĩ åħ¶
Ġovers ee
g on
ĠN an
èĢĮ ä¸į
ç§ĭ çĶ°
åı ī
éĩ Ī
çĽ¸ å¯¹
ĠÄ Ĳ
Ġpartn ered
Ġpe as
O D
ĠE k
ãĤ² ãĥ«
al id
ç§° åı·
Un iversity
ãģļ ãģ¤
Ġpossess ed
ĠP od
atter y
ing en
h orn
l ar
è¿ĩ åİ»
ili ation
åįĹ è¥¿
ari us
M eanwhile
åĬĽ ãģĮ
Ġarm or
ĠHol ocaust
ä½Ĳ èĹ¤
ä» ĵ
ĠSh i
Ġancest ry
ic us
ĠL ig
ĠL ay
Ġimmigr ant
Ġun ity
Ġsc out
Ġbomb ers
m ons
é° Ń
ish n
åħµ åº«
ĠL omb
Ġox id
Ġdetect ed
or um
æĮ ª
ãģ® æľ¬
Ġse ar
çİĭ ä½į
ãģ¸ åĲĳ
ad ows
åľ° å¸¯
ãĤĴç¤º ãģĻ
ëį ¸
æĨ ĳ
ç§ĺ ä¹¦
å¤ª å®Ī
é«ĺéĢŁ åħ¬è·¯
ĠL ah
Ġthrow ing
Ġt ong
çł´ å£ŀ
r ina
çļĦ æķħäºĭ
é»Ħ éĩĳ
ar re
m ain
Ġloyal ty
iffer ent
éħ µ
Ġconsec rated
Ġphilos opher
æĦı ç¾©
åħĴ ç«¥
Ġcook ing
iz a
Ġd ining
g irl
oin ing
ãĥįãĥĥãĥĪ ãĥ¯ãĥ¼ãĤ¯
ãģĭãģĭ ãĤıãĤīãģļ
im i
ir ie
Ġtra ce
os ion
ä¸ľ éĥ¨
ĠGl enn
è©± é¡Į
Ġcommand ers
ĠDe cl
æ³¢ èĺŃ
Oct ober
æ¸ ł
ak ov
an ium
äºĭ æħĭ
ê¸° ë¡ľ
ĠTr ue
ë¥ ł
Ġvol canic
ĠA FL
ãĥ¼ ãĤ«
æİ¥ æĽ¿
æĶ¹ åĪ¶
Ġscreen play
åħ¶ä¸Ń çĶ·æĢ§
Ġpract ition
Ġse ating
íķĺê¸° ëıĦ
ê· ł
Ġvol tage
Ġhop ing
ãĤĦãģĻ ãģĦ
Ġt une
ĠCal gary
Ġtra ces
c ourt
ten eg
å¹´ä»£ ãģ«
ãģĹ ãģ®
ãĤ½ ãĥ³ãĤ°
éĽ»è¦ĸ åı°
åı· çº¿
ier re
Ġsix ty
çł´ åĿı
éģº ä¼Ŀ
ĠS H
om ical
Ġbot an
ind ers
åı¤ ãģĦ
Ġnob ility
es a
ĠEn s
Ġtraff icking
ãģĹ ãĤĩãģĨ
íĺ ģ
ĠI g
Ġlater al
æį ¨
Ġrail ways
ĠLear ning
æĪ¦ ãĤĴ
é¢Ĩ åŁŁ
ĠRos en
ĠW C
èĨ ¨
ãĥĨ ãĤŃ
ãģ¾ ãĤĮãģŁ
ĠKn ox
ãĤ¹ ãĥ«
å¼ı çļĦ
æ¯Ķ äºŀ
Ġì§ Ī
åĲĪ ãģĦ
ĠPr ussian
éĢļ è¡Į
æİª æĸ½
Ġpot tery
å¸ Ĩ
Ġsh aft
æĸ ¤
äºĶ åįģ
c ence
Ġreg iments
æĭ¡ å¼µ
æī ģ
Ġseem ingly
éĶ ĭ
ãģ»ãģ© ãģ®
ãĤŃãĥªãĤ¹ãĥĪ æķĻ
he y
Ġf rig
Ġd ign
ï¼Ī ãĢĮ
Ġnomin ations
Ġcru ise
ĠSac ram
ë¶Ģ ìĿĺ
ill as
Ġcolle ague
C la
èĩª ä¸»
ĠPrinc ipal
ãģ® ãģªãģĦ
Ġëľ »
ĠDay ton
Ġreve aling
con nect
ãģĻãģĲ ãģ«
æĩī è©²
ãģ§ãģ¯ãģªãģĦ ãģĭ
çĲī çĲĥ
B ur
ĠëĦ ĺ
ãģ« æ®ĭ
18 89
åĦ¿ ç«¥
å¤ª åĲİ
Ġdem o
çĻº è¨Ģ
Ġem issions
Ġìľł ëŁ½
ãģ¨å¯¾æĪ¦ ãģĹ
ath am
Ġc ivic
ad os
Ġsurpr ised
åĶĲ æľĿ
åĵ¡ ãģ®
ĠÃ ĸ
V ol
åĩºæĿ¥ ãĤĭ
inc orporated
èĬ¸ èĥ½
ĠP os
U T
Ġinv ention
å¹´ åĲİ
é¦ĸ å¸Ń
å¸Ĥ çļĦ
Ġenc ounters
åľ Ń
Ġmon uments
Ġdanc ers
ĠDou g
Ġpla que
å¯¦ çı¾
ä¾¡ åĢ¤
Ġen closed
Ġc reek
yl an
Ġl ady
çķªçµĦ ãģ®
Ġ1 12
Ġcre am
å¾ĵ æĿ¥ãģ®
æ³¢ åħ°
éĢł èĪ¹
Ġë ĪĦ
as ma
åĬł å·ŀ
ãĥ¡ ãĤŃãĤ·ãĤ³
Ġbo om
Ġch aired
Ġaest hetic
ĠP ars
ãĥ¼ãĥī ãģ®
O l
ãģ§ æķĹ
Ġthe aters
att i
åŃĹ æ¯į
ãĤ¤ãĥ³ãĤ¿ ãĥ¼ãĥįãĥĥãĥĪ
ãģĮ éĸĭå§ĭ
ge ons
E nd
Ġm anga
æ¥Ń çķĮ
ĠD um
ãĥ¢ ãĤ¹ãĤ¯
Ġvo iced
ber ger
Ġcogn itive
Ġp ump
åħĭ æĭī
Ġbig ger
ãģĭãģ¤ãģ¦ ãģ¯
Ġrecre ation
ĠN u
ĠA ri
ä½ľåĵģ ãģ¯
, '
g age
Ġdecor ative
G reat
ib a
Ġrom ance
Ġshell s
arri ers
è° ±
act or
Ġcongress ional
ãĤ¨ ãĤ¸
Ġbet ray
M R
Ġcontin ent
èĮ ħ
åĮº ãģ®
oc he
Ġhar vest
agon al
ãģ¨ãĤĤ åĳ¼ãģ°
Ġw ool
ç¶Ļ æī¿
ĠíĤ ¤
ĠA ctor
ond o
S em
ag ogue
ĠI ss
ãĤ¢ ãĤ¤ãĥ«
Ġult imate
ĠAr d
ç¿ ł
aut ical
åĴĮ æŃĮ
ged y
åºĶ è¯¥
Ġwood s
ĠCont est
us hes
çļĦ äºĭ
Ġancest ors
ãĥ³ãĥģ ãĥ£
ãģĿãĤĮ ãģ«
åı¯ä»¥ åľ¨
ãĥĲ ãĥ³
ĠTreas ury
æĸ ¥
ĠRes erv
ãĥ¬ ãĥ¼ãĥĪ
Through out
g ae
Ġup rising
ëĶĶ ìĺ¤
Ġd rown
ĠGu j
Ġb io
ĠP Ã©
Ġcont ents
ä¼ļç¤¾ ãģ®
ĠZ ion
ĠLeices ter
at to
ĠFranÃ§ ois
å¯© æŁ»
ĠY ard
çļĦ åľ°
å²¡ å±±
æĽľ æĹ¥
Ī Ī
se nd
atic an
ĠHun ting
Ġbox es
pent er
åı° ä¸Ń
che m
ç³ ¸
F ort
un ting
ĠA G
ĠA chie
are l
åįĴæ¥Ń å¾Į
ĠJul ius
Ġp ension
å±± çĶ°
ãģ®åĲį ç§°
N et
ãģĻ ãģİ
ãģĶ ãĤį
Ġn ave
Ġmagn itude
Ġad mit
ãĥĨ ãĤ¹ãĥĪ
èª ĩ
Ġobject ives
W C
Ġt uber
ĠSuper ior
Ġju ven
ĠNob el
ãĥı ãĥª
Ġs aint
Ġto uc
ï¼ī ï¼Ľ
ĠK ids
ä»¥ åįĹ
Ġexp enses
ĠYan kees
ãģªãģ© ãģĮãģĤãĤĭ
ĠCharl eston
on el
ĠP eng
è®° å½ķ
æł¹ æľ¬
Ġbe ings
è¨ĺ éĮĦ
ĠLud wig
ìĬ¤ íħ
Ġl ord
çĶ¨ ä½ľ
ĠC el
æµ· å³¡
å°Ķ å¾·
ĠAc cess
Ġtra ils
Ġlic ence
h aul
Ġwhe at
anc a
Ġê³ ¡
ĠA F
Ġlif ted
Ġclimb ing
æ¯Ķ äºļ
å¼ķ çĶ¨
ĠStaff ord
ĠY et
Japan ese
Ġt un
ìĿ´ ìĬ¤
ĠN ixon
Ġs izes
ëĮĢ ìĹĲ
ë¦¬ ì¹´
è¦ı æł¼
ĠBeat les
éĢļ éģĵ
ãĤ¹ãĥĪ ãĥŃ
è©ķ åĥ¹
whe el
on ica
å¤§ å°ı
Ġass ume
Ġëª ĩ
Ġor phan
Ġdes k
Ġfood s
Ð ¼
æĶ¯ æīķ
Ġsurn ame
åģ´ éĿ¢
éĮ² éŁ³
ĠCol ony
ĠG ael
ãĥ¯ãĥ¼ãĥ«ãĥī ãĤ«ãĥĥãĥĹ
Ġs ab
an che
ä¸ļ åĬ¡
è¿ ´
æ£ ²
æīĭ è¡ĵ
Ġhom eless
Ġproject ed
ĠH omer
H am
J ew
éĥ½ ä¼ļ
ĠKenn eth
ad vant
ĠManit oba
ĠS weet
Ġkeep s
æīĢåľ¨ åľ°
Ġextra ordinary
Ġëį° ë·Ķ
ĠB ronze
hand ed
ĠMc N
Ġt ap
ĠK arn
ĠM aid
Ġser ver
ĠGu atem
Ġnurs ing
ãĤīãĤĮ ãģªãģĦ
ou p
ä¾į éĥİ
ĠBur ke
åħĲ å³¶
å°İ æ¼Ķ
ant om
Ġphil anthrop
ĠC airo
ĠMerc ury
ash ing
çĭ¬èĩª ãģ®
å¤ĸ çļĦ
Ġnew er
Ġgran ite
Ġâ ĪĴ
Ġke en
åĭ ī
åįĹ æµ·
ĠBre ak
ãģ« ãģĤãĤĬ
Ġneighborhood s
å£° æĺİ
ãĤ¨ ãĥ³ãĤ¿
Ġnarrow ly
Ġaccompl ish
ch urch
ĠìĹĨ ëĬĶ
Ġcapt uring
Ġíĥ Ī
ansk rit
clesiast ical
the l
ar am
ãģ¿ ãģ®
äºº æķ°
ëĵľ ëĬĶ
æ¤ľ æŁ»
Ġenl arged
è²Ŀ çĪ¾
éł ģ
row th
um ping
å¹¹ éĥ¨
ĠBarn es
ĠìķĦ ëĵ¤
Ġto ugh
Ġpreced ing
se at
av i
Ġre per
ì²ĺ ëŁ¼
Ġadv ances
onn ell
Ġsuggest ion
Ġun t
c in
Ġr iders
M at
Ġend angered
ĠThe odore
Ġfe ather
åħ§ éĥ¨
Ġreview er
ĠCom mercial
at isf
ìŀ¥ ìĿ´
Ġadd s
ĠBeg inning
l ass
ä»¥éĻį ãģ®
ëĲĺìĹĪ ìľ¼ë©°
Ġd il
Ġìļ° ìĬ¹
is ure
Ġh ol
åıĤ èĢĥ
b ol
ĠM oney
æľĪ ãĤĪãĤĬ
Ġtrust ees
g eneral
åĵ ¨
Ġfru its
Ġship ped
ãĥ´ãĤ¡ ãĤ¤
Ġst uff
äºĨ ä¸ĢåĢĭ
ay ette
part y
e ctions
å·¡æ´ĭ èī¦
F ac
ç§Ģ åĲī
Ġman eu
g ood
Ġcomm une
Ġass ert
Ġlist ening
ä»£ãĤıãĤĬ ãģ«
Ġì¡° ì§ģ
èİ« æĸ¯ç§ĳ
èľ Ģ
æİ¥ ä»»
çĹħ æ¯Ĵ
èİ ²
Ġoff ense
æ¬¡ ãģĦãģ§
Ġexec ut
ound ing
ĠTh ames
Ġf iber
ip ur
æŃ §
oura ble
ĠAmeric as
ãģĭ æľĪ
æ´» æĢ§
Ġ ãĢģ
S o
ä¸Ĭ è¨ĺ
ç¢ §
Ġrecept or
ĠíĹ ¤
B D
ãĥĥ ãĤ¿
ëĬ ĺ
è¯Ħ ä»·
ç°¡ ä»ĭ
Ġas cend
ê· Ģ
L ive
at ial
ĠG ospel
éĩĳ å±±
Ġdiv ine
d ig
ign ated
æĪ¦ çķ¥
ĠI stanbul
p pe
åĮº åĪ¥
Ġtr im
Ġbut t
å®Ī èŃ·
æ©Ł ãģĮ
æĭ ĸ
h ab
Ġover lap
ĠWork ing
ëıĦ ë¡ľ
é»ĳ èī²
Ġê³Ħ íļį
éŃļ éĽ·
arm ed
Ġdis k
äº¤ éŁ¿
ãĤĴ è¿½
Ġk in
ä¸ŃåĽ½ åħ±äº§åħļ
2 20
æ· ³
ç¶ļ ãģĦãģŁ
ä¸ĢèĪ¬ çļĦ
ĠHay es
Ġris ks
ĠìķĬ ê³ł
ĠMar ian
ĠRe y
Ġpeace ful
ãĥŁ ãĥį
ĠF antasy
Ġconf ident
æľĪ ãģ¾ãģ§
éĥ½ çĿ£
Ġenthus i
ĠBald win
ê¹ Ģ
å®ļ ä¹ī
ãĤ» ãĤ¤
ä¸Ĭ è¿°
è¸ Ĭ
ad ic
åħ¨ ç±³
ĠDou ble
ĠI v
15 00
çİ» çĴĥ
U l
ĠP eg
Ġì¤ĳ ìķĻ
Ġpromin ence
Ġb ills
er b
Ġlux ury
ãģ® ä¸ī
Ġge ographical
ãĥĸãĥ© ãĥĥãĤ¯
Ġec osystem
æĪĳ çļĦ
haus en
art e
ĠJohn s
Ġadminist rator
æıı åĨĻ
Ġì» ¤
æĬ ĵ
ç®¡çĲĨ å±Ģ
Ġs id
åĲ Ĭ
Ġìļ´ ëıĻ
Ġexplicit ly
ãĤĴ éĽ¢
Ġsurpr ising
ĠSoft ware
Ġinstitution al
ĠC H
èĢħ ãĤĤ
je ctions
ä½İ ãģĦ
äºĨ ä¸Ģä¸ª
åĮ» å¸«
Ġillust rations
ĠSaskat chewan
Ġc ra
ãĥ© ãģ®
æĪĲ éĥ½
ĠRe agan
Ġtri umph
Ġany where
al ong
an an
ãģ« éĢļ
ãĥĻ ãĥĪ
ĠMar in
Ġdig it
å¯¼ æ¼Ķ
ced es
ĠH ack
åħ¨ éķ·
E X
ed uc
Ġdescend ed
10 4
Ġliv estock
i em
Ġceleb rity
Ġal ly
ĠëĤ ľ
ĠUl ster
éģ ®
åľ° ä¸Ń
heim er
ĠSouth ampton
ĠT roy
C AR
ãĥĬ ãĤ¤ãĥĪ
ãĥı ãĥ¼ãĥī
å¼Ł å¼Ł
ç®Ģ ä»ĭ
H el
Ġstrugg les
æľĢåĪĿ ãģ«
Ġevery day
Ġì ¿
æ±Ł èĺĩ
Ġback up
çį ħ
Ġíĺ ¼
Ã¤ r
Ġdoctor al
Î º
Ġm ock
ĠW ick
Ġbl amed
ĠC ord
åįģäºĮ å¹´
Ġder iv
ë¦¬ ê³ł
æķ° éĩı
Ġre ly
å»£ æ³Ľ
ond e
Ch ief
å¤§åŃ¦ ãģ§
ef e
ãĥĢ ãĥ³ãĤ¹
ĠSouth west
ĠZimb abwe
åľ¨ ä»ĸ
ĠO bl
ĠK yle
Ġfe ared
éĻ ķ
Ġcon ve
æķ ĺ
Ġqual ities
Ġdesign ers
ç¼ ĵ
Ġmir ror
ĠC S
Ġcar b
Ġhealth care
Ġpurs uing
Ġh oly
æŃ ĩ
ĠBes ides
Ġcor rel
Oper ation
é«ĺ ãģı
ç©Ĩ æĸ¯
Ġë¡ľ ë§Ī
ĠKaz akh
Ġch ains
å¹´ è½»
ãĤ¢ ãĥ¬ãĤ¯
ãģ«ãģª ãģ£ãģ¦ãģĦãģŁ
ch ard
ĠNew man
Ġutil ized
çļĦ æĶ¯æĮģ
íķ´ ìĦľ
Ġgoal keeper
N Y
Ġd up
ĠUn fortunately
orm s
wa it
Ġab olition
çļĦ å½±åĵį
Ġgif ts
Ġsurve illance
ãģĮ ãģĦãĤĭ
ĠAppe als
çĿ ¡
t re
ĠCar roll
r ill
è½ Ł
rest rial
åįĺ çĭ¬
ãģ« ä»»åĳ½
æĺŁ çļĦ
èħ Ķ
åĲĪ æ³ķ
ĠAct ress
ĳ ¸
onn y
ĠSher man
ĠLyn ch
ap or
Ġinvest ments
å¹¿ æ³Ľ
ãĥĳ ãĥ¼ãĤ¯
Ġm asters
ç¿» è¨³
ĠA part
ãĤ°ãĥ© ãĥ³ãĥĹãĥª
G overnment
ìĿ¼ ë³¸
Ġcontact ed
Ġag gress
æ¯İ æĹ¥
ĠH es
ãģĦ ãģį
ĠCom bat
ãĥĳ ãĤ¹
Ġinst ances
Ġ18 15
ĠIns urance
ĠM is
ch ant
ĠId aho
Ġterm ed
h uman
ol ves
ãģ®ä¸Ģ äºº
ar ound
çļĦ åº§
ĠEd monton
Ġres ides
ĠTre k
è¦ģ å¡ŀ
æİĮ æı¡
ãģķãĤĮãģ¦ãģĦãĤĭ ãģĮ
Ġrout ine
ĠHeavy weight
æĬ Ħ
Ġreal ize
Ġê¸ ī
Ġsubstant ially
ĠF ur
ĠCh al
å¤§ æ©ĭ
Ġent ries
ãĥ³ãĤ¹ ãĤ¿
Sc ott
æľĥ åľ¨
Ġcountry side
çı¾ æĻĤ
ãĥ¼ãĥĸ ãĥ«
ĠH els
ä¸»è¦ģ çļĦ
ale y
ëıĦ ëĬĶ
ãģŁ ãģ¨
ĠPr iv
uzz le
å¥ ¨
Ġclass room
Ġath lete
æħĭ åº¦
Cont rovers
Ġv ow
ĠJohn ston
ĠG overn
å¨ ĥ
s ay
ĠIn side
189 9
å£« å®ĺ
å¤ļãģı ãģ¯
ëĮĢ íķĻêµĲ
Ġtort ure
S chool
çĶ¨ èªŀ
ãĥ³ãĥ ¡
èµ· æĿ¥
èľ ľ
Ġpron ounced
! ,
åĪĿ åĽŀ
ian e
Ġsand stone
Ġa ster
ç§» è»¢
Ġexpla ining
ãģĿãĤĮãģŀãĤĮ ãģ®
ĠP R
åºĥ ãģĦ
åħĭ éĩĮæĸ¯
ĠD ong
åŃ¦ çļĦ
ç£ ¯
æĺ¯ çĥıåħĭèĺŃ
ãĤĴ è¨Ńç½®
Ġhighlight ed
ãĥ¬ ãĥ³ãĤ¸
ê¸ ¸
å§ ¬
Ġstat ues
Ġwel comed
ĠCh amp
ãĤĤãģ® ãģ§ãģĤãģ£ãģŁ
ãĥª ãĤ³
ĠAnn ie
Ġres ided
å¹´ è¼ķ
è½¯ ä»¶
Ġheadquarter ed
ê³ ³
å¤ļ ä¸ª
çº ·
ĠCraw ford
ãĤµ ãĥ³ãĥī
aw k
ĠLind a
å« ¡
w rote
è§£éĩ ĭ
Ġd ome
ä¼ Ļ
èµ ł
å¼ķ åħ¥
åĬ© çĲĨ
ĠTw enty
æģ ¨
ĠR T
cl iffe
çĨĬ æľ¬
ĠI D
ìĿ´ ì§Ģ
H a
ĠìĿ´ ìľł
lam m
å¨ģ å°Ķ
éĩĳ ãĤĴ
ĠMon roe
é£Ľ ãģ³
èµ· ä¾Ĩ
Ġsc ales
Ġmist ake
å¥ ¶
ãģĿãģ®å¾Į ãģ®
ä¸Ĭæµ· å¸Ĥ
M ax
ĠI TV
æķĻ ç·´
On ce
çŁĽ çĽ¾
è§£éĩ Ĭ
ëªħ ìĿĦ
èĻŁ ç·ļ
ĠS ul
Ġhe ating
ä»¥ä¸ĭ ãģ®
ĠD arl
Ġl oud
Ġcann on
ĠStre ets
ä¸Ń å°Ĩ
Ġr ushing
Ġappro aching
ãĥ³ãĥ Į
åī¯ ä¸»å¸Ń
åī§ æĥħ
O ff
m usic
Ġconc urrent
æĪĺ åĲİ
Ġl ighter
çļĦ æ°´
18 80
åĬĩ æĥħ
pe z
Ġch im
Ġs ax
åĳ ī
æ´¾ åĩº
Ġen abling
Ġdiagn osis
æĺ¯ ä¹Įåħĭåħ°
éĤ ģ
âģ º
Ġcomplex ity
Ġeth n
ĠV ij
ĠO wn
æĬķ ãģĴ
or rect
ãģĻãĤĭãģĵãģ¨ ãģ«ãģªãģ£ãģŁ
Ġc ort
Ġf ran
Ġsm ugg
è³½ åŃ£
ãĤĴ ãģĹãģ¦ãģĦãĤĭ
ĠDr um
ãĤ¨ ãĤ¹ãĥĪ
âģ »
å¤ļ åĢĭ
ar f
äºĮ æ¬¡
é¢ Ĺ
åºĥ åĳĬ
Ã¢ te
æ½ Ķ
Ġ çļĦ
ĠE ye
ber n
Ġt rem
ìĺ ¬
æ©Ł ãģ¯
b ad
Ġthough ts
ĠH ut
Ġê²° êµŃ
ä¸Ńåľĭ åħ±çĶ¢é»¨
D is
ĠG em
Ġex pend
ogen ic
G T
Ġv est
ä¿¡ å¾Ĵ
ĠFor bes
é¦ĸ ä½į
ãĥģãĥ£ ãĥ¼ãĥĪ
ĠLeg al
Ġc af
id ay
åĵ Ģ
ĠO pt
Ġmyth ology
ĠL if
Ġcorrespond ent
M o
Ġde er
Ġpublic ity
Ã¨ s
åº µ
ãģ§ åĦªåĭĿ
å°ļ æľª
ĠMong ol
P I
Ġinter rog
ĠV atican
ĠAr ist
Ġautom obile
ãĤĦ ãĤĦ
åĨį å»º
Ġwebs ites
V C
çį µ
Ġb itter
Ġval ued
ĠEthiop ia
Ġcompla ined
çŁ³ å·Ŀ
Ġdisc ipl
Nov ember
r ice
ĠCarl o
ãĤ³ ãĥ³ãĥĪ
ĠLuxemb ourg
ãĤģ ãģ¦ãģĦãģŁ
ĠHug o
åº ĩ
ãĥĨãĤ£ ãĥ³ãĤ°
ĠM ob
é§ĨéĢĲ èī¦
Ġg ig
éĽ» åĭķ
ãĥŁ ãĤ¹
Rou te
ãģ® ä¸ĸçķĮ
be it
Ġunemploy ment
ĠEd gar
Ġbroad er
Ġeng aging
f und
ch in
om ore
ĠB agh
Ġret rie
arth y
ug a
ãģ¨ãģªãģ£ãģŁ ãģĮ
ãģĭãĤī ãģªãĤĭ
ĠSic ily
ë¥´ íģ¬
Ġstr ings
g ener
çĹĩ çĬ¶
å¤§ åŃĹ
éĸī éİĸ
ãĤ¦ãĤ§ ãĥ«
ç¢ ©
åĦĦ åĨĨ
é½ Ĵ
ri ev
ĠLyn n
Ġtot ally
ĠD art
ĠPro gressive
æ¶ ¼
å·² æľī
ãģķãģ¾ ãģĸãģ¾
189 6
ä½ľ è©ŀ
åįĩ ä»»
z ens
Ġlink ing
åīµ å»º
Ġtheore m
éĽĨ èĲ½
Ġcare fully
ck er
å±± åŁİ
è° ĵ
âĦ ĥ
ĠMathemat ics
Ġschem es
ne ys
ìĬ¤ íĦ°
èĪª æµ·
ĠRock y
Ġcru iser
çĶŁ æģ¯
ant o
189 7
ãĥ¼ãĥĨãĤ£ ãĤ¹ãĥĪ
Ġcolle ctor
au f
10 2
ĠAd rian
å·¦ ç¿¼
èĤ² æĪĲ
Ġaccount ing
P ac
Ġfram es
rac use
ĠChem ical
Ġthink s
ver n
æķĪ åĬĽ
æĲį å¤±
ĠLithuan ian
Ġprov iders
Ġsubmar ines
ĠìĹ Ķ
Ġdam ages
éĥµ ä¾¿
Ġre hears
24 0
Ã ½
ä»ĸ ä¹Ł
Ġpro ud
l ore
Ġment or
ĠMon teneg
éĤĢ è¯·
Ġ1 11
è®¿ éĹ®
íĥĪ ë¦¬ìķĦ
s pring
èĸ ª
åľ°åįĢ çļĦ
Ġlegit imate
ãģ« æĮĩå®ļ
ĠPop ular
que z
éħį åĤĻ
åı° åįĹ
ues day
Ġsk illed
æľĪ åł´æīĢ
Ġent ities
è§Ĵ åº¦
ym es
ral tar
ĠA IDS
Ġp enn
ĠN ass
Ġsupposed ly
R oyal
Ġw age
ãģĻãĤĭ ãĤĤ
ãģ® ãĥŀ
åħµ å£«
ãĥķãĤ© ãĥ¼ãĥŀ
å°ı åŃ¸
æĬĳ åĪ¶
ĠC od
èĲ¬ äºº
Ġgar age
Ġnever theless
in um
ĠP erson
ãĤ¢ãĤ¤ãĥ« ãĥ©ãĥ³ãĥī
Orig inally
G en
f ig
ĠSab ha
Ġexcess ive
Ġob s
ĠCour se
E lect
Ġ1 16
æ· ĳ
å¿ħ ãģļ
Ġg ray
ê¶Į ìĿĦ
è£Ŀ ç½®
ĠC ros
Ġinvestig ating
is lav
æĬ ļ
) ãĢį
äº§ ä¸ļ
ãĥīãĥ© ãĥķãĥĪ
Ġsil k
ç» ķ
ãĤĴ ãģĭ
ãĤº ãģ¯
è¯ ļ
Ġe ase
ĠAl ber
Ġw artime
Ġs ank
Ġnickn amed
ãĥļ ãĥ³
Ġcompla int
ĠAr ms
ari at
è¶ħ ç´ļ
èĥľ åĪ©
íĻĶ êµŃ
Ġsacrif ice
ast on
Ġìķ ħ
æĪ° å¾Į
ipe g
Ġ18 34
éĩı åŃĲ
ĠAd olf
eli hood
. ),
ãĢı ãĢģ
ãģªãģ© ãģ¯
ĠJ ake
Ġh o
ĠëĮĢ íļĮ
æĶ¿åºľ ãģ¯
Ġb arn
Ġmamm als
å· £
z on
ĠCom b
Ġsed iment
ĠY a
ä½¿çĶ¨ ãģķãĤĮãģŁ
Ġd iving
ott a
æľį å½¹
Ġìļ´ ìĺģ
Ġrela x
ç¹ ŀ
ĠìĻ Ģ
Un til
ĠD iana
x imately
Ġmo ist
ĠV ick
ãĤ· ãĥĥãĤ¯
ãĤ·ãĥ£ ãĥ¼
ãĤĴæľī ãģĻãĤĭ
Ġdisch arge
bre aking
it ate
éĤĢ è«ĭ
M F
ç¨ ¼
åł´ éĿ¢
sh aw
éĽĻ æĸ¹
ĠWol ver
æĿŃ å·ŀ
ĠL av
ĠConstitution al
Ġsh rine
ĠLe ip
è´ º
ĠHous ing
ĠF alk
amp h
ĠL ing
åĪĨ è§£
ro duction
éĢ£ çµĲ
Ġê°Ģì§Ģ ê³ł
Ġhabit ats
åĩº ä¼ļ
ä¼Ĭ æľĹ
Ġmod es
mar ine
ãģ®ãĤĤ ãģ¨
ĠGust av
ĠKos ovo
ll er
çģ ĺ
zy me
å¤§åŃ¦ æķĻæİĪ
Ġtr ump
çº Ĥ
Ġ ï¼Į
sh op
Ġevac uated
Ġê³ ¨
ĠD ock
ik er
ĠMarsh al
Ġcommunic ate
é¥° æ¼Ķ
ann ah
3 60
Ġretain ing
Ġf itness
Ġdream s
çİ° æĹ¶
ĠM ick
ĠK iss
æ¥½ åĻ¨
æľ¬ ç¤¾
å¤§ãģį ãģĦ
Ġmeasure ment
Ġtro op
am as
ĠI F
ĠK end
Ġmet er
éĶ¦ æłĩ
Ù Ĭ
rit z
add le
hem atic
Ġam alg
ãĤ¤ãĥ³ãĤ¿ ãĥĵãĥ¥ãĥ¼
Ġ1 13
ĠìĥĿ ìĤ°
Ġmin ers
Ġlik es
ĠPart ners
k ind
åħ±çĶ£ åħļ
ĠThe ory
ĠC rom
çī¹ éĩĮ
fore st
Ġaggreg ate
T or
amp ire
åĮĸ åĲĪçī©
åľ°åĮº çļĦ
e ur
ãģ® åħĥ
æļĹ æ®º
ä¸Ģ çķª
ì ¢
Ġ1 14
ĠG ates
ëĲĺ ì§Ģ
å¿ħè¦ģ ãģĮãģĤãĤĭ
f ight
ëŀ µ
ĠSum mit
id ity
ãĤĴä¸İ ãģĪãģŁ
ĠM oor
ver age
' )
ĠTom atoes
Mart in
í ľĺ
ãĥĨ ãĤ¤
Ġmar itime
ãģ® éĸĭçĻº
Ġvolunt ary
Ġprot esters
è¿Ĳ è¡Į
å¨ Ľ
Ġcub ic
Ġ10 2
Ġconstit ute
th on
Ġup grade
Ġad m
ä¸ī äºº
Ġvilla gers
Ġdiam ond
Ġtr igg
ĠC eleb
al ore
ãĤĦ ãĤĬ
ĠBe ing
ì¶ ©
æī± ãģĦ
S ocial
ĠRaj a
íķĻ ìŀĲ
Ġexpert ise
ĠInn ov
t urn
[...]
