{"<|endoftext|>":0,"!":1,"\"":2,"#":3,"$":4,"%":5,"&":6,"'":7,"(":8,")":9,"*":10,"+":11,",":12,"-":13,".":14,"/":15,"0":16,"1":17,"2":18,"3":19,"4":20,"5":21,"6":22,"7":23,"8":24,"9":25,":":26,";":27,"<":28,"=":29,">":30,"?":31,"@":32,"A":33,"B":34,"C":35,"D":36,"E":37,"F":38,"G":39,"H":40,"I":41,"J":42,"K":43,"L":44,"M":45,"N":46,"O":47,"P":48,"Q":49,"R":50,"S":51,"T":52,"U":53,"V":54,"W":55,"X":56,"Y":57,"Z":58,"[":59,"\\":60,"]":61,"^":62,"_":63,"`":64,"a":65,"b":66,"c":67,"d":68,"e":69,"f":70,"g":71,"h":72,"i":73,"j":74,"k":75,"l":76,"m":77,"n":78,"o":79,"p":80,"q":81,"r":82,"s":83,"t":84,"u":85,"v":86,"w":87,"x":88,"y":89,"z":90,"{":91,"|":92,"}":93,"~":94,"¡":95,"¢":96,"£":97,"¤":98,"¥":99,"¦":100,"§":101,"¨":102,"©":103,"ª":104,"«":105,"¬":106,"®":107,"¯":108,"°":109,"±":110,"²":111,"³":112,"´":113,"µ":114,"¶":115,"·":116,"¸":117,"¹":118,"º":119,"»":120,"¼":121,"½":122,"¾":123,"¿":124,"À":125,"Á":126,"Â":127,"Ã":128,"Ä":129,"Å":130,"Æ":131,"Ç":132,"È":133,"É":134,"Ê":135,"Ë":136,"Ì":137,"Í":138,"Î":139,"Ï":140,"Ð":141,"Ñ":142,"Ò":143,"Ó":144,"Ô":145,"Õ":146,"Ö":147,"×":148,"Ø":149,"Ù":150,"Ú":151,"Û":152,"Ü":153,"Ý":154,"Þ":155,"ß":156,"à":157,"á":158,"â":159,"ã":160,"ä":161,"å":162,"æ":163,"ç":164,"è":165,"é":166,"ê":167,"ë":168,"ì":169,"í":170,"î":171,"ï":172,"ð":173,"ñ":174,"ò":175,"ó":176,"ô":177,"õ":178,"ö":179,"÷":180,"ø":181,"ù":182,"ú":183,"û":184,"ü":185,"ý":186,"þ":187,"ÿ":188,"Ā":189,"ā":190,"Ă":191,"ă":192,"Ą":193,"ą":194,"Ć":195,"ć":196,"Ĉ":197,"ĉ":198,"Ċ":199,"ċ":200,"Č":201,"č":202,"Ď":203,"ď":204,"Đ":205,"đ":206,"Ē":207,"ē":208,"Ĕ":209,"ĕ":210,"Ė":211,"ė":212,"Ę":213,"ę":214,"Ě":215,"ě":216,"Ĝ":217,"ĝ":218,"Ğ":219,"ğ":220,"Ġ":221,"ġ":222,"Ģ":223,"ģ":224,"Ĥ":225,"ĥ":226,"Ħ":227,"ħ":228,"Ĩ":229,"ĩ":230,"Ī":231,"ī":232,"Ĭ":233,"ĭ":234,"Į":235,"į":236,"İ":237,"ı":238,"Ĳ":239,"ĳ":240,"Ĵ":241,"ĵ":242,"Ķ":243,"ķ":244,"ĸ":245,"Ĺ":246,"ĺ":247,"Ļ":248,"ļ":249,"Ľ":250,"ľ":251,"Ŀ":252,"ŀ":253,"Ł":254,"ł":255,"Ń":256,"Ġt":257,"ãģ":258,"he":259,"Ġa":260,"in":261,"er":262,"Ġthe":263,"on":264,"ãĤ":265,"ãĥ":266,"re":267,"Ġo":268,"ed":269,"nd":270,"Ġw":271,"Ġs":272,"at":273,"ãĢ":274,"or":275,"en":276,"is":277,"it":278,"ar":279,"an":280,"Ġc":281,"Ġof":282,"al":283,"es":284,"Ġin":285,"Ġf":286,"AR":287,"Ġb":288,"as":289,"Ġand":290,"Ġp":291,"ing":292,"NE":293,"ic":294,"ro":295,"Ġto":296,"ï¼":297,"ART":298,"ion":299,"Ġm":300,"ST":301,"Ġd":302,"le":303,"START":304,"Ġh":305,"ä¸":306,"ou":307,"ĠS":308,"il":309,"ent":310,"ãĢĤ":311,"ãĢģ":312,"ĠC":313,"ĠT":314,"Ġ1":315,"Ġre":316,"ĠA":317,"ãģ®":318,"st":319,"ï¼Į":320,"om":321,"el":322,"am":323,"Ġl":324,"LI":325,"NEW":326,"LINE":327,"NEWLINE":328,"ol":329,"ct":330,"Ġwas":331,"ĠM":332,"ad":333,"Ġth":334,"Ġe":335,"Ġn":336,"äº":337,"æľ":338,"ur":339,"et":340,"ch":341,"ĠB":342,"iv":343,"ãģ«":344,"Ġon":345,"çļ":346,"ation":347,"Ġfor":348,"ly":349,"20":350,"å¹":351,"id":352,"çļĦ":353,"ĠH":354,"åħ":355,"ir":356,"Ġì":357,"ce":358,"im":359,"ig":360,"ĠI":361,"ĠP":362,"RA":363,"ot":364,"us":365,"ut":366,"Ġg":367,"AG":368,"PH":369,"PAR":370,"RAPH":371,"PARAG":372,"PARAGRAPH":373,"Ġbe":374,"åı":375,"ter":376,"ãģŁ":377,"ra":378,"Ġas":379,"ith":380,"ow":381,"Ġhe":382,"å¤":383,"åľ":384,"EC":385,"ä»":386,"ON":387,"Ġ(":388,"TI":389,"ers":390,"la":391,"TION":392,"SEC":393,"SECTION":394,"Ġis":395,"ĠThe":396,"ãĤĭ":397,"å¹´":398,"Ġst":399,"Ġwith":400,"ĠR":401,"un":402,"ãĥ¼":403,"ãģ¯":404,"ĠD":405,"Ġ19":406,"em":407,"._":408,"ãģ¨":409,"ĠF":410,"ĠL":411,"ãĤĴ":412,"ãģĹ":413,"å®":414,"ver":415,"åĲ":416,"ul":417,"çĶ":418,"ĠG":419,"åĪ":420,"Ġat":421,"Ġby":422,"ist":423,"ĠW":424,"Ġ20":425,"Ġwh":426,"ãģ¦":427,"ĠN":428,"'s":429,"th":430,"Ġal":431,"ãģ§":432,"ìĿ":433,"æĸ":434,"os":435,"Ġcon":436,"Ġthat":437,"rom":438,"her":439,"ay":440,"Ġan":441,"ãģĮ":442,"ä½":443,"ãģĦ":444,"ĠJ":445,"ge":446,"ãĥ³":447,"Ġë":448,"ĠE":449,"um":450,"ri":451,"est":452,"âĢ":453,"Ġde":454,"æĹ":455,"åį":456,"å¾":457,"Ġfrom":458,"Ġpro":459,"Ġhis":460,"ain":461,"åĽ":462,"op":463,"åŃ":464,"ãĤĮ":465,"Ġse":466,"Ġv":467,"Ġit":468,"å°":469,"oc":470,"ac":471,"Ġcom":472,"if":473,"av":474,"od":475,"Ġ\"":476,"ity":477,"res":478,"up":479,"and":480,"pe":481,"ãģª":482,"art":483,"ate":484,"ĠO":485,"æĪ":486,"éĢ":487,"ud":488,"æĺ":489,"ew":490,"ber":491,"ies":492,"ort":493,"19":494,"ab":495,"ich":496,"ld":497,"se":498,"ore":499,"è¡":500,"ill":501,"ard":502,"Ġor":503,"ï¼Ī":504,"ï¼ī":505,"æĿ":506,"qu":507,"ĠK":508,"igh":509,"ak":510,"ĠU":511,"all":512,"ant":513,"ere":514,"ub":515,"éģ":516,"ĠIn":517,"ess":518,"ated":519,"å¸":520,"00":521,"ä¸Ģ":522,"äºº":523,"ag":524,"ment":525,"ä¸Ń":526,"Ġex":527,"Ġare":528,"Ġr":529,"ian":530,"åĬ":531,"ãĤ¹":532,"Ġch":533,"å¤§":534,"ia":535,"åľ¨":536,"ip":537,"IC":538,"Ġwere":539,"LE":540,"ãĥ¼ãĥ":541,"ive":542,"æŃ":543,"ICLE":544,"ARTICLE":545,"The":546,"íķ":547,"ap":548,"ov":549,"ug":550,"ãĢĤ_":551,"ãģ£":552,"ä¹":553,"ear":554,"ĠSt":555,"und":556,"å·":557,"ary":558,"ial":559,"ong":560,"åº":561,"ä¼":562,"our":563,"åĮ":564,"æĹ¥":565,"Ġ201":566,"ame":567,"oun":568,"Ġê":569,"æī":570,"éĥ":571,"Ġwhich":572,"æĶ":573,"ãĤī":574,"Ġle":575,"ell":576,"éĩ":577,"æľĪ":578,"Ġ2":579,"ãģĭ":580,"ãĥ»":581,"red":582,"å±":583,"ast":584,"ction":585,"æķ":586,"Ġy":587,"ĠCh":588,"ìĹ":589,"çī":590,"ine":591,"ãĥ«":592,"og":593,"ĠHe":594,"è¿":595,"ost":596,"ust":597,"uc":598,"å¼":599,"Ġsh":600,"ãģķ":601,"te":602,"ork":603,"so":604,"Ġhad":605,"éĸ":606,"èĢ":607,"æ°":608,"åĩ":609,"ical":610,"ther":611,"ish":612,"ãģĤ":613,"ord":614,"ĠV":615,"å½":616,"çĽ":617,"ãĤĬ":618,"è¨":619,"ãĤ¤":620,"ãĤĤ":621,"éĻ":622,"pt":623,"ãģĹãģ¦":624,"ight":625,"Ġ200":626,"åĨ":627,"ran":628,"å¯":629,"ãģĵ":630,"ie":631,"ãĥª":632,"Ġcomp":633,"ëĭ":634,"ure":635,"Ġun":636,"irst":637,"ãĤ¢":638,"Ġk":639,"Ġnot":640,"cl":641,"ue":642,"Ġalso":643,"ous":644,"è¦":645,"ff":646,"èĩ":647,"æĻ":648,"Ġwhe":649,"ãĥĪ":650,"fter":651,"ition":652,"åĽ½":653,"ãģĻ":654,"åĭ":655,"ave":656,"Ġhas":657,"Ġpla":658,"ign":659,"éĽ":660,"æĺ¯":661,"çµ":662,"ok":663,"ry":664,"Ġ18":665,"æľī":666,"port":667,"ome":668,"mer":669,"per":670,"Ġar":671,"ãĥ©":672,"Ġfirst":673,"ãĢĮ":674,"ãĢį":675,"ãģĹãģŁ":676,"ãģķãĤĮ":677,"are":678,"åľ°":679,"iz":680,"erv":681,"In":682,"ide":683,"æ³":684,"Ġcont":685,"åĴ":686,"Ġus":687,"ire":688,"ater":689,"ç§":690,"ass":691,"çĻ":692,"Âł":693,"å¥":694,"ice":695,"åī":696,"Ġtheir":697,"è¡Į":698,"ç«":699,"åĩº":700,"ãģ£ãģŁ":701,"åĴĮ":702,"çĤ":703,"Ġher":704,"hed":705,"ond":706,"æ²":707,"Ġte":708,"rit":709,"ëĭ¤":710,"wo":711,"man":712,"Ġad":713,"ory":714,"Ġro":715,"Ġap":716,"ä¸Ĭ":717,"ĠUn":718,"Ġits":719,"ãĥĥ":720,"è»":721,"ult":722,"Ġbut":723,"âĢĵ":724,"Ġres":725,"Ġpart":726,"ack":727,"ä»¥":728,"ect":729,"own":730,"ould":731,"Ġ3":732,"ãĤ¯":733,"Ġí":734,"Ġyear":735,"æµ":736,"æĽ":737,"ç´":738,"),":739,"Ġwho":740,"éĥ¨":741,"æł":742,"èĪ":743,"ree":744,"Ġj":745,"age":746,"ime":747,"to":748,"ations":749,"æĪĲ":750,"ìĹĲ":751,"åŃ¦":752,"ence":753,"Ġab":754,"Ġcl":755,"åŁ":756,"èª":757,"Ġac":758,"çķ":759,"æľ¬":760,"ric":761,"out":762,"ãģĻãĤĭ":763,"ĠTh":764,"ugh":765,"Ġbec":766,"ib":767,"ally":768,"Ġag":769,"ang":770,"ount":771,"çĶŁ":772,"ach":773,"åĳ":774,"ìĿ´":775,"å¾Į":776,"Ġone":777,"Ġhave":778,"Ġper":779,"ens":780,"ëĬ":781,"ä¿":782,"éĿ":783,"æ´":784,"ound":785,"éļ":786,"Ġthis":787,"æĭ":788,"over":789,"clud":790,"ç»":791,"ä½ľ":792,"ìĿĺ":793,"ãģ¾":794,"ãģĨ":795,"Ġman":796,"amp":797,"land":798,"low":799,"ĠIt":800,"ru":801,"ãĤĪ":802,"ren":803,"ool":804,"uring":805,"åł":806,"ational":807,"ëĬĶ":808,"ile":809,"ade":810,"ãģĦãĤĭ":811,"Ġwork":812,"æİ":813,"wn":814,"äºĨ":815,"åİ":816,"ê³":817,"ph":818,"ild":819,"çĲ":820,"ke":821,"Ġtwo":822,"çİ":823,"åĵ":824,"Ġbeen":825,"ĠY":826,"çĶ¨":827,"Ġrec":828,"ä¾":829,"æĢ":830,"oin":831,"ark":832,"ions":833,"ãĤ·":834,"æĻĤ":835,"è®":836,"ç¾":837,"ãģĤãĤĭ":838,"éķ":839,"ne":840,"å»":841,"ãĥ³ãĥ":842,"Ġoff":843,"Ġother":844,"Ġen":845,"Ġinclud":846,"ä¼ļ":847,"for":848,"Ġplay":849,"ts":850,"æ¸":851,"å¿":852,"ìĦ":853,"åĢ":854,"é«":855,"old":856,"tern":857,"ubl":858,"åĲĮ":859,"Ġafter":860,"vel":861,"Ġdis":862,"ied":863,"ĠAl":864,"ç¬":865,"ec":866,"Ġim":867,"act":868,"æĮ":869,"ë¡":870,"uch":871,"gh":872,"ä¸į":873,"Ġsc":874,"ates":875,"æĬ":876,"èµ":877,"ces":878,"Ġup":879,"ember":880,"åĲį":881,"201":882,"ors":883,"ted":884,"ely":885,"ents":886,"çĤº":887,"Ġout":888,"ä¸»":889,"åĪĨ":890,"ä»ĸ":891,"Ġthey":892,"Ġcomm":893,"åħ¬":894,"ite":895,"aw":896,"pl":897,"Ġshe":898,"ãĤ¿":899,"chool":900,"Ġ199":901,"ãĤģ":902,"urn":903,"one":904,"å®¶":905,"ind":906,"ä¸º":907,"ç¤":908,"200":909,"ãģĭãĤī":910,"we":911,"è¯":912,"ons":913,"Ġnew":914,"Ġover":915,"æĸ¹":916,"å§":917,"ited":918,"íķĺ":919,"oy":920,"æ¯":921,"Ġ4":922,"ased":923,"ä»£":924,"ãģı":925,"ress":926,"ĠDe":927,"ced":928,"ĠAr":929,"ç¬¬":930,"æ±":931,"orn":932,").":933,"Ġdes":934,"iss":935,"ail":936,"ose":937,"æ¥":938,"gan":939,"ath":940,"able":941,"ivers":942,"ë¡ľ":943,"ance":944,"Ġinto":945,"Ġsp":946,"ãĥķ":947,"èĥ":948,"ough":949,"åŃĲ":950,"hip":951,"les":952,"åľĭ":953,"ase":954,"æŀ":955,"ĠRe":956,"ck":957,"å£":958,"ãĥ¬":959,"ãĥŃ":960,"fer":961,"Ġall":962,"Ġev":963,"Ġne":964,"çľ":965,"äºĭ":966,"Ġund":967,"è§":968,"åĲĪ":969,"é¦":970,"Ġra":971,"Ġhim":972,"çŃ":973,"ward":974,"éĺ":975,"Ġtime":976,"ood":977,"ìł":978,"ãĤ¸":979,"ĠìĿ":980,"èĩª":981,"ĠMar":982,"ft":983,"ç·":984,"ob":985,"æ³ķ":986,"ãģĿ":987,"ãģ£ãģ¦":988,"ìĿĦ":989,"ings":990,"Ġserv":991,"ç¨":992,"ĠĠ":993,"Ġtra":994,"èģ":995,"ä¸ĭ":996,"é«ĺ":997,"è¾":998,"rough":999,"è³":1000,"ç©":1001,"Ġpre":1002,"è¥":1003,"ê°":1004,"Ġcan":1005,"ãģį":1006,"ãĤ«":1007,"ĠNew":1008,"Ġgro":1009,"æ¬":1010,"éł":1011,"Ġ5":1012,"Ġwould":1013,"Ġunder":1014,"ĠCom":1015,"18":1016,"ĠAn":1017,"Ġspe":1018,"å¸Ĥ":1019,"çĪ":1020,"ss":1021,"è©":1022,"inal":1023,"æ°ĳ":1024,"èĢħ":1025,"å¤ļ":1026,"ans":1027,"åħ¥":1028,"Ġwhen":1029,"ĠLe":1030,"ãģĳ":1031,"ife":1032,"åīį":1033,"æĶ¿":1034,"du":1035,"cess":1036,"æ¨":1037,"Ġcol":1038,"ãģĵãģ¨":1039,"Ġyears":1040,"cted":1041,"ç¶":1042,"æĸ°":1043,"Ġmore":1044,"Ġbu":1045,"ious":1046,"ë¥":1047,"Ġpl":1048,"è¥¿":1049,"ãĤ£":1050,"Ġsec":1051,"è£":1052,"ä¹ĭ":1053,"Ġloc":1054,"Ġagain":1055,"ç«ĭ":1056,"io":1057,"å®ļ":1058,"ished":1059,"ĠSe":1060,"ake":1061,"ton":1062,"ç¥":1063,"way":1064,"èŃ":1065,"arly":1066,"Ġwhere":1067,"rib":1068,"æīĢ":1069,"Ġbet":1070,"Ġele":1071,"æĸ¯":1072,"ìľ":1073,"10":1074,"é¡":1075,"ìŀ":1076,"ram":1077,"éģĵ":1078,"ered":1079,"ì§":1080,"Ġret":1081,"outh":1082,"æı":1083,"æľĢ":1084,"è·":1085,"çº":1086,"ilm":1087,"çŁ":1088,"ve":1089,"ç½":1090,"Ġ198":1091,"oth":1092,"çı":1093,"Ġpr":1094,"æĸĩ":1095,"è²":1096,"ä½į":1097,"Ġstud":1098,"rad":1099,"orld":1100,"Ġìŀ":1101,"Ġreg":1102,"ä»»":1103,"Ġop":1104,"ick":1105,"ual":1106,"èī":1107,"æĿĳ":1108,"ason":1109,"ook":1110,"Ġwe":1111,"Ġsup":1112,"Ġatt":1113,"è¦ģ":1114,"Ġme":1115,"reat":1116,"åĪ°":1117,"Ġpubl":1118,"è¢":1119,"use":1120,"form":1121,"Ġcons":1122,"åįĹ":1123,"ä¸ĸ":1124,"oh":1125,"Ġ6":1126,"ãĤĦ":1127,"Ġinter":1128,"ween":1129,"ident":1130,"olog":1131,"çī©":1132,"å±±":1133,"Ġkn":1134,"éķ·":1135,"åĮĹ":1136,"Ġduring":1137,"æĦ":1138,"Ġind":1139,"æķĻ":1140,"çī¹":1141,"åĬł":1142,"ãĤ°":1143,"ener":1144,"äºİ":1145,"âĢĿ":1146,"Ġonly":1147,"ãģĬ":1148,"Ġass":1149,"Ġcent":1150,"ily":1151,"âĢľ":1152,"å¹³":1153,"Ĥ¬":1154,"æĸ¼":1155,"ãģ¨ãģĹãģ¦":1156,"Ġthem":1157,"rans":1158,"ãģĦãģŁ":1159,"Ġfe":1160,"åł´":1161,"Ġact":1162,"Ġthere":1163,"æ©":1164,"ãģ§ãģĤãĤĭ":1165,"åħ¶":1166,"ĠEn":1167,"è»į":1168,"Ġmade":1169,"000":1170,"Ġrep":1171,"meric":1172,"æµ·":1173,"ron":1174,"duc":1175,"éĹ":1176,"end":1177,"Ġthen":1178,"çĶ±":1179,"éĸĭ":1180,"iversity":1181,"Ġmost":1182,"æ¼":1183,"Ġqu":1184,"Ġrem":1185,"che":1186,"Ġform":1187,"ics":1188,"íķľ":1189,"èĭ":1190,"Ġsub":1191,"Ġ197":1192,"fore":1193,"orth":1194,"ãĢĭ":1195,"ãĢĬ":1196,"ollow":1197,"åĮĸ":1198,"Ġmov":1199,"Ġpol":1200,"åıĬ":1201,"åº¦":1202,"Ġthrough":1203,"Ġlater":1204,"èĢĮ":1205,"any":1206,"çĲĨ":1207,"cial":1208,"éĢļ":1209,"ãģ©":1210,"ock":1211,"Ġapp":1212,"Ġbetween":1213,"ä¸ī":1214,"ãģ«ãģ¯":1215,"ating":1216,"Ġso":1217,"ins":1218,"ouse":1219,"ral":1220,"ict":1221,"overn":1222,"ãĥŀ":1223,"ãģ§ãģ¯":1224,"éĸĵ":1225,"ities":1226,"è¢«":1227,"ê³ł":1228,"ë¦":1229,"Ġpe":1230,"ix":1231,"Ġfound":1232,"åħ¨":1233,"è¡¨":1234,".\"":1235,"ince":1236,"ĠSh":1237,"ãģķãĤĮãģŁ":1238,"æľŁ":1239,"ãĤ³":1240,"Ġbecame":1241,"ah":1242,"ãĥī":1243,"Ġrel":1244,"Ġabout":1245,"ision":1246,"Ġsuch":1247,"ãĤª":1248,"Ġteam":1249,"åĭķ":1250,"Ġthree":1251,"ãĥĨ":1252,"Ġused":1253,"ãģ¤":1254,"ived":1255,"Ġpres":1256,"å¾Ĺ":1257,"ars":1258,"ever":1259,"als":1260,"ĠThis":1261,"çĦ":1262,"ìĭ":1263,"Ġsy":1264,"åı¯":1265,"round":1266,"ace":1267,"åĪ©":1268,"Ġthan":1269,"eld":1270,"å°ı":1271,"å»º":1272,"Ġfilm":1273,"¸°":1274,"Â·":1275,"ãĤı":1276,"ç¤¾":1277,"Ġinv":1278,"ĠAmeric":1279,"éŁ":1280,"cc":1281,"Ġsome":1282,"Ġend":1283,"æĢ§":1284,"ãĤ¦":1285,"å¤ĸ":1286,"ĠCol":1287,"åĲİ":1288,"pr":1289,"êµ":1290,"aj":1291,"ç±":1292,"éĿ¢":1293,"ìĿĢ":1294,"èĥ½":1295,"ann":1296,"ik":1297,"ãģĪ":1298,"ìĦľ":1299,"12":1300,"hen":1301,"oci":1302,"att":1303,"Ġco":1304,"air":1305,"ific":1306,"ä½¿":1307,"åĬĽ":1308,"Ġrele":1309,"velop":1310,"ëı":1311,"Ġ196":1312,"æĿ±":1313,"led":1314,"Ġschool":1315,"ative":1316,"ject":1317,"Ġinc":1318,"çŃī":1319,"Ġdec":1320,"ank":1321,"ãĥĹ":1322,"ĠShe":1323,"è½":1324,"Ġam":1325,"ury":1326,"Ġfam":1327,"Ġent":1328,"Ġ7":1329,"æĪ¦":1330,"Ġnum":1331,"ãĥ¡":1332,"ather":1333,"æ®":1334,"æ¥Ń":1335,"pos":1336,"ãĥ¥":1337,"Ġprov":1338,"ìķ":1339,"az":1340,"æīĭ":1341,"arg":1342,"ale":1343,"ĠUniversity":1344,"ier":1345,"Ġcall":1346,"åĨħ":1347,"Ġbeing":1348,"é»":1349,"ãĥĲ":1350,"Ġsecond":1351,"Ġìł":1352,"Ġwell":1353,"Ġdo":1354,"Īëĭ¤":1355,"çı¾":1356,"äºĮ":1357,"emb":1358,"ular":1359,"ement":1360,"åģ":1361,"Ġacc":1362,"åĮº":1363,"ê°Ģ":1364,"ãģ«ãĤĪ":1365,"ines":1366,"ten":1367,"å½ĵ":1368,"å·¥":1369,"ĠOn":1370,"very":1371,"ames":1372,"other":1373,"Ġseason":1374,"ëħ":1375,"Ġdef":1376,"ĠZ":1377,"ãĥĩ":1378,"è´":1379,"ĮĢ":1380,"til":1381,"è¶":1382,"çł":1383,"Ġagainst":1384,"æĺİ":1385,"arri":1386,"istory":1387,"owever":1388,"Ġfollow":1389,"Ġtrans":1390,"Ġpos":1391,"æĥ":1392,"çĻº":1393,"Ġset":1394,"éĤ":1395,"ìľ¼":1396,"å¼ı":1397,"ĠInd":1398,"Ġ8":1399,"inn":1400,"Ġ194":1401,"Ġ17":1402,"ãģĿãģ®":1403,"ãĥ£":1404,"ãĤīãĤĮ":1405,"Ã©":1406,"ep":1407,"ãģł":1408,"erm":1409,"arl":1410,"ople":1411,"50":1412,"ë¥¼":1413,"Ġed":1414,"æ©Ł":1415,"ãģ¦ãģĦãĤĭ":1416,"æ¬¡":1417,"Ġmany":1418,"å·ŀ":1419,"ãĤµ":1420,"Ġappe":1421,"11":1422,"Ġincluding":1423,"æĹ¶":1424,"é£":1425,"ys":1426,"ober":1427,"éĩĮ":1428,"åı°":1429,"ãģ¨ãģª":1430,"ĠAs":1431,"tain":1432,"ç®":1433,"Ġbefore":1434,"ism":1435,"Ġart":1436,"ãĥĭ":1437,"åŃ¸":1438,"iew":1439,"å¤©":1440,"199":1441,"Ġpop":1442,"ì§Ģ":1443,"ters":1444,"çİĭ":1445,"ĠCon":1446,"ãĤ¨":1447,"Ġsur":1448,"ash":1449,"ike":1450,"Ġwhile":1451,"è·¯":1452,"Ġsign":1453,"å¦":1454,"usic":1455,"ëĵ":1456,"åĪ¶":1457,"æĿ¥":1458,"èĲ":1459,"ĠUnited":1460,"åħ±":1461,"ley":1462,"åĽł":1463,"ty":1464,"urch":1465,"èĤ":1466,"ä½ĵ":1467,"æľĥ":1468,"iam":1469,"æĹ¥æľ¬":1470,"ution":1471,"ĠPro":1472,"ãĢı":1473,"è¨Ń":1474,"ãĢİ":1475,"its":1476,"Ġdist":1477,"çĽ®":1478,"Ġlead":1479,"Ġfour":1480,"éĩį":1481,"ohn":1482,"ctor":1483,"Ġadd":1484,"iver":1485,"ĠìĿ´":1486,"son":1487,"åĿ":1488,"ern":1489,"Ġown":1490,"Ġrecord":1491,"ise":1492,"ield":1493,"aid":1494,"Ġdevelop":1495,"ãĥł":1496,"areer":1497,"è¼":1498,"Ġrece":1499,"arn":1500,"Ġ9":1501,"ures":1502,"Ġuntil":1503,"éĥ½":1504,"Ġph":1505,"ired":1506,"elf":1507,"ä¹Ł":1508,"æŁ":1509,"Ġ10":1510,"ower":1511,"åĤ":1512,"ìĬ":1513,"ting":1514,"Ġest":1515,"\".":1516,"ç¾İ":1517,"ists":1518,"ll":1519,"Ġem":1520,"Ġshow":1521,"Ġinst":1522,"Ġno":1523,"å¾·":1524,"ĠSc":1525,"æŃ£":1526,"å²":1527,"æº":1528,"ute":1529,"è»Ĭ":1530,"åĢĭ":1531,"åħĭ":1532,"ìĸ":1533,"ä¸İ":1534,"ãĤŃ":1535,"åİŁ":1536,"ãģªãģ©":1537,"æ²»":1538,"Ġbro":1539,"overnment":1540,"erson":1541,"Ġboth":1542,"stem":1543,"cy":1544,"ãĥĸ":1545,"æ°´":1546,"Ġser":1547,"åĪĿ":1548,"åı£":1549,"Ġmet":1550,"Ġlife":1551,"Ġdire":1552,"17":1553,"Ġknown":1554,"Ġgo":1555,"Ġday":1556,"eb":1557,"âĢĻ":1558,"ãĤº":1559,"åħĥ":1560,"Ġhigh":1561,"Ġê°":1562,"Ġmain":1563,"åįģ":1564,"ĠEng":1565,"ĠComm":1566,"\",":1567,"Ġgroup":1568,"åıĹ":1569,"ved":1570,"une":1571,"raph":1572,"éĩĳ":1573,"å¢":1574,"ë¦¬":1575,"è«":1576,"oot":1577,"ãģĵãģ®":1578,"å®ī":1579,"15":1580,"Ġfin":1581,"èĳ":1582,"enn":1583,"tend":1584,"ç³":1585,"ç¦":1586,"ç¸":1587,"æŃ¤":1588,"Ġcount":1589,"der":1590,"Ġmon":1591,"éĻ¢":1592,"åķ":1593,"ëħĦ":1594,"Ġmod":1595,"Ġcap":1596,"åĵ¡":1597,"Ġ16":1598,"é¢":1599,"ĠAt":1600,"Ġsever":1601,"Ġexp":1602,"ãĥģ":1603,"erman":1604,"ven":1605,"Ġë°":1606,"åĸ":1607,"æĵ":1608,"16":1609,"Ġstart":1610,"ï¼ļ":1611,"å£«":1612,"Ġoper":1613,"ê²":1614,"Ġbuild":1615,"ek":1616,"Ġpeople":1617,"30":1618,"Ġcre":1619,"ĠMay":1620,"åĽŀ":1621,"æł¡":1622,"Ġback":1623,"èĩ³":1624,"ually":1625,"ĠIs":1626,"amed":1627,"ized":1628,"Ġfl":1629,"ract":1630,"ause":1631,"Ġwrit":1632,"Ġorig":1633,"åŁº":1634,"çĽ¸":1635,"Ġreturn":1636,"ê¸°":1637,"ina":1638,"å¥³":1639,"Ġdif":1640,"Ġmed":1641,"ĠFran":1642,"ãĥĬ":1643,"Ġwill":1644,"èĬ":1645,"ĠJohn":1646,"ãĤĵ":1647,"uss":1648,"ful":1649,"çģ":1650,"ìļ":1651,"æ¼Ķ":1652,"ural":1653,"Ġchar":1654,"èº":1655,"ìĺ":1656,"uro":1657,"sh":1658,"Ġ_":1659,"Ġmin":1660,"å¡":1661,"æĴ":1662,"cept":1663,"On":1664,"ãĤ§":1665,"Ġìķ":1666,"ëĤ":1667,"ãģªãģĦ":1668,"ĠJan":1669,"ãģ¡":1670,"ìĽ":1671,"çĲĥ":1672,"Ġnumber":1673,"ex":1674,"Ġprog":1675,"éĢ²":1676,"Ġcalled":1677,"Ġsm":1678,"ĠQ":1679,"Ġarea":1680,"Ġcomple":1681,"Ġcontin":1682,"ä¸ª":1683,"Ġoffic":1684,"Ġsing":1685,"Ġ15":1686,"ĠFor":1687,"Ġ-":1688,"èĻ":1689,"å§ĭ":1690,"Ġob":1691,"éģ¸":1692,"ives":1693,"ctions":1694,"ĠSchool":1695,"Ġsuc":1696,"ĠAmerican":1697,"ç§ĳ":1698,"æķ°":1699,"ĠCl":1700,"Ġdesign":1701,"the":1702,"Ġopen":1703,"ple":1704,"åŁİ":1705,"ãĥ¼ãĥ«":1706,"Ġearly":1707,"åĲĳ":1708,"ants":1709,"æģ":1710,"Ġlong":1711,"Ġbegan":1712,"éħ":1713,"Ġann":1714,"åºľ":1715,"å³":1716,"Ġgener":1717,"Ġsame":1718,"ç·ļ":1719,"ission":1720,"Ġconst":1721,"Ġint":1722,"ãģ¨ãģĦ":1723,"ãĥĵ":1724,"ĠJu":1725,"ĠWorld":1726,"Ġmat":1727,"Ġseveral":1728,"Ġ'":1729,"èĭ±":1730,"æĶ¹":1731,"Ġpublic":1732,"ä½Ĩ":1733,"con":1734,"çķĮ":1735,"bum":1736,"ëıĦ":1737,"ĠWar":1738,"å½¢":1739,"ues":1740,"els":1741,"ãģŁãĤģ":1742,"ional":1743,"ague":1744,"åįĢ":1745,"ĠSp":1746,"Ġprodu":1747,"èµ·":1748,"aking":1749,"ĠBrit":1750,"Ġthese":1751,"èĪĩ":1752,"my":1753,"Ġname":1754,"Ġchild":1755,"Ġsystem":1756,"ued":1757,"ped":1758,"ax":1759,"Ġuse":1760,"åĵģ":1761,"imes":1762,"Ġmay":1763,"ĠPh":1764,"ull":1765,"æ´»":1766,"Ġcareer":1767,"Ġany":1768,"å¿ĥ":1769,"Ġvar":1770,"..":1771,"ets":1772,"ç³»":1773,"arm":1774,"por":1775,"Ġ195":1776,"rid":1777,"Ġfamily":1778,"ìľ¼ë¡ľ":1779,"ided":1780,"çĿ":1781,"åŀ":1782,"ured":1783,"Ġ12":1784,"ìĬ¤":1785,"ister":1786,"ird":1787,"åı²":1788,"æł¼":1789,"14":1790,"çĶ°":1791,"Ġjoin":1792,"ĠAd":1793,"uth":1794,"ised":1795,"ëł":1796,"ugust":1797,"ility":1798,"ĠìĦ":1799,"ĠStates":1800,"æĮģ":1801,"iving":1802,"abl":1803,"Ġland":1804,"Ġorgan":1805,"198":1806,"åıĸ":1807,"æĭī":1808,"æ¡":1809,"ology":1810,"Ġê²":1811,"ãģ§ãģĤ":1812,"ior":1813,"ograph":1814,"Ġremain":1815,"Ġeff":1816,"ball":1817,"æĦı":1818,"ible":1819,"éĽ»":1820,"ëĲ":1821,"ajor":1822,"vent":1823,"Ġsong":1824,"Ġrun":1825,"Ġfeat":1826,"uary":1827,"ë©":1828,"Ġmil":1829,"eng":1830,"Ġdid":1831,"ey":1832,"ared":1833,"ĠGerman":1834,"æ§":1835,"åĦ":1836,"ĠNational":1837,"ìĸ´":1838,"ai":1839,"ross":1840,"ĠYork":1841,"rist":1842,"èªŀ":1843,"Ġsupport":1844,"æĮĩ":1845,"ments":1846,"ternational":1847,"·¸":1848,"ient":1849,"Ġcity":1850,"illa":1851,"èº«":1852,"Ġcolle":1853,"ĠWh":1854,"äº¤":1855,"Ġreleased":1856,"ĠAfter":1857,"rand":1858,"åıĳ":1859,"ĠAugust":1860,"ĠìĹ":1861,"ìĹĲìĦľ":1862,"ene":1863,"ĠNov":1864,"Ġalbum":1865,"Ŀ¼":1866,"ital":1867,"Ġgovernment":1868,"ë§":1869,"Ġbel":1870,"xt":1871,"Ġseries":1872,"ety":1873,"ptember":1874,"âĢĶ":1875,"ilt":1876,"å¸ĥ":1877,"Ġnear":1878,"Ġplayed":1879,"Ġinf":1880,"Ġprom":1881,"ĠAust":1882,"äº¬":1883,"ãĥŁ":1884,"ĠThey":1885,"by":1886,"ç±³":1887,"æ¯Ķ":1888,"ä¿Ŀ":1889,"ined":1890,"Īĺ":1891,"Ġmusic":1892,"Ġbl":1893,"Ġair":1894,"ãĤ¹ãĥĪ":1895,"åı¸":1896,"ìĿ¸":1897,"ange":1898,"ãĥĳ":1899,"çĻ¼":1900,"ç¥ŀ":1901,"ĠHis":1902,"ink":1903,"Ġìĭ":1904,"å¸¸":1905,"¶Ģ":1906,"ĠSeptember":1907,"ãĥĥãĤ¯":1908,"ĠJune":1909,"Ġwon":1910,"çµĦ":1911,"duced":1912,"Ġgame":1913,"Ġcould":1914,"ĠOct":1915,"au":1916,"èĹ":1917,"æĶ¾":1918,"ĠMarch":1919,"Ġstate":1920,"Ġpartic":1921,"ret":1922,"Ġalong":1923,"Ġprogram":1924,"ç©º":1925,"éļĬ":1926,"rict":1927,"ãģ«ãģª":1928,"13":1929,"ãģĹãģ¦ãģĦãĤĭ":1930,"rop":1931,"ĠJuly":1932,"éĽĨ":1933,"ulation":1934,"å½±":1935,"ium":1936,"Ġcommun":1937,"å¯¾":1938,"æıĲ":1939,"Ġdr":1940,"åĥ":1941,"ãģĽ":1942,"Ġdisc":1943,"rol":1944,"ãģĦãģ¦":1945,"ĠJanuary":1946,"æħ":1947,"omen":1948,"ĠOctober":1949,"ç¿":1950,"Ġpass":1951,"oard":1952,"ris":1953,"Ġbook":1954,"pril":1955,"arch":1956,"Ġ193":1957,"Ġocc":1958,"Ġhead":1959,"è¦ĭ":1960,"Ġgu":1961,"ĠCan":1962,"å°Ķ":1963,"Ġtook":1964,"Ġstr":1965,"ically":1966,"æµģ":1967,"Ġresult":1968,"èı":1969,"è¨ĺ":1970,"ãĥªãĥ¼":1971,"aving":1972,"ãģ¨ãģĦãģĨ":1973,"mber":1974,"åĨĽ":1975,"Ġspec":1976,"ëĿ¼":1977,"çį":1978,"ãģ¿":1979,"ĠCent":1980,"ox":1981,"æ·":1982,"fess":1983,"ĠSouth":1984,"çĽ´":1985,"ĠEuro":1986,"ãĥ§":1987,"ãĤĪãģĨ":1988,"illion":1989,"Ġsince":1990,"éĢ£":1991,"ĠBe":1992,"part":1993,"ç¯":1994,"ãģ°":1995,"Ġ$":1996,"ove":1997,"ĠApril":1998,"é©":1999,"åĭĻ":2000,"éŁ³":2001,"ery":2002,"Ġsim":2003,"Ġsuccess":2004,"Ġsmall":2005,"íķ´":2006,"chn":2007,"Ġtown":2008,"çµĲ":2009,"lay":2010,"æ¶":2011,"èİ":2012,"éĢł":2013,"åŀĭ":2014,"å°±":2015,"å·Ŀ":2016,"embers":2017,"He":2018,"Ġhouse":2019,"Ġcur":2020,"éľ":2021,"km":2022,"augh":2023,"Ġins":2024,"cember":2025,"pend":2026,"ç½®":2027,"ales":2028,"æĽ¸":2029,"Ġdiffer":2030,"æİ¥":2031,"Ġplace":2032,"ices":2033,"ãģ¸":2034,"Ġpoin":2035,"ä¿¡":2036,"ĠâĢĵ":2037,"ä¸¦":2038,"åĽĽ":2039,"Ġë§":2040,"å¹´ãģ«":2041,"Ġeach":2042,"ìĭľ":2043,"è¿ĳ":2044,"oman":2045,"çĶ»":2046,"ãĤ»":2047,"Ġê³":2048,"çĪ¾":2049,"æ¹":2050,"Ġcompany":2051,"Ġestabl":2052,"æ¸¯":2053,"arge":2054,"ë°":2055,"Ġhel":2056,"ãģ¾ãģŁ":2057,"ĠNovember":2058,"íĸ":2059,"Ġnamed":2060,"Ġì§":2061,"Ġlocal":2062,"å®ĺ":2063,"ĠHowever":2064,"Ġhome":2065,"ĠDecember":2066,"ival":2067,"Ġ14":2068,"view":2069,"éĩı":2070,"wards":2071,"ĠOr":2072,"Ġmajor":2073,"tle":2074,"ï¼īï¼Į":2075,"å¹¶":2076,"è¨Ģ":2077,"ãĥĥãĥĪ":2078,"Ġsaid":2079,"çŁ¥":2080,"çľģ":2081,"Ġage":2082,"å¤§åŃ¦":2083,"ĠPr":2084,"è§£":2085,"rent":2086,"éģİ":2087,"ĠĠĠĠ":2088,"Ġaround":2089,"ĠGe":2090,"ĠMan":2091,"Ġreport":2092,"ãĤĤãģ®":2093,"ãĥ¼ãĥĪ":2094,"çĦ¶":2095,"å§Ķ":2096,"èŃ°":2097,"Ġreceived":2098,"æ¢":2099,"ble":2100,"197":2101,"Ġdown":2102,"Ġtr":2103,"æį":2104,"ç®¡":2105,"ele":2106,"ãģĺ":2107,"ãĥ³ãĥī":2108,"ience":2109,"ĠCity":2110,"ored":2111,"ĠCount":2112,"ĠAss":2113,"af":2114,"ians":2115,"åĳ½":2116,"ged":2117,"å¤ª":2118,"Ġold":2119,"Ġref":2120,"Ġworld":2121,"é¦ĸ":2122,"Ġleft":2123,"Ġband":2124,"though":2125,"ãĥı":2126,"Ġnow":2127,"è±":2128,"arried":2129,"£¼":2130,"ently":2131,"é¦¬":2132,"ï¼Ľ":2133,"Ġclub":2134,"Ġbecause":2135,"åĶ":2136,"é¤":2137,"Ġfollowing":2138,"pro":2139,"Ġeng":2140,"Ġformer":2141,"med":2142,"Ġtit":2143,"iness":2144,"ìĤ¬":2145,"çĭ":2146,"éģĭ":2147,"ring":2148,"Ġbus":2149,"Ġheld":2150,"ĠBritish":2151,"Ġrest":2152,"Ġ2010":2153,"ç´Ħ":2154,"Ġmembers":2155,"Ġpolit":2156,"åıį":2157,"Ġcour":2158,"Ġext":2159,"ĠUS":2160,"resent":2161,"Ġclass":2162,"å³¶":2163,"æ£":2164,"éĢĻ":2165,"oung":2166,"ĠEurope":2167,"Ġ192":2168,"lack":2169,"Ġcamp":2170,"ãĥĢ":2171,"ä¾Ĩ":2172,"è¿Ļ":2173,"èī²":2174,"åı¤":2175,"è°":2176,"orm":2177,"ĠNorth":2178,"Ġdesc":2179,"ampions":2180,"å°ĳ":2181,"ãĥ³ãĤ°":2182,"yn":2183,"get":2184,"ĠColle":2185,"æľĿ":2186,"Ġcentury":2187,"Ġê·¸":2188,"Ġlaw":2189,"éĸ¢":2190,"Ġborn":2191,"Ġserved":2192,"ording":2193,"Ġ13":2194,"min":2195,"ĠBro":2196,"æĶ¯":2197,"ony":2198,"é§":2199,"omet":2200,"ane":2201,"ately":2202,"ĠII":2203,"ìĻ":2204,"Ġ2011":2205,"Ġconc":2206,"Ġcharact":2207,"åĪĹ":2208,"ator":2209,"Ġevent":2210,"ĠAll":2211,"ebru":2212,"ebruary":2213,"ãģķãĤĮãĤĭ":2214,"ç¤º":2215,"Ġdeath":2216,"ling":2217,"éĮ":2218,"vers":2219,"ç¨ĭ":2220,"Ġrequ":2221,"Ġbuilt":2222,"åı·":2223,"å°į":2224,"å¯¹":2225,"ê³¼":2226,"å°Ĩ":2227,"æĽ²":2228,"Ġlast":2229,"åĨį":2230,"bor":2231,"inc":2232,"å±ķ":2233,"çĤ¹":2234,"ont":2235,"hes":2236,"Ġdet":2237,"ãĥĻ":2238,"Ġcar":2239,"ham":2240,"Ġmember":2241,"iod":2242,"oss":2243,"Ġline":2244,"Ġterm":2245,"pect":2246,"çłĶ":2247,"çŁ³":2248,"Ġ2012":2249,"itions":2250,"Ġdied":2251,"æŀĹ":2252,"ights":2253,"éķ¿":2254,"Ġlarge":2255,"ĠWill":2256,"ĠFebruary":2257,"ert":2258,"Ġdue":2259,"è¨Ī":2260,"ats":2261,"ages":2262,"Ġtri":2263,"ille":2264,"rew":2265,"ĠGu":2266,"Ġallow":2267,"ãĥ¢":2268,"æĽ´":2269,"ott":2270,"Ġfinal":2271,"ĠKing":2272,"aster":2273,"Ġpresent":2274,"me":2275,"yl":2276,"Ġmark":2277,"ãĤ¬":2278,"Ġstation":2279,"æĹı":2280,"reen":2281,"isc":2282,"alth":2283,"ç¹":2284,"uck":2285,"åĻ":2286,"å¼Ģ":2287,"ç§°":2288,"çĬ":2289,"æŀľ":2290,"åĲĦ":2291,"Ġconf":2292,"ches":2293,"ìŀĲ":2294,"Ġ2008":2295,"Ġbuilding":2296,"Ġ2009":2297,"åĭĿ":2298,"ounc":2299,"å¦Ĥ":2300,"ëĤĺ":2301,"ĠEd":2302,"ë¬":2303,"ides":2304,"row":2305,"Ġëĭ":2306,"iet":2307,"196":2308,"ãĤ¿ãĥ¼":2309,"ç¨®":2310,"ç¾©":2311,"que":2312,"Ġdeb":2313,"Ġmoved":2314,"Ġ2013":2315,"å±Ģ":2316,"Ġdem":2317,"ãĤ½":2318,"ering":2319,"ëĵ¤":2320,"ruct":2321,"ĠAustral":2322,"ps":2323,"æ²³":2324,"ung":2325,"ĠCar":2326,"ä½¿çĶ¨":2327,"Ġadv":2328,"Ġ2014":2329,"Ġincre":2330,"Ġconsid":2331,"Ġfac":2332,"åħµ":2333,"day":2334,"ĠAm":2335,"used":2336,"ì¹":2337,"Ġeduc":2338,"Ġappro":2339,"ìĥ":2340,"Ġ&":2341,"ĠPol":2342,"Ġlike":2343,"laim":2344,"Ġty":2345,"let":2346,"Ġstill":2347,"ãģ¾ãģ§":2348,"å°¼":2349,"å¨":2350,"uff":2351,"ëĮĢ":2352,"ified":2353,"ĠState":2354,"atic":2355,"Ġsix":2356,"ration":2357,"Ġìĺ":2358,"åħī":2359,"ĠChrist":2360,"ature":2361,"stit":2362,"ves":2363,"Ġjust":2364,"ster":2365,"èį":2366,"ĠCal":2367,"ublic":2368,"ë³":2369,"ief":2370,"åıĤ":2371,"ĠìĤ¬":2372,"Ġchildren":2373,"ney":2374,"Ġvis":2375,"alk":2376,"194":2377,"ĠCo":2378,"ãģ³":2379,"ining":2380,"ëŀ":2381,"åħĪ":2382,"Ġvers":2383,"ively":2384,"Ġvery":2385,"ãĤıãĤĮ":2386,"Ġincluded":2387,"Ġlit":2388,"Ġperson":2389,"ien":2390,"Ġpublished":2391,"å¼ķ":2392,"Ġson":2393,"ization":2394,"æĺŁ":2395,"Ġìľ":2396,"Ġcompet":2397,"Ġleg":2398,"gy":2399,"com":2400,"Ġanother":2401,"Ġêµ":2402,"istor":2403,"iven":2404,"ĠëĮĢ":2405,"çµ±":2406,"ĠAf":2407,"tended":2408,"Ġfive":2409,"ner":2410,"Ġ2015":2411,"åŃĹ":2412,"Ġpost":2413,"riend":2414,"ĠBar":2415,"ĠHar":2416,"Ġwater":2417,"éĩİ":2418,"History":2419,"ä¸ĸçķĮ":2420,"å¤«":2421,"Ġthose":2422,"æŃ»":2423,"Ġsingle":2424,"æ»":2425,"éĢģ":2426,"rench":2427,"Ġmanag":2428,"Ġperiod":2429,"ĠMin":2430,"reet":2431,"æĥħ":2432,"ially":2433,"éĺ¿":2434,"ç©¶":2435,"ĠThere":2436,"åĬ¨":2437,"Ġwithin":2438,"25":2439,"Ġ2007":2440,"Ġnational":2441,"ode":2442,"å®Ł":2443,"Ġif":2444,"Ġresp":2445,"ë¶Ģ":2446,"ãĥ¼ãĥł":2447,"Ġwar":2448,"Ġtrad":2449,"ampionship":2450,"Ġway":2451,"ãĥ³ãĥĪ":2452,"éļĽ":2453,"itary":2454,"Ġperform":2455,"Ġpo":2456,"lu":2457,"ĠCollege":2458,"æŃ¦":2459,"Ġfather":2460,"çĦ¡":2461,"Ġbased":2462,"ivision":2463,"ĠWest":2464,"ãĥ¼ãĥī":2465,"Ġiss":2466,"Ġlarg":2467,"ĠEm":2468,"Ġshort":2469,"Ġexper":2470,"ëĲĺ":2471,"æ±º":2472,"Ġled":2473,"Ġmake":2474,"Ġav":2475,"Ġ11":2476,"ç¢":2477,"ãĤ¡":2478,"æ±Ł":2479,"ä»¶":2480,"Ġtop":2481,"ocial":2482,"ĠëĤ":2483,"Ġpower":2484,"äºĶ":2485,"æĪĸ":2486,"åŃĺ":2487,"ĠEx":2488,"urg":2489,"çĹ":2490,"ness":2491,"ĠMc":2492,"ãģļ":2493,"Ġeven":2494,"æ¦":2495,"Ġ2016":2496,"akes":2497,"Ġstand":2498,"çłĶç©¶":2499,"èĦ":2500,"æīĵ":2501,"uthor":2502,"ï¼īãĢģ":2503,"work":2504,"Ġattack":2505,"Ġdifferent":2506,"Ġhand":2507,"Ġthough":2508,"Ġlocated":2509,"side":2510,"å·´":2511,"ĠX":2512,"eder":2513,"æĶ¿åºľ":2514,"ize":2515,"apan":2516,"ãĥ´":2517,"Ġaddition":2518,"omin":2519,"ondon":2520,"ality":2521,"ĠGeor":2522,"Ġdra":2523,"Ġannoun":2524,"ä¸ľ":2525,"ĠTe":2526,"éŃ":2527,"Ġpopulation":2528,"par":2529,"ãĥĿ":2530,"ĠHer":2531,"Ġmonth":2532,"çµĮ":2533,"ç«Ļ":2534,"Ġcor":2535,"è¿Ľ":2536,"ison":2537,"attle":2538,"inning":2539,"urs":2540,"Ġappear":2541,"ìĿ¼":2542,"ody":2543,"ĠEl":2544,"Ġservice":2545,"ouncil":2546,"Ġproject":2547,"Ġinclude":2548,"Ġwhat":2549,"Ġhistory":2550,"ç²":2551,"éģĶ":2552,"åĳĺ":2553,"ruction":2554,"ze":2555,"oad":2556,"Ġcrit":2557,"ards":2558,"Ġimport":2559,"çīĪ":2560,"Ġë³":2561,"Ġcame":2562,"idd":2563,"Ġvilla":2564,"ask":2565,"ese":2566,"ĠAnd":2567,"ĠLeague":2568,"Ġ190":2569,"Ġbeg":2570,"ãģĵãĤĮ":2571,"ï¼īãĢĤ":2572,"Ġdescrib":2573,"Ġpat":2574,"Ġnorth":2575,"read":2576,"ĠCounty":2577,"íĻ":2578,"ìķĦ":2579,"Ġëı":2580,"anc":2581,"Ġoften":2582,"æ´¾":2583,"ãĥį":2584,"Ġthird":2585,"èĺ":2586,"Ġwent":2587,"Ġoriginal":2588,"ĠCanad":2589,"alf":2590,"ç¶ĵ":2591,"ç»ı":2592,"ugg":2593,"Ġ30":2594,"Ġsold":2595,"ript":2596,"ography":2597,"tal":2598,"ĠLondon":2599,"êµŃ":2600,"ĠPar":2601,"Ã¡":2602,"ĠHigh":2603,"vious":2604,"Ġside":2605,"Ġmuch":2606,"Ġamong":2607,"ĠFrench":2608,"Ġstarted":2609,"eter":2610,"sc":2611,"åķĨ":2612,"Ġturn":2613,"Ġmillion":2614,"Ġpar":2615,"ãģķãĤĮãģ¦ãģĦãĤĭ":2616,"ëį":2617,"åŁŁ":2618,"Ġlate":2619,"ç§»":2620,"ploy":2621,"åĻ¨":2622,"Ġep":2623,"amb":2624,"åİ»":2625,"Ġ2006":2626,"adem":2627,"Ġgrad":2628,"ford":2629,"Ġkill":2630,"ĠSw":2631,"Th":2632,"åľŁ":2633,"ĠPres":2634,"lish":2635,"è¿ĩ":2636,"Ġla":2637,"ãĥ¯":2638,"èĤ²":2639,"Ġes":2640,"St":2641,"Ġposs":2642,"èĳĹ":2643,"ĠBl":2644,"Ġhum":2645,"ĠPark":2646,"ĠAb":2647,"Ġmen":2648,"conom":2649,"ìłģ":2650,"éĸĢ":2651,"Ġrepresent":2652,"æľº":2653,"Ġ2017":2654,"Ġevery":2655,"æŃĮ":2656,"uted":2657,"self":2658,"Ġport":2659,"Ġship":2660,"Ġsqu":2661,"empt":2662,"ìĺĢ":2663,"ĠWilliam":2664,"Ch":2665,"æĽ¾":2666,"estern":2667,"ched":2668,"21":2669,"ĠJapan":2670,"é¦Ļ":2671,"äººåı£":2672,"osp":2673,"íĺ":2674,"çķ¶":2675,"Ġlevel":2676,"æĪ°":2677,"ald":2678,"Ġinvol":2679,"Ġyoung":2680,"åħļ":2681,"angu":2682,"ãģ£ãģ¦ãģĦãĤĭ":2683,"Ġrole":2684,"ĠSy":2685,"Ġprofess":2686,"Ġwin":2687,"lor":2688,"rote":2689,"ĠAir":2690,"Ġorder":2691,"ency":2692,"ument":2693,"Ġeffect":2694,"ĠSec":2695,"ãĤ±":2696,"Ġbecome":2697,"ĠPart":2698,"Ġbusiness":2699,"æļ":2700,"ìĻĢ":2701,"Ġjoined":2702,"Ġwomen":2703,"Ġ25":2704,"24":2705,"ĠComp":2706,"ãĥĦ":2707,"urther":2708,"åĮħ":2709,"ges":2710,"Ġequ":2711,"ata":2712,"çİ°":2713,"æ¸ħ":2714,"èĮ":2715,"ãĥİ":2716,"ãĥ©ãĤ¤":2717,"Ġworked":2718,"æĪĺ":2719,"Ġëª":2720,"çĻ½":2721,"Ġannounced":2722,"å·²":2723,"Ġcountry":2724,"Ġactiv":2725,"Ġfact":2726,"å°ĩ":2727,"ĠCor":2728,"Ġreturned":2729,"çľĮ":2730,"ëª":2731,"Ġcult":2732,"Ġsouth":2733,"Ġestablished":2734,"åĳ¨":2735,"ç¬¬ä¸Ģ":2736,"aren":2737,"Ġaff":2738,"ëŁ":2739,")._":2740,"Ġappoin":2741,"äºĽ":2742,"ana":2743,"ootball":2744,"Ġ189":2745,"ases":2746,"éĿŀ":2747,"è£½":2748,"Ġinit":2749,"Ġclaim":2750,"Ġcontrol":2751,"¡°":2752,"Ġchang":2753,"ington":2754,"Ġmarried":2755,"å¸Ŀ":2756,"Ġnext":2757,"çĻ»":2758,"Ġtechn":2759,"ìĹĪëĭ¤":2760,"ë²":2761,"äºŀ":2762,"uk":2763,"Ġdel":2764,"ĠEnglish":2765,"eg":2766,"ray":2767,"åħ§":2768,"å±ŀ":2769,"rest":2770,"After":2771,"éĹ´":2772,"ä¸ŃåĽ½":2773,"Ġnon":2774,"ãĥľ":2775,"Ġfew":2776,"éłĺ":2777,"å®Į":2778,"èªį":2779,"isted":2780,"Ġcr":2781,"ms":2782,"ì²":2783,"ĠAfric":2784,"Ġweek":2785,"Ġcharacter":2786,"ino":2787,"Ġrepla":2788,"vision":2789,"Ġcurrent":2790,"çµĤ":2791,"aul":2792,"posed":2793,"çĶµ":2794,"ridge":2795,"ê²Į":2796,"ĠRiver":2797,"åĪ¥":2798,"ç¦ı":2799,"Ġ2018":2800,"195":2801,"ĠRuss":2802,"åł±":2803,"ä¸ĩ":2804,"ĠMed":2805,"ead":2806,"Ġprocess":2807,"ãģ§ãģĤãģ£ãģŁ":2808,"Ġtake":2809,"ãĥ¼ãĤ¹":2810,"Ġstat":2811,"eneral":2812,"ãĤ®":2813,"app":2814,"Ġpromot":2815,"ler":2816,"é¾":2817,"ev":2818,"ense":2819,"of":2820,"Ġbest":2821,"æĶ»":2822,"è¡ĵ":2823,"æĬĢ":2824,"ãģ«ãģĬ":2825,"Ġdevelopment":2826,"Ġstudents":2827,"çĪ¶":2828,"Ġsent":2829,"Ġpain":2830,"ìŀ¥":2831,"ops":2832,"Ġhowever":2833,"ĠAng":2834,"Ġrese":2835,"ries":2836,"Ġfore":2837,"ãģĭãģ£ãģŁ":2838,"mit":2839,"æ³¢":2840,"ìłķ":2841,"çİĩ":2842,"Ġsk":2843,"Ġgreat":2844,"ones":2845,"æľ¨":2846,"åį¡":2847,"ociety":2848,"Ġval":2849,"40":2850,"__":2851,"éº":2852,"åįĬ":2853,"Ġhaving":2854,"23":2855,"forman":2856,"ä¿®":2857,"ĠìĪĺ":2858,"ĠDuring":2859,"Ġcover":2860,"Ġ0":2861,"ãģ¨ãģªãģ£ãģŁ":2862,"na":2863,"eth":2864,"ãģ¦ãģĦãģŁ":2865,"Ġwrote":2866,"æĬķ":2867,"Ġclos":2868,"Ġrad":2869,"raft":2870,"ront":2871,"Ġbeh":2872,"æ¿":2873,"Ġgames":2874,"ays":2875,"çĿĢ":2876,"Ġfre":2877,"epend":2878,"íĥ":2879,"Ġneed":2880,"ĠìŀĪ":2881,"ìĨ":2882,"Ġvarious":2883,"Ġtele":2884,"Ġcontinued":2885,"Ġsol":2886,"ourn":2887,"aff":2888,"Ġauthor":2889,"Ġmag":2890,"ä»¤":2891,"Ġgr":2892,"é«Ķ":2893,"ention":2894,"Ġarch":2895,"ĠRep":2896,"Ġbre":2897,"ara":2898,"Ġusing":2899,"éĢĢ":2900,"Ġca":2901,"äºļ":2902,"Ġprevious":2903,"iber":2904,"omb":2905,"ãĢģãĢĮ":2906,"æĹ¥ãģ«":2907,"hem":2908,"¤ĳ":2909,"èĢĥ":2910,"åº§":2911,"ãģĵãģ¨ãģĮ":2912,"ĠBy":2913,"ä»Ĭ":2914,"ãģĬãĤĬ":2915,"ots":2916,"éħį":2917,"ached":2918,"Ġsit":2919,"ĠReg":2920,"èĴ":2921,"ĠSan":2922,"çĶ·":2923,"ape":2924,"éĬ":2925,"ĠHouse":2926,"lin":2927,"Ġspecial":2928,"çª":2929,"çķª":2930,"ä½ı":2931,"Ġdefe":2932,"Ġaward":2933,"ãĤ·ãĥ§":2934,"sequ":2935,"22":2936,"å®Ĺ":2937,"60":2938,"Ġvot":2939,"Ġ188":2940,"ociation":2941,"Ġprote":2942,"ĠDav":2943,"ti":2944,"ĠBr":2945,"ained":2946,"aken":2947,"ä»ĺ":2948,"Ġì§Ģ":2949,"co":2950,"å¸«":2951,"íĬ":2952,"Ġgiven":2953,"Ġ24":2954,"reg":2955,"Ġfield":2956,"Ġcommunity":2957,"Ġìĭľ":2958,"Ġ2005":2959,"Ġtw":2960,"ç¶ļ":2961,"èĲ½":2962,"oyal":2963,"Ġtitle":2964,"ãģ§ãģį":2965,"ä¸ļ":2966,"ĠSup":2967,"å¼·":2968,"ãĥ³ãĤ¹":2969,"Ġfriend":2970,"umb":2971,"Ġinterest":2972,"ä¼Ĭ":2973,"è©²":2974,"Ġposition":2975,"ĠWhen":2976,"oph":2977,"ĠPhil":2978,"éĢŁ":2979,"Ġcreated":2980,"éĻį":2981,"ha":2982,"ivid":2983,"ë©°":2984,"oon":2985,"å½¹":2986,"irc":2987,"ãģĴ":2988,"Ġtotal":2989,"ĠLa":2990,"è½¦":2991,"ìĦ±":2992,"é©¬":2993,"ĠRes":2994,"ãģĹãģ¦ãģĦãģŁ":2995,"æŃ¢":2996,"'t":2997,"Ġtrack":2998,"ĠTr":2999,"è«ĸ":3000,"rick":3001,"yle":3002,"æĻ®":3003,"ilar":3004,"Ġattempt":3005,"ë¯":3006,"Ġorigin":3007,"ä¾ĭ":3008,"28":3009,"Ġren":3010,"ãĥªãĤ¢":3011,"çĥ":3012,"line":3013,"ãĥĨãĤ£":3014,"As":3015,"ĠItal":3016,"Ġpract":3017,"æĲ":3018,"ä¾Ľ":3019,"Ġpopular":3020,"Ġwithout":3021,"ords":3022,"Ġpolitical":3023,"iron":3024,"Ġfem":3025,"Ġgeneral":3026,"Ġproduction":3027,"åľº":3028,"è©¦":3029,"ĠChurch":3030,"Ġfind":3031,"27":3032,"Ġcommon":3033,"avy":3034,"å®¹":3035,"ìĽĶ":3036,"ĠInternational":3037,"å´":3038,"ccording":3039,"ĠEngland":3040,"ĠWe":3041,"ä»£è¡¨":3042,"ĠâĢľ":3043,"ç´Ģ":3044,"çĶº":3045,"Ġinvest":3046,"éĺŁ":3047,"hold":3048,"Ġsite":3049,"å°İ":3050,"ush":3051,"çļĦä¸Ģ":3052,"cent":3053,"æľª":3054,"Ġchurch":3055,"èĪª":3056,"partment":3057,"æĸ½":3058,"ĠThese":3059,"æ§ĭ":3060,"ãģ«ãĤĪãĤĭ":3061,"ìĹ¬":3062,"è³ĩ":3063,"cast":3064,"ander":3065,"press":3066,"ories":3067,"Ġtem":3068,"Ġperforman":3069,"ivil":3070,"é¡ŀ":3071,"ãģĿãĤĮ":3072,"Ġbrother":3073,"å¥½":3074,"Ġsum":3075,"¹Ħ":3076,"ows":3077,"BC":3078,"Ġdays":3079,"ef":3080,"ference":3081,"çĸ":3082,"åĬ©":3083,"ole":3084,"íķĺìĺĢ":3085,"Ġsl":3086,"ãĤ¤ãĥ³":3087,"193":3088,"éĥ¨åĪĨ":3089,"åŃ¦æł¡":3090,"ideo":3091,"èĸ":3092,"Ġexamp":3093,"æĿİ":3094,"è¯¥":3095,"åĤĻ":3096,"èª¿":3097,"è§Ĵ":3098,"ĠEast":3099,"æ±Ĥ":3100,"26":3101,"sp":3102,"æĸĻ":3103,"hib":3104,"Ġìĥ":3105,"Ġintro":3106,"Ġ2000":3107,"less":3108,"éĻ¤":3109,"Ġmilitary":3110,"çļĩ":3111,"åħ¬åı¸":3112,"Ġdirect":3113,"iment":3114,"ĠCup":3115,"æ¤":3116,"Ġê°Ģ":3117,"lect":3118,"ogn":3119,"íķĻ":3120,"Ġê¸°":3121,"off":3122,"åį³":3123,"ãģ«ãĤĪãĤĬ":3124,"formation":3125,"æł¹":3126,"Ġke":3127,"å¤±":3128,"åĬŁ":3129,"ĠPresident":3130,"æ°Ĺ":3131,"Ġworks":3132,"Ġelect":3133,"ãĥ¥ãĥ¼":3134,"æ¯į":3135,"Ġhistor":3136,"aign":3137,"ĠìłĦ":3138,"ĠOne":3139,"åĪ¤":3140,"ãģ»":3141,"itor":3142,"è¶³":3143,"ains":3144,"Ġpri":3145,"Ġreal":3146,"Ġsigned":3147,"ìłĦ":3148,"åĳĬ":3149,"åĽ£":3150,"int":3151,"ĠArt":3152,"ìĽĲ":3153,"Ġ100":3154,"åı¯èĥ½":3155,"ĠAc":3156,"Ġtimes":3157,"å½¼":3158,"ç´ļ":3159,"é¡Į":3160,"ances":3161,"æĩ":3162,"ĠStreet":3163,"è£ħ":3164,"Ġdisp":3165,"ani":3166,"Ġdaugh":3167,"çĨ":3168,"è®¾":3169,"Ġview":3170,"ean":3171,"ãĤ¶":3172,"å±ħ":3173,"ì£¼":3174,"åķı":3175,"ãĤĪãĤĬ":3176,"useum":3177,"Ġround":3178,"Ġeducation":3179,"bs":3180,"Ġprim":3181,"Ġfull":3182,"éĺ²":3183,"Ġlangu":3184,"Ġmatch":3185,"Ġindust":3186,"Ġopened":3187,"ãĥļ":3188,"èħ":3189,"Ġofficial":3190,"Ġëĵ":3191,"æĤ":3192,"Ġfun":3193,"Ġinflu":3194,"Ġhost":3195,"è¬":3196,"ks":3197,"ãĤ©":3198,"Ġfurther":3199,"Ġlost":3200,"Ġhelp":3201,"ãĥĶ":3202,"Ġwife":3203,"Ġhig":3204,"Ġlab":3205,"ination":3206,"íĬ¸":3207,"alt":3208,"æ®µ":3209,"Ġgradu":3210,"ãģ«ãĤĪãģ£ãģ¦":3211,"Ġproduced":3212,"ãĥĩãĤ£":3213,"èµĽ":3214,"éĵ":3215,"gether":3216,"rated":3217,"Ġtogether":3218,"æŃ´":3219,"çħ":3220,"èı¯":3221,"hern":3222,"ĠMon":3223,"ĠDist":3224,"Ġimportant":3225,"Ġdest":3226,"Ġstory":3227,"Ġvillage":3228,"ger":3229,"éĻĲ":3230,"An":3231,"Ġworking":3232,"ferred":3233,"lands":3234,"field":3235,"ividual":3236,"Ġrail":3237,"æ¡Ī":3238,"äºī":3239,"ising":3240,"åħ«":3241,"29":3242,"Ġ187":3243,"Ġfund":3244,"mi":3245,"è³½":3246,"ä½ľåĵģ":3247,"ae":3248,"ĠArmy":3249,"çīĩ":3250,"ãĥĽ":3251,"çı¾åľ¨":3252,"Ġparticip":3253,"Ġappointed":3254,"year":3255,"olution":3256,"Ġarr":3257,"æºĲ":3258,"Ġgood":3259,"ours":3260,"Ġel":3261,"å¼µ":3262,"ying":3263,"Ġhimself":3264,"ĠSer":3265,"ably":3266,"æĺł":3267,"åĲī":3268,"Ġsocial":3269,"cer":3270,"ĠCouncil":3271,"ç¾ħ":3272,"uel":3273,"Ġdeg":3274,"ĠHol":3275,"Ġ2004":3276,"ream":3277,"Ġlim":3278,"é£Ł":3279,"Ġsw":3280,"ĠGro":3281,"etwork":3282,"ership":3283,"å¥¹":3284,"åıª":3285,"ãĤ´":3286,"Â²":3287,"itte":3288,"ãģ¨ãģ®":3289,"utes":3290,"åĳ¼":3291,"ĠChampionship":3292,"unic":3293,"Ġaver":3294,"ĠSch":3295,"Ġcomb":3296,"çľŁ":3297,"æ°ı":3298,"åįļ":3299,"æĻĤä»£":3300,"Ġappeared":3301,"å¹´ãģ®":3302,"æİ¨":3303,"Ġmeet":3304,"éī":3305,"æ½":3306,"Ġident":3307,"Ġter":3308,"Ġshould":3309,"é¤¨":3310,"ĠGeneral":3311,"Ġtest":3312,"Ġright":3313,"Ġengine":3314,"å®¢":3315,"Ġ21":3316,"Ġless":3317,"åĦª":3318,"çĳ":3319,"çģ«":3320,"å¯Ĩ":3321,"pecial":3322,"Ġeconom":3323,"Ġget":3324,"idence":3325,"Ġread":3326,"Ġresearch":3327,"å©":3328,"ament":3329,"èĬ±":3330,"Ġproper":3331,"çĩ":3332,"Ġsimilar":3333,"æ¦Ĥ":3334,"ãģĮãģĤãĤĭ":3335,"ç¼":3336,"Ġpriv":3337,"ĠCour":3338,"Ġmy":3339,"é¦Ļæ¸¯":3340,"Ġversion":3341,"Ġroad":3342,"ãģ§ãĤĤ":3343,"ĠPort":3344,"uit":3345,"atter":3346,"ìĿ´ëĭ¤":3347,"çļĦãģª":3348,"Ġconsidered":3349,"åħ©":3350,"ä¸¤":3351,"ee":3352,"ĠGl":3353,"ological":3354,"ãĤ²":3355,"æ¨©":3356,"ĠBer":3357,"Ġcompos":3358,"irl":3359,"ĽĦ":3360,"ìĥģ":3361,"éİ":3362,"åı¯ä»¥":3363,"åħŃ":3364,"Ġgrow":3365,"orthern":3366,"Ġ186":3367,"ari":3368,"ãĤĮãģŁ":3369,"mm":3370,"Ġepis":3371,"Ġreported":3372,"plic":3373,"Ġhalf":3374,"oor":3375,"å®¤":3376,"iforn":3377,"outher":3378,"éłŃ":3379,"´Ģ":3380,"å®£":3381,"Ġpoint":3382,"Ã³":3383,"Ġbelie":3384,"ç·¨":3385,"lex":3386,"acy":3387,".\"_":3388,"å¾Ģ":3389,"Ġelection":3390,"ãģĹãģĭ":3391,"è¦ª":3392,"Ġdescribed":3393,"ishing":3394,"Ġvol":3395,"Ġnever":3396,"ãģªãģı":3397,"ãģ¨ãĤĤ":3398,"ìĪĺ":3399,"Ġindividual":3400,"urb":3401,"Ġbas":3402,"anted":3403,"rap":3404,"ĠPl":3405,"é§ħ":3406,"ĠIndian":3407,"minist":3408,"ãĥ³ãģ®":3409,"ĠEuropean":3410,"ļĮ":3411,"èĪ¹":3412,"ä¸Ńå¿ĥ":3413,"outhern":3414,"Ġfail":3415,"Ġspecies":3416,"Ġtradition":3417,"ĠAg":3418,"ĠìķĦ":3419,"ìłľ":3420,"Ġmother":3421,"era":3422,"Ġcer":3423,"ĠSm":3424,"çĶ£":3425,"ences":3426,"æĦŁ":3427,"wh":3428,"çĬ¶":3429,"ifornia":3430,"reek":3431,"ãĥ¼ãĤ¯":3432,"ĠMich":3433,"éĽ¢":3434,"éĿĴ":3435,"Ġmaking":3436,"Ġ23":3437,"aper":3438,"ville":3439,"Ġparty":3440,"ither":3441,"åħ¬éĩĮ":3442,"Ġhold":3443,"ç¨±":3444,"ports":3445,"Ġfounded":3446,"ãĤĮãĤĭ":3447,"ells":3448,"è¡Ĺ":3449,"ãĤ¸ãĥ£":3450,"Ġcond":3451,"æĹ©":3452,"ĠPer":3453,"Ġë¬":3454,"çį²":3455,"ama":3456,"Ġemploy":3457,"astern":3458,"ëĵľ":3459,"ë¥´":3460,"...":3461,"éĸĭå§ĭ":3462,"Ġstruct":3463,"åıĹãģĳ":3464,"æĿ¡":3465,"å¤ī":3466,"è¦ĸ":3467,"æ´²":3468,"eh":3469,"ĠNo":3470,"æ¯ı":3471,"Ħ°":3472,"åıĪ":3473,"ĠChar":3474,"ÃŃ":3475,"ãĥªãĤ«":3476,"Ġtro":3477,"ope":3478,"Ġmer":3479,"ãĥĹãĥŃ":3480,"Al":3481,"æķħ":3482,"ule":3483,"Ġareas":3484,"ĠìŀĪëĭ¤":3485,"ĠAct":3486,"Ġhous":3487,"Ġvict":3488,"æľį":3489,"mp":3490,"ĠFrance":3491,"êµ¬":3492,"çĿ£":3493,"èī¦":3494,"Ġothers":3495,"æĳ":3496,"ç½Ĺ":3497,"çĵ":3498,"ground":3499,"Early":3500,"Ġbroad":3501,"ĠCalifornia":3502,"å¢ĥ":3503,"Ġcle":3504,"Ġoffice":3505,"ãĤīãĤĮãģŁ":3506,"ĠParty":3507,"ico":3508,"Ġplayer":3509,"rem":3510,"Ġpresident":3511,"stitute":3512,"iol":3513,"Ġide":3514,"Ġgl":3515,"ãģ«ãĤĤ":3516,"Ã¼":3517,"åģ´":3518,"ç¸½":3519,"Ġmater":3520,"éĻ¸":3521,"ĠPe":3522,"Ġinternational":3523,"Ġformed":3524,"Ġhon":3525,"Ġdoes":3526,"atch":3527,"èģĶ":3528,"çº¿":3529,"Ġregion":3530,"Ġvideo":3531,"most":3532,"pite":3533,"æĥ³":3534,"åºĹ":3535,"ways":3536,"Ġdebut":3537,"éĥ¡":3538,"ä¸Ńåľĭ":3539,"Ġcampaign":3540,"æĢĿ":3541,"äººæ°ĳ":3542,"Ġord":3543,"Ġground":3544,"Ġdeveloped":3545,"ĠQue":3546,"å£²":3547,"íĻĶ":3548,"ills":3549,"iting":3550,"nder":3551,"æĪĳ":3552,"å¹´ä»£":3553,"ning":3554,"iding":3555,"åĢĳ":3556,"Ġhow":3557,"ãĢħ":3558,"æķ´":3559,"Ġíĺ":3560,"ius":3561,"ä»¬":3562,"ĠThom":3563,"itect":3564,"Ġfire":3565,"íķĺëĬĶ":3566,"ĠAmerica":3567,"ç¬¬äºĮ":3568,"éĹľ":3569,"ĠPal":3570,"Ġcase":3571,"èģ·":3572,"é¢¨":3573,"ãĤīãĤĮãĤĭ":3574,"ĠGeorge":3575,"ãĥ¼ãĤº":3576,"ãģ§ãģĤãĤĬ":3577,"Ġexample":3578,"ĠRoyal":3579,"Ġyou":3580,"Ġalthough":3581,"æĶ¶":3582,"Ġrelations":3583,"Ġsuccessful":3584,"å®ĥ":3585,"Ġsignific":3586,"åħ³":3587,"oll":3588,"Ġstrong":3589,"ĠVal":3590,"Ġmonths":3591,"Ġrelease":3592,"ç§į":3593,"Ġlow":3594,"ĠNor":3595,"Ġelected":3596,"Ġavail":3597,"ĠIndia":3598,"Ġ22":3599,"ĠRec":3600,"sk":3601,"ĠJames":3602,"ä¹Ŀ":3603,"æ¨¡":3604,"è¿°":3605,"åİ¿":3606,"é¨":3607,"æĢ»":3608,"Ġbody":3609,"Ġmult":3610,"èģ¯":3611,"2010":3612,"Ġ28":3613,"Ġhuman":3614,"ë§Į":3615,"æķ¸":3616,"ittee":3617,"Ġgave":3618,"ĠRepublic":3619,"è±¡":3620,"iddle":3621,"Ġaway":3622,"Â°":3623,"ĠAustralia":3624,"æİĪ":3625,"Ġmodern":3626,"ett":3627,"ãģłãģ£ãģŁ":3628,"Ġmid":3629,"Ġ2003":3630,"Ġcast":3631,"nect":3632,"ĠBel":3633,"ãĥĥãĥĹ":3634,"van":3635,"oney":3636,"ãĤ¢ãĥ«":3637,"å®Ī":3638,"Ġten":3639,"ãģªãģĭãģ£ãģŁ":3640,"åįĥ":3641,"åľĴ":3642,"è¶ħ":3643,"Ġvari":3644,"å¿µ":3645,"craft":3646,"ë©´":3647,"ĠMor":3648,"éĮ²":3649,"Ġ26":3650,"Ġwritten":3651,"Ġ27":3652,"ought":3653,"Ġrecorded":3654,"åī¯":3655,"è¦ı":3656,"ĠAssociation":3657,"Ġsuff":3658,"ĠWith":3659,"åįĶ":3660,"ica":3661,"ĠUnion":3662,"ëıĻ":3663,"Ġaut":3664,"de":3665,"æ¥½":3666,"Ġdaughter":3667,"aching":3668,"ĠDr":3669,"Ġê²ĥ":3670,"now":3671,"ĠRoman":3672,"Ġremained":3673,"çĮ":3674,"ceed":3675,"Ġlaun":3676,"Ġ1990":3677,"rain":3678,"ĠDes":3679,"æĶ¿æ²»":3680,"ãģ«å¯¾":3681,"ĠHall":3682,"ĠCompany":3683,"èŃ¦":3684,"ĠQu":3685,"ãĤ¹ãĤ¿":3686,"å¤®":3687,"è¶Ĭ":3688,"omm":3689,"Ġdiv":3690,"Ġacross":3691,"Ġcontract":3692,"çĹħ":3693,"ĠDivision":3694,"å¯º":3695,"2009":3696,"Ġcost":3697,"åĥı":3698,"åĪĩ":3699,"ators":3700,"ç¸£":3701,"Ġagre":3702,"ĠAp":3703,"80":3704,"estival":3705,"ĠRober":3706,"oe":3707,"Ġtyp":3708,"ãĤį":3709,"è³ŀ":3710,"ä½ķ":3711,"Ġcontrib":3712,"å±ĭ":3713,"Ġmot":3714,"Ġfollowed":3715,"Ġdev":3716,"Ġ[":3717,"olic":3718,"uf":3719,"Ġíķľ":3720,"dom":3721,"Ġtaken":3722,"Ġìļ":3723,"cing":3724,"Ġsomet":3725,"Ġput":3726,"Ġliving":3727,"Ġplaying":3728,"ĠRich":3729,"Ġdistrict":3730,"ellow":3731,"ened":3732,"ensive":3733,"Ġaverage":3734,"ãģ¹":3735,"Ġìłľ":3736,"Ġmiles":3737,"åīĩ":3738,"ĠDistrict":3739,"åħ·":3740,"Ġdirector":3741,"æ´ĭ":3742,"Ġrecogn":3743,"It":3744,"hel":3745,"å¹³æĸ¹":3746,"è¯Ń":3747,"ibr":3748,"å¨ģ":3749,"ä¸»è¦ģ":3750,"ael":3751,"Ġconstruction":3752,"ãĢĢ":3753,"rag":3754,"Ġservices":3755,"éª":3756,"Ġìłķ":3757,"Ġfree":3758,"ì¹ĺ":3759,"ä»¥åıĬ":3760,"Ġlet":3761,"åĲĮå¹´":3762,"wood":3763,"è¾¾":3764,"arth":3765,"æĺŃ":3766,"ãĥķãĤ¡":3767,"ournal":3768,"Ġlive":3769,"ãĥ¤":3770,"anish":3771,"istic":3772,"ä¸Ķ":3773,"çķĻ":3774,"íĸĪëĭ¤":3775,"Ġonce":3776,"Ġtelevision":3777,"Ġlight":3778,"è©±":3779,"Ġhy":3780,"ç´ł":3781,"Ġreview":3782,"ĠLou":3783,"Ġbecom":3784,"Ġfoc":3785,"ĠCourt":3786,"Ġrev":3787,"Ġblack":3788,"igned":3789,"å¾ŀ":3790,"Ġacqu":3791,"åłĤ":3792,"Ġdep":3793,"Ġeast":3794,"å°Ħ":3795,"Ġcompleted":3796,"æĭ¬":3797,"å¯Ł":3798,"Ġsepar":3799,"uggest":3800,"ç»Ł":3801,"è³ª":3802,"å¿ħ":3803,"è¡Ľ":3804,"åįİ":3805,"ä»İ":3806,"ĠìĿ¼":3807,"Ġimpro":3808,"ãģ§ãģ®":3809,"ä½İ":3810,"Ġfootball":3811,"Ġindepend":3812,"å¡Ķ":3813,"Ġì¤ĳ":3814,"èĺŃ":3815,"Ġperformed":3816,"Ġnov":3817,"Ġexpl":3818,"æ´»åĭķ":3819,"Ġë¶":3820,"Ġcross":3821,"ĠëĲ":3822,"ä¸Ńå¤®":3823,"éĿ©":3824,"Ġsuggest":3825,"çĻ¾":3826,"ãĤĴè¡Į":3827,"äºĪ":3828,"ì°":3829,"Ġtour":3830,"Ġpress":3831,"bert":3832,"èµ°":3833,"Ġproduc":3834,"Ġíķ":3835,"ago":3836,"ilities":3837,"band":3838,"Ġmust":3839,"Ġavailable":3840,"å·±":3841,"ipp":3842,"å¸Ń":3843,"Ġ50":3844,"Ġwest":3845,"ç»Ħ":3846,".,":3847,"ç¶Ń":3848,"Ġ2001":3849,"åŃ£":3850,"ĠCanada":3851,"å¸Į":3852,"ĠRed":3853,"ĠMe":3854,"imately":3855,"ãģ¸ãģ®":3856,"Ġpoints":3857,"alls":3858,"éĢī":3859,"roy":3860,"ãģ«ãģ¤":3861,"ĠRoad":3862,"ĠMil":3863,"itive":3864,"ãģĳãĤĭ":3865,"Ġ2002":3866,"ming":3867,"Ġproble":3868,"ĠíĻ":3869,"Ġstudy":3870,"åĬĩ":3871,"Ġeventually":3872,"arliam":3873,",\"":3874,"æĸĩåĮĸ":3875,"hers":3876,"è®¡":3877,"Ġplan":3878,"ĠìĨ":3879,"ĠHen":3880,"çĴ":3881,"Ġable":3882,"Ġmaterial":3883,"åĲ«":3884,"çł´":3885,"Ġ1980":3886,"fic":3887,"æ·±":3888,"icle":3889,"Ġcommand":3890,"ĠAward":3891,"Ġtraining":3892,"Ġenc":3893,"Ġmarket":3894,"ãģĿãģ®å¾Į":3895,"æĴĥ":3896,"å¾©":3897,"key":3898,"ãģ¨ãģªãĤĭ":3899,"ification":3900,"æ¹¾":3901,"ãĤ¢ãĥ¡":3902,"éĽ·":3903,"ĠìŀĲ":3904,"Ġì²":3905,"ential":3906,"cle":3907,"æ§ĺ":3908,"æ¶Ī":3909,"arliament":3910,"ĠOff":3911,"ederal":3912,"ìļ©":3913,"íĦ°":3914,"Ġseen":3915,"Ġforces":3916,"Ġgen":3917,"iers":3918,"ma":3919,"ospital":3920,"ĠMary":3921,"Ġste":3922,"ĠSen":3923,"èĻŁ":3924,"val":3925,"çº¦":3926,"ĠMal":3927,"çĭ¬":3928,"ĠStud":3929,"chie":3930,"ĠPaul":3931,"äº¦":3932,"Ġ2019":3933,"åħ°":3934,"viron":3935,"Ġrul":3936,"çĶ²":3937,"Ġfinished":3938,"ya":3939,"Ġinvolved":3940,"Ġrace":3941,"ship":3942,"æĻ¯":3943,"aged":3944,"Ġinj":3945,"ĠJew":3946,"çĽŁ":3947,"ç¾¤":3948,"Ġfront":3949,"ĠGermany":3950,"Ġì£¼":3951,"åīµ":3952,"ique":3953,"Ġevents":3954,"ularly":3955,"æĭħ":3956,"æķĹ":3957,"Ġperformance":3958,"ili":3959,"hod":3960,"Ġthroughout":3961,"íķĺê³ł":3962,"rig":3963,"Ġdam":3964,"ä¼¯":3965,"Ġstar":3966,"Ġrelig":3967,"Ġbo":3968,"Ġcondu":3969,"aur":3970,"men":3971,"äº§":3972,"è®®":3973,"here":3974,"cript":3975,"Ġcirc":3976,"Ġsour":3977,"ocr":3978,"åŃĺåľ¨":3979,"ãĥĴ":3980,"åºĥ":3981,"ij":3982,"Ġfight":3983,"å®³":3984,"ãĤ¢ãĥ¡ãĥªãĤ«":3985,"Ġdoc":3986,"æĿ¾":3987,"æĺĵ":3988,"ĠTra":3989,"íķĺìĺĢëĭ¤":3990,"è¿Ĳ":3991,"ability":3992,"Ġphys":3993,"elling":3994,"ãģķãģĽ":3995,"ĠSte":3996,"ç©į":3997,"å¾Ī":3998,"inese":3999,"ĠPat":4000,"ĠDem":4001,"Ġred":4002,"Ġearl":4003,"ãĤĴåıĹãģĳ":4004,"Ġearn":4005,"ĶĦ":4006,"Ã¶":4007,"çĶ¢":4008,"ĠFrom":4009,"ademy":4010,"onst":4011,"Ġaccess":4012,"Ġ29":4013,"Ġìĸ":4014,"rought":4015,"ãģĹãģĭãģĹ":4016,"Ġreb":4017,"íļĮ":4018,"åĮħæĭ¬":4019,"Ġboard":4020,"íĨ":4021,"ä¹¦":4022,"Ġz":4023,"Ġsignificant":4024,"æ¨Ļ":4025,"Ġcou":4026,"Ġproduct":4027,"Ġdesigned":4028,"è©ķ":4029,"azine":4030,"åį°":4031,"asing":4032,"æ£®":4033,"2011":4034,"ĠCenter":4035,"atory":4036,"II":4037,"Ġphot":4038,"éĥİ":4039,"Ġ1970":4040,"Ġcourt":4041,"35":4042,"æĦĽ":4043,"2008":4044,"Ġlist":4045,"Ġleading":4046,"ĠDavid":4047,"Ġassoci":4048,"utive":4049,"itz":4050,"At":4051,"èĩ´":4052,"Ġlanguage":4053,"Ġsubsequ":4054,"Ġrank":4055,"åıİ":4056,"ãĤģãģŁ":4057,"Ġbase":4058,"ä¾¿":4059,"æĿ±äº¬":4060,"ashington":4061,"Ġcapt":4062,"be":4063,"ãģ«ãģĬãģĦãģ¦":4064,"burg":4065,"Ġentire":4066,"ĠBlack":4067,"Ġrock":4068,"oms":4069,"èŃ·":4070,"Ġstated":4071,"æķĻèĤ²":4072,"è¼ī":4073,"ĠInstitute":4074,"70":4075,"èª¬":4076,"ĠMag":4077,"åľ°åĮº":4078,"±°":4079,"2012":4080,"Ġtre":4081,"Ġsaw":4082,"rab":4083,"Ġassist":4084,"100":4085,"ping":4086,"è»¢":4087,"Ġëĭ¤":4088,"ä¸¡":4089,"atural":4090,"Ġë²":4091,"ĠSociety":4092,"ãģ«ãģªãģ£ãģŁ":4093,"å®®":4094,"ĠRail":4095,"å¿Ĺ":4096,"go":4097,"duction":4098,"ìĤ":4099,"Ġlearn":4100,"ĠDepartment":4101,"èī¯":4102,"ĠLaw":4103,"ements":4104,"ston":4105,"stand":4106,"ëŁ¬":4107,"Ġinformation":4108,"Ġprovided":4109,"berg":4110,"Ġhealth":4111,"Ġfeatured":4112,"åħ¶ä¸Ń":4113,"èĩªå·±":4114,"Ġbank":4115,"ĠMac":4116,"uty":4117,"Ġdecided":4118,"ĠWhile":4119,"ä¸ĢåĢĭ":4120,"ĠCap":4121,"aint":4122,"Ġkilled":4123,"Ġschools":4124,"ores":4125,"Ġhousehold":4126,"erous":4127,"èĢģ":4128,"ä¸ĥ":4129,"Ġrespons":4130,"éĤ£":4131,"ãĥ¼ãĤ¸":4132,"ĠIsland":4133,"Ġliter":4134,"ä¸Ģä¸ª":4135,"åĺ":4136,"æ¾":4137,"éīĦ":4138,"Ġexist":4139,"Ġsurv":4140,"ãĤĢ":4141,"ĠBut":4142,"å¯¦":4143,"Ġknow":4144,"ãĥķãĤ£":4145,"ĠNe":4146,"æĶ¾éĢģ":4147,"Ġbar":4148,"\"._":4149,"Ġgroups":4150,"åıĭ":4151,"Ġtreat":4152,"çļĦãģ«":4153,"90":4154,"ware":4155,"å¤ļãģı":4156,"ãģĤãĤĬ":4157,"elt":4158,"ë¬¸":4159,"aries":4160,"æħĭ":4161,"æ¨Ĥ":4162,"ude":4163,"Ġdegree":4164,"ĠKh":4165,"Ġpolic":4166,"Ġaccept":4167,"Ġstyle":4168,"sy":4169,"aker":4170,"Ġanim":4171,"2013":4172,"Ġpast":4173,"atre":4174,"Ġsee":4175,"Ġì¶":4176,"å®ŀ":4177,"ä¹Ĳ":4178,"æ¹ĸ":4179,"Ġexec":4180,"ĠWashington":4181,"Ġprot":4182,"æī¿":4183,"Ġsay":4184,"Ġleague":4185,"ĠGroup":4186,"Ġprivate":4187,"Ġfav":4188,"time":4189,"ĠMart":4190,"Ġattended":4191,"Ġupon":4192,"Ġpolice":4193,"éŁ¿":4194,"ìļ°":4195,"ãģĻãĤĭãģĵãģ¨":4196,"ĠClub":4197,"Ġsquare":4198,"æŁ¥":4199,"Ġnight":4200,"NA":4201,"Ġê³µ":4202,"ula":4203,"airs":4204,"ĠBra":4205,"ĠAngel":4206,"èĪ¬":4207,"Ġlook":4208,"å§Ķåĵ¡":4209,"ĠìĿ¸":4210,"Ġwid":4211,"Ġclose":4212,"ëªħ":4213,"æľĽ":4214,"éĤĦ":4215,"2007":4216,"æĹł":4217,"Ġarg":4218,"2014":4219,"emor":4220,"Ġdi":4221,"rian":4222,"31":4223,"éĶ":4224,"ĠCong":4225,"ĠBay":4226,"ades":4227,"Ġdiscover":4228,"æĬĹ":4229,"medi":4230,"uture":4231,"ply":4232,"æ©ĭ":4233,"Ġaud":4234,"åħ¶ä»ĸ":4235,"vironment":4236,"head":4237,"mercial":4238,"Ġ185":4239,"udd":4240,"ãģĪãĤĭ":4241,"å·¦":4242,"åĬ¡":4243,"ãĤ·ãĥ¥":4244,"Ġcolla":4245,"ãģ®ä¸Ģ":4246,"ĠChina":4247,"Ġstri":4248,"Ġgoal":4249,"Ġ40":4250,"Ġwind":4251,"ipal":4252,"Ar":4253,"Ġsubject":4254,"Ġê²½":4255,"Ġseven":4256,"ç«ł":4257,"ĠìĬ":4258,"Ġreplaced":4259,"45":4260,"ĠìľĦ":4261,"åı¦":4262,"Ġnetwork":4263,"æ²¡":4264,"è¯´":4265,"Ġeffort":4266,"êµĲ":4267,"è¡ĮãĤıãĤĮ":4268,"å·¥ä½ľ":4269,"Ġwhite":4270,"íķĺìĹ¬":4271,"Ġtravel":4272,"ĠJack":4273,"Ġadded":4274,"Ġsele":4275,"åıĥ":4276,"éķĩ":4277,"Ġeither":4278,"rup":4279,"ç¡":4280,"èªª":4281,"ìĦł":4282,"Ġgun":4283,"ĠFl":4284,"éĦ":4285,"è¿½":4286,"Ġstage":4287,"ĠSam":4288,"Ġeight":4289,"sel":4290,"ĠCath":4291,"Ġ1999":4292,"Ġepisode":4293,"Ġë³´":4294,"æ°¸":4295,"overnor":4296,"Ġbrought":4297,"Ġpur":4298,"gin":4299,"æľĪãģ«":4300,"ĠTV":4301,"Ġteams":4302,"åĿĩ":4303,"oice":4304,"ĠServ":4305,"ĠChristian":4306,"ç¢º":4307,"ãĤ·ãĥ§ãĥ³":4308,"íĮ":4309,"éİ®":4310,"ë£":4311,"æ®º":4312,"Ġviol":4313,"Ġill":4314,"ĠTown":4315,"Ġfeatures":4316,"æľ«":4317,"ĠVir":4318,"Ġcritic":4319,"ĠUK":4320,"ĠFirst":4321,"Ġchange":4322,"icated":4323,"Ġarchitect":4324,"âĤ":4325,"Ġawarded":4326,"ĠMex":4327,"ãĤŃãĥ£":4328,"ä¼Ŀ":4329,"äºĭä»¶":4330,"tt":4331,"ĠMad":4332,"aval":4333,"ems":4334,"utions":4335,"æĺŃåĴĮ":4336,"ids":4337,"Ġpark":4338,"During":4339,"ç¯Ģ":4340,"2015":4341,"ä¹ħ":4342,"äººãģ®":4343,"arian":4344,"çªģ":4345,"ĠThomas":4346,"ergy":4347,"Ġsongs":4348,"Ġoriginally":4349,"apt":4350,"ducation":4351,"ĠFranc":4352,"Ġmar":4353,"é£Ľ":4354,"itch":4355,"çĽ£":4356,"hood":4357,"Ġradio":4358,"Ġdeal":4359,"ç®Ĺ":4360,"Ġpay":4361,"ç²¾":4362,"Ġpurch":4363,"ç»ĵ":4364,"Ġíı":4365,"Ġlargest":4366,"CA":4367,"èģĸ":4368,"Ġrange":4369,"ĠSal":4370,"ìĭł":4371,"iff":4372,"ç±į":4373,"isl":4374,"Ġrights":4375,"æ´Ľ":4376,"åľĺ":4377,"iction":4378,"Ġsoon":4379,"Ġprovide":4380,"Ġmus":4381,"Ġì°":4382,"ving":4383,"Ġloss":4384,"åİĨ":4385,"ĠMount":4386,"èĪĪ":4387,"Ġaircraft":4388,"ç·ı":4389,"sec":4390,"æī¹":4391,"æºĸ":4392,"ãģ«ãģ¤ãģĦãģ¦":4393,"190":4394,"ĠJapanese":4395,"ky":4396,"ãģĤãģ£ãģŁ":4397,"rel":4398,"ĠAcademy":4399,"Ġsound":4400,"åĪĻ":4401,"Ġcop":4402,"Ġ1960":4403,"oul":4404,"ĠCharles":4405,"Ġadminist":4406,"åº·":4407,"ĠAustralian":4408,"Ġplayers":4409,"hest":4410,"Ġexpress":4411,"Ġìľł":4412,"æĪĲç«ĭ":4413,"Ġpot":4414,"Ġmount":4415,"Ġmodel":4416,"Ġanal":4417,"road":4418,"2006":4419,"Ġlo":4420,"ĠChinese":4421,"éĹ¨":4422,"ì¡°":4423,"Ġreve":4424,"ĠTo":4425,"Ġparen":4426,"éĲ":4427,"åĽłæŃ¤":4428,"Ġcountries":4429,"ĠAccording":4430,"Ġstates":4431,"Ġcivil":4432,"Ġfarm":4433,"Ġimp":4434,"Ġrather":4435,"asons":4436,"Ġbi":4437,"Ġusually":4438,"ishop":4439,"serv":4440,"ength":4441,"ëĲľ":4442,"ĠMusic":4443,"Ġoccup":4444,"äººçī©":4445,"åĤ³":4446,"vert":4447,"imate":4448,"Ġcand":4449,"right":4450,"äºķ":4451,"Ġplaced":4452,"Ġqual":4453,"ĠGreat":4454,"ĠÃ":4455,"Ġbehind":4456,"uses":4457,"Ġfar":4458,"ç¥ĸ":4459,"Ġsex":4460,"ãĥķãĥ©":4461,"ĠPri":4462,"Ġask":4463,"Ġshows":4464,"Ġachie":4465,"2016":4466,"ä¿Ĥ":4467,"çķ°":4468,"Ġë¯":4469,"rey":4470,"ìľĦ":4471,"Ġspace":4472,"ĠRobert":4473,"Ġëĵ±":4474,"æīį":4475,"ĠAlex":4476,"ĠMinister":4477,"æ¦Ĥè¦ģ":4478,"Ġreached":4479,"ateg":4480,"leg":4481,"ãģªãģ©ãģ®":4482,"SA":4483,"åĽ¢":4484,"åħ¸":4485,"ĠWestern":4486,"atives":4487,"åı³":4488,"Ġprofessional":4489,"æĻĤéĸĵ":4490,"åįł":4491,"face":4492,"Ġintroduced":4493,"å¾ĭ":4494,"åĵĪ":4495,"bour":4496,"å»£":4497,"ãĥ¼ãĥ³":4498,"48":4499,"ĠSome":4500,"ranch":4501,"Ġexhib":4502,"Ġmiss":4503,"Ġoccur":4504,"ä¼ł":4505,"èĶ":4506,"Ġleast":4507,"å¹¿":4508,"Ġesc":4509,"è¡ĮæĶ¿":4510,"Ġflow":4511,"Ġ1998":4512,"åıĤåĬł":4513,"çĵ¦":4514,"Ġhit":4515,"çħ§":4516,"urity":4517,"Ġforce":4518,"ä¹ī":4519,"Ġalmost":4520,"é»¨":4521,"rown":4522,"pon":4523,"ãĤ¹ãĥĨ":4524,"Ġhom":4525,"çŃĸ":4526,"ê³Ħ":4527,"2000":4528,"Ġinstead":4529,"ĠGr":4530,"åĭĴ":4531,"ĠRad":4532,"aled":4533,"åł´åĲĪ":4534,"ollowing":4535,"ĠSim":4536,"ç»´":4537,"ĠCentral":4538,"èĻķ":4539,"pecially":4540,"Ġrespect":4541,"å¯Į":4542,"ãĥªãĤ¹":4543,"TV":4544,"Ġdou":4545,"Ġmedia":4546,"è²ł":4547,"istry":4548,"Ġmethod":4549,"Ġconstit":4550,"ilies":4551,"æĩī":4552,"mb":4553,"Ġaccount":4554,"Ġincludes":4555,"ĠWhite":4556,"å¼Ł":4557,"ida":4558,"ĠParis":4559,"åĢĻ":4560,"çķ¥":4561,"ãĥ¦":4562,"ãĥ¼ãģ®":4563,"Ġë¶Ģ":4564,"ĠMuseum":4565,"Ġpossible":4566,"Ġscored":4567,"ëĭĪ":4568,"Ġlik":4569,"ê¸":4570,"ë¶":4571,"åĸ¶":4572,"è¨±":4573,"Ġsen":4574,"ìĹĪ":4575,"Ġneg":4576,"eleb":4577,"Ġabove":4578,"ãĤ·ãĥ£":4579,"Ġsem":4580,"Ġsitu":4581,"å¤Ħ":4582,"æĴŃ":4583,"åĳ³":4584,"rael":4585,"There":4586,"ãĤ¿ãĤ¤":4587,"ä»ĸçļĦ":4588,"ĠLouis":4589,"Ġplann":4590,"å¾Įãģ«":4591,"Ġcreat":4592,"ä»ĭ":4593,"ç®¡çĲĨ":4594,"Ġfall":4595,"ĠAfrican":4596,"Ġcut":4597,"éĴ":4598,"Ġfig":4599,"æ²Ļ":4600,"za":4601,"Ġtoo":4602,"Ġsize":4603,"Ġchanged":4604,"Ġíķĺ":4605,"æģ¯":4606,"åľ°æĸ¹":4607,"ĠDon":4608,"ãģķãĤĮãģ¦":4609,"ĠIr":4610,"Ġrelationship":4611,"oo":4612,"ĠTur":4613,"Pro":4614,"äº¡":4615,"æİĴ":4616,"åĽ½å®¶":4617,"è®¤":4618,"alled":4619,"ĠTex":4620,"ĠChe":4621,"Ġnovel":4622,"Ġmeas":4623,"Ġlittle":4624,"irth":4625,"çį²å¾Ĺ":4626,"arily":4627,"ãĥģãĥ£":4628,"Ġallowed":4629,"Ġcompan":4630,"Ġwriting":4631,"west":4632,":_":4633,"ĠĠĠĠĠĠĠĠ":4634,"ĠGrand":4635,"ç¤¾ä¼ļ":4636,"500":4637,"ãģ¨ãģ¯":4638,"åģľ":4639,"ãĥ¼ãĥĹ":4640,"ibrary":4641,"éľĢ":4642,"ãģ§ãģįãĤĭ":4643,"ĠMus":4644,"ĠMiss":4645,"idents":4646,"Ġinvestig":4647,"Ġinstit":4648,"èĲ¬":4649,"Ġjud":4650,"Ġoutside":4651,"ĠRussian":4652,"çµ¦":4653,"ĠMark":4654,"Wh":4655,"è°·":4656,"hing":4657,"Ġmovement":4658,"ĠLat":4659,"Ġbur":4660,"ises":4661,"Ġwhose":4662,"ona":4663,"aves":4664,"Ġconnect":4665,"33":4666,"å¢ŀ":4667,"unt":4668,"çıŃ":4669,"tained":4670,"Ġcenter":4671,"å»¶":4672,"eal":4673,"ancial":4674,"unn":4675,"åĭ¢":4676,"ĠHenry":4677,"ĠHam":4678,"ala":4679,"icles":4680,"Ġcentral":4681,"ãģ£ãģ¦ãģĦãģŁ":4682,"ĠMer":4683,"Ġcare":4684,"Ġfemale":4685,"annel":4686,"Ġmass":4687,"Ġpers":4688,"Ġaction":4689,"gen":4690,"Ġ1997":4691,"ĠGold":4692,"ĠGreen":4693,"ç¥¨":4694,"Ġ31":4695,"Ġmean":4696,"Ġì¡°":4697,"mar":4698,"ãģ¶":4699,"ãĥķãĤ©":4700,"ception":4701,"Ġindustry":4702,"oring":4703,"ictor":4704,"ë§Ī":4705,"Ġvia":4706,"ĠWil":4707,"irm":4708,"æŃ·":4709,"æĺ¥":4710,"ĠGod":4711,"ux":4712,"æĹħ":4713,"Ġgrand":4714,"ena":4715,"Ġarmy":4716,"åºĶ":4717,"This":4718,"Ġitself":4719,"Ġsummer":4720,"Ġ1996":4721,"æİ¡":4722,"FA":4723,"hi":4724,"Ġopt":4725,"rd":4726,"Ġspent":4727,"åĮ»":4728,"å©ļ":4729,"ä¼ģ":4730,"Ġfrequ":4731,"Ġsch":4732,"Ġwhom":4733,"ãĥ¼ãĥŀ":4734,"å±¬":4735,"Ġparts":4736,"aring":4737,"ä¸ĢèĪ¬":4738,"olf":4739,"ensus":4740,"Ġtaking":4741,"Ġregard":4742,"Ġmoney":4743,"ume":4744,"ready":4745,"èİ·":4746,"è¡¨ç¤º":4747,"Ġcollege":4748,"ĠCommission":4749,"å½ĵæĻĤ":4750,"Ġtype":4751,"ìĦ¸":4752,"Ġbeginning":4753,"æ®ĭ":4754,"Ġpred":4755,"å²¸":4756,"Ġactive":4757,"ãĤ¯ãĥ©":4758,"36":4759,"2017":4760,"ĠLos":4761,"oper":4762,"é½":4763,"Ġcoach":4764,"2005":4765,"Ġconv":4766,"Ġprison":4767,"å·®":4768,"iqu":4769,"æĨ":4770,"ĠMy":4771,"ounter":4772,"back":4773,"å¥ĩ":4774,"éĻ½":4775,"Ġimm":4776,"çĴ°":4777,"enced":4778,"æĸŃ":4779,"Ġbuildings":4780,"èĳī":4781,"ĠDire":4782,"37":4783,"Ġcommercial":4784,"Ġcandid":4785,"Ġstop":4786,"Ġtax":4787,"æı´":4788,"ģ¬":4789,"Ġcome":4790,"ä¸ĸç´Ģ":4791,"lim":4792,"ãģ«ãģªãĤĭ":4793,"ka":4794,"ç¯ī":4795,"Ġever":4796,"ĠCons":4797,"Ġquest":4798,"æ¥µ":4799,"Ġstudies":4800,"arter":4801,"ì§Ħ":4802,"Ġdon":4803,"ĠSing":4804,"oint":4805,"Ġking":4806,"Ġoppos":4807,"mon":4808,"omp":4809,"lam":4810,"å¯¼":4811,"è¿ĺ":4812,"uter":4813,"ĠSpanish":4814,"ç¹Ķ":4815,"Ġsus":4816,"ites":4817,"ç¾İåľĭ":4818,"åįĩ":4819,"ãĤģãĤĭ":4820,"retary":4821,"æ³¨":4822,"Ġdestroy":4823,"Ġhard":4824,"Ġfood":4825,"ump":4826,"Ġbooks":4827,"38":4828,"åħ±åĴĮ":4829,"çĶŁæ´»":4830,"ĠScott":4831,"ufact":4832,"ç¾İåĽ½":4833,"Career":4834,"å¤ı":4835,"Ġtowards":4836,"ĠMet":4837,"Ġrequired":4838,"och":4839,"ĠHill":4840,"Ġespecially":4841,"ĠTor":4842,"Ġsection":4843,"ç«¯":4844,"unk":4845,"Ġstudied":4846,"rial":4847,"ãĥĺ":4848,"Ġtrib":4849,"board":4850,"not":4851,"åķıé¡Į":4852,"Ġconcern":4853,"ĠAfrica":4854,"Ġdraw":4855,"Ġder":4856,"ç´į":4857,"ĠCommittee":4858,"ìĨĮ":4859,"ï¼į":4860,"Ġobject":4861,"æ´¥":4862,"arriage":4863,"å¾¡":4864,"ĠÂ":4865,"Ġremov":4866,"é¢Ĩ":4867,"ror":4868,"Ġfuture":4869,"Ġriver":4870,"Ġneigh":4871,"å¼ł":4872,"Ġran":4873,"è§Ĩ":4874,"éĨ":4875,"unity":4876,"Ġended":4877,"ĠChic":4878,"Ġdefeated":4879,"Ġbattle":4880,"å¡ŀ":4881,"ĠPet":4882,"Ġche":4883,"iple":4884,"æ¸¸":4885,"æĢ¥":4886,"Ġsett":4887,"erve":4888,"Ġlower":4889,"å¸Ī":4890,"åĶ±":4891,"çģ£":4892,"ķĮ":4893,"ĠJose":4894,"Ġprinc":4895,"å¤§åŃ¸":4896,"ãĤ¸ãĥ§":4897,"abit":4898,"ibility":4899,"ĠAlthough":4900,"ãģŁãĤģãģ«":4901,"Ġoperations":4902,"ĠArch":4903,"ĠíĮ":4904,"order":4905,"pected":4906,"íı":4907,"Ġgirl":4908,"ĠFrank":4909,"Ġbreak":4910,"ĠSov":4911,"ension":4912,"lymp":4913,"clus":4914,"elled":4915,"éģ¸æīĭ":4916,"æĪ¿":4917,"Ġdistrib":4918,"æıĲä¾Ľ":4919,"Ġ1995":4920,"asion":4921,"ĠCatholic":4922,"å¹´ãģ«ãģ¯":4923,"ĠLab":4924,"rim":4925,"ficult":4926,"47":4927,"Ġdata":4928,"Ġnec":4929,"Ġfif":4930,"Ġunits":4931,"Ġobserv":4932,"Ġorganization":4933,"oid":4934,"ria":4935,"ĠIsrael":4936,"é¾į":4937,"Ġwood":4938,"ĠSmith":4939,"aught":4940,"å½±éŁ¿":4941,"ini":4942,"ires":4943,"êµ°":4944,"ë³´":4945,"Ġmix":4946,"ĠBill":4947,"åĪ©çĶ¨":4948,"porary":4949,"å¥¥":4950,"ĠCamp":4951,"ĠìĻ":4952,"åıĺ":4953,"Ġplant":4954,"shire":4955,"å£°":4956,"è®Ĭ":4957,"Ġdocument":4958,"æĿ¿":4959,"ĠVirgin":4960,"ãģĵãģ¨ãĤĴ":4961,"Ġanti":4962,"reland":4963,"ìĹĲëĬĶ":4964,"lav":4965,"olk":4966,"Ġceleb":4967,"å¹³æĸ¹åħ¬éĩĮ":4968,"ĠMont":4969,"ä»į":4970,"Ġanc":4971,"å¿ľ":4972,"like":4973,"Ġalready":4974,"ests":4975,"Ġlived":4976,"Ġblock":4977,"Ġcoast":4978,"ĠMichael":4979,"æĮĻ":4980,"Ge":4981,"Ġdifficult":4982,"ãģ«åħ¥":4983,"ĠPeter":4984,"iences":4985,"ĠëĲĺ":4986,"lace":4987,"è¾²":4988,"Ġmove":4989,"aps":4990,"Ġtraditional":4991,"ìĤ°":4992,"èĭ¥":4993,"ë¹Ħ":4994,"Ġíĥ":4995,"èĹ¤":4996,"Ġpersonal":4997,"Ġstructure":4998,"Ġstudent":4999,"Ġhigher":5000,"ĠDay":5001,"çľĭ":5002,"Ġenter":5003,"Ġpractice":5004,"ĠMa":5005,"ĠArts":5006,"uz":5007,"Ġfourth":5008,"ĠìĿĺ":5009,"iation":5010,"chan":5011,"ĠItalian":5012,"BA":5013,"ĠTom":5014,"ä¾Ŀ":5015,"kn":5016,"ym":5017,"fit":5018,"Ġbroadcast":5019,"asc":5020,"Ġsil":5021,"Ġcred":5022,"Ġ1994":5023,"Ġkeep":5024,"Ġthus":5025,"tic":5026,"Ġsystems":5027,"iography":5028,"inent":5029,"ìľ¼ë©°":5030,"Ġself":5031,"ĠOther":5032,"Ġgold":5033,"ìĹŃ":5034,"ãĤĴæĮģ":5035,"éģĬ":5036,"ãĤ¦ãĤ§":5037,"rying":5038,"èĩ£":5039,"umn":5040,"Ġëª¨":5041,"Ġteac":5042,"oys":5043,"ç°":5044,"ĠOlymp":5045,"ãĤĵãģł":5046,"æĬĬ":5047,"Ġ.":5048,"Ġcompetition":5049,"æŃ¥":5050,"é³":5051,"born":5052,"Des":5053,"Ġcommission":5054,"ĠFestival":5055,"Ġcapital":5056,"ĠPenn":5057,"ĠTer":5058,"Ġcertain":5059,"based":5060,"ĠTrans":5061,"Ġfeet":5062,"oke":5063,"ç±»":5064,"Ġincreased":5065,"ĠMr":5066,"ĠLake":5067,"ä¸ŃçļĦ":5068,"ĠRichard":5069,"pire":5070,"Ġdeterm":5071,"oz":5072,"Ġprimary":5073,"Ġregular":5074,"Ġisland":5075,"Ġcurrently":5076,"ĠRev":5077,"iter":5078,"ĠBoard":5079,"ãĥ«ãĥĪ":5080,"usband":5081,"Ġthought":5082,"34":5083,"åľĸ":5084,"æĹ§":5085,"çŁŃ":5086,"Ġì¹":5087,"Ġearlier":5088,"Ġaccording":5089,"32":5090,"Ġjob":5091,"Ġwinning":5092,"æ¤į":5093,"ĠRock":5094,"æĵĬ":5095,"wer":5096,"Ġcy":5097,"Ġissues":5098,"ĠYear":5099,"Ġstaff":5100,"ç«¶":5101,"é»ŀ":5102,"ĠâĢ":5103,"Ġlack":5104,"sych":5105,"æĬ¥":5106,"Ġ(\"":5107,"ano":5108,"ãģ®ä¸Ń":5109,"Ġdivision":5110,"ĠëĤĺ":5111,"ĠKingdom":5112,"ĠSecond":5113,"ãģĹãģĦ":5114,"èĪŀ":5115,"39":5116,"ĠCongress":5117,"éĽ£":5118,"75":5119,"åĩ»":5120,"embly":5121,"tar":5122,"Ġ1992":5123,"ĠSant":5124,"æ¸¡":5125,"Ġmur":5126,"ĠGovernment":5127,"é²":5128,"Ġproperty":5129,"ä½Ĳ":5130,"ki":5131,"Ġ1950":5132,"æģ©":5133,"Ġactivities":5134,"ĠDemocr":5135,"ä¹Ĺ":5136,"éĽĦ":5137,"ä»½":5138,"Ġfa":5139,"ĠCast":5140,"Ġcollection":5141,"å¾Įãģ®":5142,"Ġentered":5143,"rate":5144,"ì¡":5145,"Ġfilms":5146,"ê³µ":5147,"ĠìĹ°":5148,"éĤ¦":5149,"ĠëıĻ":5150,"ãĥ¼ãĥª":5151,"æŃ£å¼ı":5152,"Ġcourse":5153,"æĪĲä¸º":5154,"¢ħ":5155,"Ġnewsp":5156,"ĠFore":5157,"ĠCont":5158,"ita":5159,"Ġopening":5160,"ãĥĨãĥ¬":5161,"çº§":5162,"ãĤĪãģĨãģ«":5163,"Ġwoman":5164,"åºķ":5165,"Ġnatural":5166,"Ġhor":5167,"æį®":5168,"Ġlove":5169,"Ġexpand":5170,"Ġpie":5171,"Ġadop":5172,"éĩįè¦ģ":5173,"å¼Ģå§ĭ":5174,"ĠJust":5175,"å°ģ":5176,"Ġdecision":5177,"åĨĻ":5178,"2001":5179,"ì¶":5180,"ĠYou":5181,"Ġculture":5182,"Ġnar":5183,"ios":5184,"ë¯¼":5185,"ä¸ģ":5186,"ĠIm":5187,"æĺłçĶ»":5188,"Ġinterview":5189,"BS":5190,"æİ§":5191,"Ġsurround":5192,"Ġlength":5193,"ĠFilm":5194,"Ġkey":5195,"ĠTexas":5196,"æ¼¢":5197,"Ġmagazine":5198,"ãĤ¤ãĥ«":5199,"ãĤģãģ¦":5200,"Ġpreviously":5201,"ĠChicago":5202,"åĽ¾":5203,"ãĥ³ãģ¯":5204,"ĠVictor":5205,"æĪĲçĤº":5206,"plied":5207,"46":5208,"ëį°":5209,"å²¡":5210,"Ġforced":5211,"edy":5212,"ĠCanadian":5213,"Ġleader":5214,"ä¼¼":5215,"2018":5216,"Ġcompanies":5217,"ê°Ħ":5218,"itiz":5219,"Ġclosed":5220,"Ġmeans":5221,"èĥĮ":5222,"vey":5223,"ĠOp":5224,"åĨł":5225,"æıı":5226,"åĪĴ":5227,"Ġemb":5228,"ãģ¨åĳ¼":5229,"Ġintern":5230,"èĪī":5231,"æĪĲåĬŁ":5232,"iles":5233,"Ġë°ľ":5234,"Ġimmedi":5235,"åĲĮæĻĤ":5236,"Ġlaunched":5237,"ç§Ģ":5238,"æĿĲ":5239,"Ġroute":5240,"Sh":5241,"olit":5242,"Ġcomplex":5243,"ĠAngeles":5244,"ructed":5245,"ãĥĥãĥī":5246,"Ġattend":5247,"rack":5248,"æŃ³":5249,"well":5250,"ä¸¾":5251,"ĠSoviet":5252,"åºĦ":5253,"Ġlocation":5254,"ãģĪãģŁ":5255,"mitted":5256,"Ġhusband":5257,"Ġdecl":5258,")_":5259,"Ġmunic":5260,"ç£":5261,"ãģ¨ãģĻãĤĭ":5262,"Ġtransport":5263,"æ²Ĵ":5264,"Ġgoing":5265,"Ġenvironment":5266,"Ġcaused":5267,"De":5268,"çºª":5269,"lant":5270,"é»ĳ":5271,"Ġnoted":5272,"ĠInter":5273,"ä¸»ç¾©":5274,"earch":5275,"lag":5276,"Ġpassed":5277,"Ġmanufact":5278,"æīĺ":5279,"itar":5280,"ocal":5281,"ç´¢":5282,"Ġbig":5283,"ãĤĵãģ§":5284,"ç¶Ļ":5285,"ras":5286,"ĠBur":5287,"Ġquick":5288,"Ġruns":5289,"Ġexc":5290,"Ġcust":5291,"ãģ¨ãģªãĤĬ":5292,"Re":5293,"ç´°":5294,"teg":5295,"ĠSuper":5296,"èĵ":5297,"Ġemer":5298,"itation":5299,"Ġet":5300,"Ġnumerous":5301,"ada":5302,"Ġ1993":5303,"Ġbene":5304,"Ġsat":5305,"Ġjournal":5306,"Ġgra":5307,"Ġmission":5308,"ify":5309,"Ġbecoming":5310,"ìĭĿ":5311,"íĥĢ":5312,"Ġevidence":5313,"ê´Ģ":5314,"Ġapprox":5315,"ĠBen":5316,"Ġapplic":5317,"uke":5318,"Ġolder":5319,"Ġschol":5320,"ĠForce":5321,"ĠSir":5322,"ĠMel":5323,"ersonal":5324,"ì²´":5325,"Ġnorthern":5326,"Ġtransl":5327,"Ġdrop":5328,"Ġfamilies":5329,"She":5330,"æľ¯":5331,"å°Ī":5332,"Ġstandard":5333,"æīĢæľī":5334,"Ġprior":5335,"Ġcreate":5336,"ĠFin":5337,"Ġlink":5338,"Ġterrit":5339,"Ġsouthern":5340,"å°¾":5341,"2004":5342,"ãĤ¸ãĤ§":5343,"ricult":5344,"Ġgenerally":5345,"ë¯¸":5346,"atal":5347,"aut":5348,"å¹ķ":5349,"Ġbetter":5350,"ãĥ¬ãĥ¼":5351,"iled":5352,"Ġgive":5353,"uments":5354,"ift":5355,"Ġden":5356,"åĸ®":5357,"ëł¤":5358,"Ġsuper":5359,"ëįĺ":5360,"ĠBank":5361,"ĠìĨĮ":5362,"ĠDel":5363,"æĪ¸":5364,"ands":5365,"Ġfinancial":5366,"onn":5367,"Ġsettle":5368,"Ġthreat":5369,"Ġ1991":5370,"ãĤ¼":5371,"Ġclaimed":5372,"Ġtrade":5373,"ola":5374,"Ġprob":5375,"ãģĬãĤĪ":5376,"Ġarrest":5377,"åľ°åįĢ":5378,"åįķ":5379,"Ġsupported":5380,"Ġnomin":5381,"Ġvictory":5382,"Ġgot":5383,"ees":5384,"ĠIreland":5385,"Ġabs":5386,"ä»¥ä¸Ĭ":5387,"íĽĦ":5388,"æ³°":5389,"éĬĢ":5390,"Ġdirected":5391,"è¾¼":5392,"è¦³":5393,"Ġstay":5394,"ä¸ĵ":5395,"Ġens":5396,"Ġplat":5397,"Ġindependent":5398,"éĢ²è¡Į":5399,"Ġequip":5400,"ĳĲ":5401,"ä¸įåĲĮ":5402,"Ġëį":5403,"49":5404,"ĠSqu":5405,"reme":5406,"Ġpercent":5407,"FC":5408,"Ġprevent":5409,"å¤§ä¼ļ":5410,"éļĨ":5411,"ä¼ļç¤¾":5412,"Ġpen":5413,"ĠìĦł":5414,"Ġfunction":5415,"åĪ«":5416,"Ġappearance":5417,"Ġë¹Ħ":5418,"æ¬Ĭ":5419,"Ġdiscuss":5420,"Ġhapp":5421,"lying":5422,"ĠCarol":5423,"Ġfle":5424,"venue":5425,"izing":5426,"Ġlegal":5427,"Ġsometimes":5428,"ãĤĮãģ°":5429,"èģŀ":5430,"Ġparents":5431,"Ġìĥģ":5432,"è£ľ":5433,"åĤ¬":5434,"cher":5435,"ĠKore":5436,"è¤":5437,"èĩªçĶ±":5438,"èµĦ":5439,"ãģĳãģ¦":5440,"Ġball":5441,"Ġhelped":5442,"åıĸãĤĬ":5443,"ëłĪ":5444,"å¤§ãģį":5445,"ä½Ľ":5446,"ros":5447,"Ġsenior":5448,"known":5449,"Ġchampionship":5450,"ëĭ¹":5451,"è®º":5452,"è¼ĥ":5453,"Ġrunning":5454,"Ġgoals":5455,"Ġraised":5456,"åı°æ¹¾":5457,"æķ£":5458,"æĶ¯æĮģ":5459,"Ġowned":5460,"Ġíĸ":5461,"va":5462,"Ġeconomic":5463,"eds":5464,"Ġsaf":5465,"ä½įç½®":5466,"è²»":5467,"ëĭ¨":5468,"ĠBrown":5469,"ams":5470,"Ġtroops":5471,"Un":5472,"ãĢįï¼Į":5473,"ãģĹãģŁãģĮ":5474,"Ġreligious":5475,"ĠGra":5476,"selves":5477,"âĢĿï¼Į":5478,"Ġtourn":5479,"Ġinitially":5480,"Ġthemselves":5481,"ĠFort":5482,"ulated":5483,"èĪªç©º":5484,"Ġbelieved":5485,"Ġartist":5486,"Ġë§Ī":5487,"Ġroom":5488,"orpor":5489,"Ġmanager":5490,"ils":5491,"ĠRob":5492,"Ġissue":5493,"airman":5494,"Ġlay":5495,"lo":5496,"Ġge":5497,"ê°ľ":5498,"Ġshot":5499,"Ġhours":5500,"Ġdate":5501,"è®°":5502,"éĲµ":5503,"Ġer":5504,"Ġscient":5505,"æĿĥ":5506,"ãģŁãģ¡":5507,"Åį":5508,"Ġwide":5509,"ëĲĺìĹĪëĭ¤":5510,"ĠSaint":5511,"Ġremains":5512,"Ġrailway":5513,"é»Ħ":5514,"istan":5515,"èĺĩ":5516,"åĩºåł´":5517,"Ġìĺģ":5518,"Ġartists":5519,"åĨ³":5520,"ãĥ©ãĥ³ãĥī":5521,"Ġfamous":5522,"æ²¿":5523,"å§Ĩ":5524,"Ġadditional":5525,"æ¯Ľ":5526,"inary":5527,"ĠFlor":5528,"ãĥ¼ãĥ©":5529,"ãĤ¹ãģ®":5530,"åħ¼":5531,"ìĺ¤":5532,"ĠìĽ":5533,"Ġleaving":5534,"Ġtoday":5535,"55":5536,"íķľëĭ¤":5537,"ĠPac":5538,"Ġassociated":5539,");":5540,"Ġamount":5541,"Ġdefend":5542,"Ġveh":5543,"ĠíĨ":5544,"den":5545,"plement":5546,"Ġìĺ¤":5547,"å²Ľ":5548,"ĠëķĮ":5549,"Ġê°ľ":5550,"ãĤĪãģĨãģª":5551,"çķªçµĦ":5552,"Ġparticularly":5553,"Ġincrease":5554,"teen":5555,"Ġchanges":5556,"44":5557,"Ġour":5558,"Ġestablish":5559,"Ġoffered":5560,"Ġchief":5561,"Ġê³ł":5562,"Ġsubsequently":5563,"change":5564,"è¡Ģ":5565,"Ġmeeting":5566,"æĽ¼":5567,"Ġprograms":5568,"ĠOper":5569,"ste":5570,"çĪĨ":5571,"rief":5572,"è½ī":5573,"Ġcal":5574,"Ã¤":5575,"èĴĻ":5576,"Ġconsider":5577,"uild":5578,"åĶĲ":5579,"mark":5580,"å¿«":5581,"For":5582,"åºŃ":5583,"ĠBo":5584,"Ġsquad":5585,"Ġminor":5586,"Ġnews":5587,"ĠFound":5588,"æĸ¹éĿ¢":5589,"ura":5590,"ãĥĭãĤ¢":5591,"iÄ":5592,"æ²¹":5593,"ota":5594,"ç¿Ĵ":5595,"Ġcharacters":5596,"Ġêµ¬":5597,"icro":5598,"Ġcomplete":5599,"è¿Ķ":5600,"Ġparticular":5601,"Ġarm":5602,"ãģ®ãģ¯":5603,"ãĥ³ãĥĢ":5604,"ĠTwo":5605,"Ġmajority":5606,"ãĤ·ãĤ¢":5607,"house":5608,"ĠPlay":5609,"ĠParliament":5610,"èĬĤ":5611,"ãĥĨãĥ¬ãĥĵ":5612,"æķĻæİĪ":5613,"æįķ":5614,"overs":5615,"utch":5616,"ĠìĦ¸":5617,"ĠZeal":5618,"onse":5619,"éĵģ":5620,"æķĪ":5621,"íķł":5622,"ether":5623,"Ġë¯¸":5624,"Ġrelated":5625,"Ġlimited":5626,"å¸¦":5627,"å¤ľ":5628,"å¸¶":5629,"ban":5630,"ĠItaly":5631,"åľ°åŁŁ":5632,"ìŀ¬":5633,"Ġbirth":5634,"Ġcontain":5635,"ĠScot":5636,"ĠKn":5637,"ĠëıĦ":5638,"using":5639,"åĵ¥":5640,"Ġcollabor":5641,"æł¸":5642,"åĪĬ":5643,"inner":5644,"anced":5645,"ê¹":5646,"Ġmusical":5647,"åĸĦ":5648,"Ġ1989":5649,"Ġfailed":5650,"è½¬":5651,"Ġlonger":5652,"ãĥ©ãĥ³":5653,"æľĢé«ĺ":5654,"ican":5655,"å¹´ãģĭãĤī":5656,"AC":5657,"otel":5658,"çĽĽ":5659,"Ġweeks":5660,"èįī":5661,"raw":5662,"ãĤīãĤĮãģ¦ãģĦãĤĭ":5663,"ĠWal":5664,"ĠIts":5665,"ä»¥ä¸ĭ":5666,"Ġcontro":5667,"Ġpolicy":5668,"189":5669,"bur":5670,"ĠZealand":5671,"Ġtrain":5672,"Ġdom":5673,"Ġterms":5674,"Ġgraduated":5675,"ĠLater":5676,"æĵļ":5677,"Ġhighest":5678,"etic":5679,"ylvan":5680,"å®ĮæĪĲ":5681,"Ġselected":5682,"ì¦":5683,"ãĥ¨":5684,"standing":5685,"æ¬§":5686,"Ġvisit":5687,"oma":5688,"iring":5689,"ĠBattle":5690,"Ġcarried":5691,"ĠMass":5692,"ta":5693,"ç½ª":5694,"ado":5695,"Ġmanagement":5696,"ĠSwed":5697,"é£İ":5698,"Ġmach":5699,"ãģķãĤī":5700,"ĠBest":5701,"å±¤":5702,"ãĢįï¼Ī":5703,"æĹ¥ãģ®":5704,"ëĦ":5705,"å¤´":5706,"íĸī":5707,"Ġcomplet":5708,"ĳľ":5709,"æŀ¶":5710,"ĠSum":5711,"ãĥ«ãģ®":5712,"Ġconcept":5713,"odes":5714,"Ġfeature":5715,"åĮĹäº¬":5716,"ye":5717,"Ġlarger":5718,"ŀĪ":5719,"Ġfort":5720,"ä½įæĸ¼":5721,"Ġearned":5722,"ãĥ¬ãĤ¤":5723,"æ¸¬":5724,"enc":5725,"ĠíĽĦ":5726,"Ġded":5727,"ãģªãĤĭ":5728,"éļİ":5729,"ingu":5730,"æĺİæ²»":5731,"ãĥ´ãĤ£":5732,"Ġfinally":5733,"Ġ60":5734,"éģº":5735,"isions":5736,"uge":5737,"ĠSince":5738,"ote":5739,"ĠDo":5740,"Ġcentre":5741,"Ġlines":5742,"Ġannual":5743,"Ġarrived":5744,"éĻĦ":5745,"ĠLiber":5746,"ĠTimes":5747,"Ġbomb":5748,"Ġexperience":5749,"Ġmedical":5750,"ĠThat":5751,"ä½įäºİ":5752,"è©¦åĲĪ":5753,"é¹":5754,"éģł":5755,"ë¬´":5756,"å®ĩ":5757,"Ġmention":5758,"ĠNavy":5759,"è¨Ńè¨Ī":5760,"Ġturned":5761,"Ġstudio":5762,"Ġchall":5763,"å¥³æĢ§":5764,"ging":5765,"Ġalways":5766,"çļ®":5767,"åģļ":5768,"çµĦç¹Ķ":5769,"Ġbring":5770,"Ġ/":5771,"Ġincome":5772,"Ġtold":5773,"Ġstep":5774,"èĭı":5775,"ç¶²":5776,"ìŀĳ":5777,"ãģ«ãģĤãĤĭ":5778,"ĠMos":5779,"Ġresponse":5780,"æıĽ":5781,"ĠOld":5782,"Ġasked":5783,"velopment":5784,"ãĥ´ãĤ¡":5785,"Ġmight":5786,"Personal":5787,"éļı":5788,"ĠêµŃ":5789,"æłĩ":5790,"Ġstatus":5791,"irt":5792,"Cl":5793,"Ġdone":5794,"éĸĭçĻº":5795,"Ġofficer":5796,"Ġcolon":5797,"Ġapproximately":5798,"åįĴ":5799,"çĨ±":5800,"é¾Ļ":5801,"2003":5802,"åĬĥ":5803,"ãģ«éĸ¢":5804,"ĠGreek":5805,"ĠJewish":5806,"çº³":5807,"Pl":5808,"Ġmarriage":5809,"Ġconsist":5810,"Ġinfluence":5811,"ê·¸":5812,"ĠStar":5813,"ĠMill":5814,"Ġpresented":5815,"Ġtakes":5816,"çĳŀ":5817,"Ġforeign":5818,"åľĭå®¶":5819,"iance":5820,"æ¢Ŀ":5821,"ĠMexico":5822,"Ġcases":5823,"ients":5824,"rast":5825,"ãģĬãĤĪãģ³":5826,"ç§ģ":5827,"éłħ":5828,"heast":5829,"Ġtext":5830,"ëł¥":5831,"ylvania":5832,"íĤ":5833,"ãĥ³ãĥĩ":5834,"Ġeditor":5835,"adium":5836,"ä»ĸä»¬":5837,"Ġsister":5838,"action":5839,"42":5840,"ä»ĸåĢĳ":5841,"åĬłåħ¥":5842,"éħĴ":5843,"æŁ»":5844,"ĠÂ£":5845,"irit":5846,"éģĭåĭķ":5847,"è£ģ":5848,"isation":5849,"ç¿Į":5850,"ä¸¹":5851,"imb":5852,"Ġpoor":5853,"ĠGeorg":5854,"ĠPre":5855,"èĹı":5856,"uan":5857,"Ġdig":5858,"Ġê´Ģ":5859,"å¸°":5860,"Ġacquired":5861,"ailed":5862,"ĠTechn":5863,"ĠEducation":5864,"Ġwanted":5865,"Ġrate":5866,"ician":5867,"Ġbelow":5868,"Ġchart":5869,"Ġcharg":5870,"Ġuniversity":5871,"ĠVirginia":5872,"Ġmostly":5873,"65":5874,"unior":5875,"eff":5876,"Ġshown":5877,"æķĳ":5878,"Ġfederal":5879,"Ġdram":5880,"è¿Ľè¡Į":5881,"åī§":5882,"ãĤĤãģĤãĤĭ":5883,"Ġbatt":5884,"é¨ĵ":5885,"åŁĥ":5886,"Ġsociety":5887,"Ġproblems":5888,"ãģĻãĤĭãģ¨":5889,"Ġ1988":5890,"ĠWood":5891,"Ġindividuals":5892,"Ġindic":5893,"enth":5894,"éĺª":5895,"ç¬¬ä¸ī":5896,"ê²½":5897,"ĠService":5898,"Ġforest":5899,"pose":5900,"Ġunit":5901,"ĠLord":5902,"Ġthink":5903,"ato":5904,"ä¿Ħ":5905,"çİī":5906,"ĠJoseph":5907,"Ġphil":5908,"AS":5909,"ãĢįãĢĤ":5910,"å¾ģ":5911,"ĠMur":5912,"stra":5913,"uman":5914,"Ġenough":5915,"Ġuses":5916,"å¾Ĵ":5917,"èŃĺ":5918,"åĩºçīĪ":5919,"å¹´çļĦ":5920,"ãĥģãĥ¼ãĥł":5921,"ĠCarl":5922,"ãĤ¤ãĥĦ":5923,"ãĥ¼ãĥĬ":5924,"Ġinstr":5925,"ĠSur":5926,"gl":5927,"ipl":5928,"igan":5929,"éĢĶ":5930,"Ġinn":5931,"Ġtarg":5932,"Ġrepresented":5933,"ä¹ĭä¸Ģ":5934,"ero":5935,"Ġlegisl":5936,"Ġproposed":5937,"ca":5938,"ĠLeg":5939,"Ġarran":5940,"yr":5941,"ĠMost":5942,"Ġsurface":5943,"ç§¯":5944,"åĩĨ":5945,"Ġminutes":5946,"Ġleave":5947,"Ġcontains":5948,"uing":5949,"Ġseat":5950,"IS":5951,"Ġword":5952,"Ġpil":5953,"ĠìĦľ":5954,"Ġwestern":5955,"Ġexpla":5956,"ĠìĦ±":5957,"ache":5958,"Ġplans":5959,"ĠAnn":5960,"ĠValley":5961,"Ġlatter":5962,"ette":5963,"ĠUnder":5964,"Ġsea":5965,"éĻħ":5966,"å¢Ĺ":5967,"Ġeas":5968,"ĠHa":5969,"According":5970,"ĠìĹ¬":5971,"åĲĮãģĺ":5972,"itt":5973,"Ġtheory":5974,"Ġpromoted":5975,"ĠFer":5976,"Ġrequire":5977,"Biography":5978,"vention":5979,"Ġsyn":5980,"ê·":5981,"bon":5982,"Ã¨":5983,"å¥ı":5984,"Ġmem":5985,"Ġcrew":5986,"bury":5987,"ĠAtlant":5988,"eck":5989,"ĠRos":5990,"41":5991,"Ġnorm":5992,"obal":5993,"cription":5994,"è¿ª":5995,"ĠChief":5996,"Ġ1987":5997,"ĠëĶ":5998,"ider":5999,"ãĥķãĤ§":6000,"ols":6001,"wide":6002,"ulf":6003,"inct":6004,"Ġdepart":6005,"æĽ¿":6006,"äº¤éĢļ":6007,"Ġinsp":6008,"Ġíķ´":6009,"Ġenergy":6010,"å²©":6011,"ĠìĤ":6012,"æĺ¯ä¸Ģ":6013,"è²¬":6014,"Ġpartn":6015,"ĠRecords":6016,"Ġëħ":6017,"ãĤ°ãĥ©":6018,"Ġmovie":6019,"ĠWork":6020,"çĻºè¡¨":6021,"Ġoperation":6022,"äººçļĦ":6023,"Ġscience":6024,"Ġsaying":6025,"ãģķãĤĮãģ¦ãģĦãģŁ":6026,"ucle":6027,"æľĢåĪĿ":6028,"æ±ºå®ļ":6029,"íģ¬":6030,"æ¸©":6031,"Ġrap":6032,"aches":6033,"±´":6034,"å¥§":6035,"isco":6036,"æ¢ħ":6037,"ãģĹãģ¾":6038,"æľĢå¤§":6039,"ties":6040,"ä¾¡":6041,"Ġnine":6042,"Ġremaining":6043,"éĢļå¸¸":6044,"ĠGo":6045,"MS":6046,"è¼¸":6047,"íĭ":6048,"åĪĳ":6049,"ĠPublic":6050,"isk":6051,"ĠIrish":6052,"ãĥ³ãĥĨ":6053,"aily":6054,"Ġhospital":6055,"Ġincreasing":6056,"asket":6057,"ç¦»":6058,"ãģªãģĮ":6059,"è¿ŀ":6060,"cel":6061,"ãģªãģĬ":6062,"ady":6063,"anda":6064,"Ġcitiz":6065,"When":6066,"ĠScience":6067,"ĠArab":6068,"ested":6069,"Ġbrief":6070,"atively":6071,"arden":6072,"æ²¡æľī":6073,"èĨ":6074,"ĠBritain":6075,"oura":6076,"ĠSa":6077,"çµĲæŀľ":6078,"Ġresults":6079,"Ġhouses":6080,"ĠWomen":6081,"Ġchap":6082,"æ²Ĵæľī":6083,"å¾ħ":6084,"Ġmiddle":6085,"Ġspecific":6086,"ĠìĬ¤":6087,"ãĢģãĢİ":6088,"åįĺ":6089,"Ġ1986":6090,"Ġscreen":6091,"85":6092,"2002":6093,"åĽ½ãģ®":6094,"Ġcause":6095,"ä»ķ":6096,"Ġsla":6097,"ãĥ³ãĥĲ":6098,"ĠMod":6099,"ĠPan":6100,"Ġdespite":6101,"åĺī":6102,"ĠWales":6103,"Ġìĭł":6104,"Ġidea":6105,"ĠMany":6106,"èģĮ":6107,"ä¸Ĭæµ·":6108,"ãĤ¦ãĤ£":6109,"èĢħãģ®":6110,"Ġsucceed":6111,"arters":6112,"ĠProv":6113,"Ġmale":6114,"Ġnearly":6115,"ĠCle":6116,"gram":6117,"ä»¥éĻį":6118,"Ġserving":6119,"vement":6120,"Ġvariety":6121,"sylvania":6122,"oir":6123,"ĠColumb":6124,"Ġnecess":6125,"Äģ":6126,"ĠNorthern":6127,"ĠEmpire":6128,"ares":6129,"Ġstarting":6130,"Ġface":6131,"ìľł":6132,"Ġwriter":6133,"Ġ1930":6134,"Ġ1940":6135,"bers":6136,"ua":6137,"æ¿Ģ":6138,"è«¸":6139,"mission":6140,"Ġships":6141,"\")":6142,"Ġfriends":6143,"mond":6144,"peror":6145,"è¨ĺéĮ²":6146,"ĠQueen":6147,"Ġ=":6148,"æĬĢè¡ĵ":6149,"æ°£":6150,"ãģ«ãģĬãģĳãĤĭ":6151,"ption":6152,"å´İ":6153,"ĠDen":6154,"Ġkil":6155,"é¬":6156,"Americ":6157,"ĠClass":6158,"uries":6159,"Ġconditions":6160,"Ġheavy":6161,"FL":6162,"spe":6163,"Ġrecording":6164,"ault":6165,"å·¡":6166,"ãĤ«ãĥ¼":6167,"ãĥĸãĥ«":6168,"ä¸ĢäºĽ":6169,"azz":6170,"undred":6171,"Ġbound":6172,"å¼º":6173,"Ġ#":6174,"Ġwhole":6175,"Ġmatches":6176,"43":6177,"Ġseparate":6178,"ledge":6179,"AT":6180,"è£Ŀ":6181,"Ġrecent":6182,"Ġnation":6183,"urt":6184,"ìķĪ":6185,"From":6186,"å¾ĵ":6187,"aters":6188,"unction":6189,"ãĤ¤ãĥĪ":6190,"ken":6191,"Ġsource":6192,"ĠRo":6193,"ä¼ĳ":6194,"play":6195,"Ġbox":6196,"ĠCD":6197,"Ġoperated":6198,"åħį":6199,"Ġsoft":6200,"Ġreferred":6201,"ĠFlorida":6202,"ç¦ģ":6203,"Ġaltern":6204,"ously":6205,"éĢĲ":6206,"Ġcell":6207,"ãģĭãĤīãģ®":6208,"ãĥīãĤ¤ãĥĦ":6209,"Ġappears":6210,"Ġretired":6211,"åħĦ":6212,"war":6213,"Ġtechnology":6214,"ĠEr":6215,"ih":6216,"ï½":6217,"çĪŃ":6218,"éģŃ":6219,"Ġ180":6220,"ĠMartin":6221,"Ġtournament":6222,"Ġnearby":6223,"inals":6224,"76":6225,"Ġgrew":6226,"Ġlog":6227,"Ġmakes":6228,"ìļ´":6229,"äº²":6230,"æ°Ķ":6231,"ĠDirector":6232,"è°ĥ":6233,"æŃ´åı²":6234,"ç§ĭ":6235,"Ġaffect":6236,"ĠProfess":6237,"å¤į":6238,"Ġscore":6239,"ìĿĮ":6240,"ysis":6241,"down":6242,"enes":6243,"ĠPacific":6244,"åĪĽ":6245,"reater":6246,"Ġ1985":6247,"Ġconstructed":6248,"æ¨ª":6249,"Ġlikely":6250,"imum":6251,"ervation":6252,"rupt":6253,"Ġtransferred":6254,"itted":6255,"Ġadj":6256,"see":6257,"ĠPennsylvania":6258,"æĿŁ":6259,"ĠTheatre":6260,"arc":6261,"ìĥĿ":6262,"emorial":6263,"Ġprop":6264,"å¦»":6265,"è¦ģæ±Ĥ":6266,"Ġbridge":6267,"1990":6268,"Ġprovides":6269,"Ġguitar":6270,"Ġpoet":6271,"ĠNot":6272,"åŁ·":6273,"ĠLand":6274,"umed":6275,"ãĤīãģ®":6276,"ê±°":6277,"ãĥ©ãĥ¼":6278,"ĠSun":6279,"Ġ1984":6280,"ĠHaw":6281,"Ġresponsible":6282,"ĠTheir":6283,"Ġ1945":6284,"å°Ĥ":6285,"Ġestim":6286,"rative":6287,"æļ´":6288,"stitution":6289,"éŁĵ":6290,"99":6291,"ãĢĭï¼Į":6292,"åĩºèº«":6293,"æ³ģ":6294,"ãģ¨ãģĹãģŁ":6295,"ĠâĢĺ":6296,"éĻ³":6297,"Ġserve":6298,"cm":6299,"Ġsports":6300,"Ġprin":6301,"éĢĥ":6302,"Ġi":6303,"å°ļ":6304,"ession":6305,"æ°ĳä¸»":6306,"inet":6307,"cement":6308,"çīĻ":6309,"ao":6310,"æĸ¹å¼ı":6311,"ĠIf":6312,"ãĤ·ãĥ¼ãĤº":6313,"Ġquickly":6314,"Ġstations":6315,"èŀ":6316,"Ġnames":6317,"Ã³n":6318,"è§Ģ":6319,"ĠSouthern":6320,"Ġdise":6321,"ĠSk":6322,"ĠBook":6323,"ĠOl":6324,"Ġcomment":6325,"ä½Ļ":6326,"Ġdemonst":6327,"ç½²":6328,"Ġdiscovered":6329,"Ġkind":6330,"ãĥ¼ãĥĩ":6331,"Ġì´":6332,"Ġyouth":6333,"Ġdecla":6334,"åĩºæ¼Ķ":6335,"åª":6336,"Ġnature":6337,"Ġcounty":6338,"éļ¨":6339,"Ġorganiz":6340,"ĠBus":6341,"Ġrule":6342,"ection":6343,"æ¸Ľ":6344,"ĠSil":6345,"ä¹¡":6346,"Ġoil":6347,"ĠFre":6348,"Ġwhether":6349,"Ġmechan":6350,"Ġforms":6351,"Ġcultural":6352,"ademic":6353,"Ġsoldiers":6354,"Ġcontinue":6355,"Ġcouncil":6356,"æĹĹ":6357,"antry":6358,"Ġreason":6359,"Ġbr":6360,"ì¹´":6361,"emporary":6362,"åĽ³":6363,"Ġdiss":6364,"illed":6365,"ĠRadio":6366,"ìĹħ":6367,"ãģķãĤīãģ«":6368,"Ġfirm":6369,"86":6370,"Back":6371,"æ±ī":6372,"enty":6373,"ĠResearch":6374,"Ġmanaged":6375,"bit":6376,"Ġshoot":6377,"è§Ĥ":6378,"Ġlisted":6379,"éĸ¢ä¿Ĥ":6380,"æĮ¯":6381,"åł¡":6382,"ĠJud":6383,"light":6384,"âĢ²":6385,"æľĢçµĤ":6386,"Ġissued":6387,"ech":6388,"è²¡":6389,"ĠIII":6390,"add":6391,"æ¸Ī":6392,"ĠCla":6393,"Ġheart":6394,"agn":6395,"iÄĩ":6396,"è«ĭ":6397,"Ġresidents":6398,"åĸľ":6399,"Ġdu":6400,"å»ºè¨Ń":6401,"åī²":6402,"Ġlos":6403,"è®¸":6404,"ĠRailway":6405,"urban":6406,"Ġfell":6407,"Ġplatform":6408,"ĠFoundation":6409,"åĬŀ":6410,"stant":6411,"ë³¸":6412,"Ġwalk":6413,"íĸĪ":6414,"inated":6415,"è¾¦":6416,"ë¬¼":6417,"Ġpick":6418,"ounds":6419,"Ġscene":6420,"Ġmainly":6421,"Ad":6422,"Ġpaper":6423,"Ġtalk":6424,"éłĥ":6425,"Ġlevels":6426,"è·Ŀ":6427,"Ġdomin":6428,"ĠìķĬ":6429,"èµ¤":6430,"Ġsequ":6431,"ening":6432,"ä½Ĩæĺ¯":6433,"bre":6434,"Ġordered":6435,"ãģĲ":6436,"ati":6437,"½Ķ":6438,"Ġpsych":6439,"hy":6440,"íĶĦ":6441,"ãģĶ":6442,"uten":6443,"ĠFred":6444,"writ":6445,"Ġwebs":6446,"å®Ŀ":6447,"Ġeth":6448,"Ġhonor":6449,"89":6450,"æľŁéĸĵ":6451,"ìļĶ":6452,"Ġlives":6453,"é«ĺåº¦":6454,"ä»ģ":6455,"Ġdirectly":6456,"é¤Ĭ":6457,"ĠBet":6458,"Ġappearances":6459,"åħ¨åĽ½":6460,"Ġdead":6461,"ĠRussia":6462,"é¢ĺ":6463,"éīĦéģĵ":6464,"æ··":6465,"ìķ¼":6466,"é¼":6467,"Ġcovered":6468,"Ġdepend":6469,"éĿŀå¸¸":6470,"Ġopport":6471,"å¿ł":6472,"Ġrefer":6473,"åĿ¦":6474,"ĠNews":6475,"è½Ħ":6476,"Ġlic":6477,"Ġincorpor":6478,"ĠMo":6479,"Ġdisplay":6480,"åľ£":6481,"ĠGal":6482,"Ġ1920":6483,"oston":6484,"Ġrevealed":6485,"åĽº":6486,"Ġpow":6487,"ĠJer":6488,"æĻĤæľŁ":6489,"win":6490,"Ġmeaning":6491,"His":6492,"osoph":6493,"éĹ®":6494,"Ġproduce":6495,"íĺ¸":6496,"ittle":6497,"ĠJim":6498,"Ġvote":6499,"ç»Ļ":6500,"é¥":6501,"Ġhere":6502,"èªĮ":6503,"ìķĺ":6504,"éĿ¢ç©į":6505,"Ġinteg":6506,"ĠSpain":6507,"å½¢æĪĲ":6508,"Ġcapac":6509,"thing":6510,"ĠInf":6511,"åĪ°äºĨ":6512,"ãĥ³ãĤ¸":6513,"Ġofficers":6514,"Ġfoot":6515,"Ġprojects":6516,"ä¸ĬçļĦ":6517,"ĠSl":6518,"æĳ©":6519,"Ġult":6520,"put":6521,"âĢĿãĢĤ":6522,"æ®¿":6523,"Ġmultiple":6524,"ĠSpe":6525,"ãģ¨åĳ¼ãģ°":6526,"Ġ65":6527,"ental":6528,"Ġ1983":6529,"å·¥ç¨ĭ":6530,"éĥ½å¸Ĥ":6531,"ç§ĺ":6532,"rich":6533,"Ġmaster":6534,"íŀĪ":6535,"Ġlaws":6536,"ĠKe":6537,"ë¶Ħ":6538,"gress":6539,"orning":6540,"æĭĶ":6541,"ãģĳãģŁ":6542,"ä¼´":6543,"ãĥķãĥ©ãĥ³ãĤ¹":6544,"cend":6545,"Ġaddress":6546,"ĠWin":6547,"lah":6548,"å¿ħè¦ģ":6549,"Ġpurs":6550,"ì°¨":6551,"ellig":6552,"Ġnewspaper":6553,"Ġ1982":6554,"ĠGovernor":6555,"Ġedition":6556,"Ġextended":6557,"ube":6558,"Ġess":6559,"ì§Ģë§Į":6560,"ĠUp":6561,"åº«":6562,"88":6563,"åĤ·":6564,"æİ¢":6565,"ãģįãģŁ":6566,"ĠFootball":6567,"å¹´éĸĵ":6568,"çĶŁãģ¾":6569,"Ġver":6570,"çºĮ":6571,"ĠDef":6572,"Ġdrug":6573,"è®¤ä¸º":6574,"Ġdeep":6575,"Ġconfl":6576,"77":6577,"Ġproducts":6578,"ãģłãģĳ":6579,"ìĹĲê²Į":6580,"Ġprogress":6581,"Ġmetres":6582,"VD":6583,"Ġworkers":6584,"Ġimmediately":6585,"iro":6586,"ĠMat":6587,"å§Ķåĳĺ":6588,"istics":6589,"ë°©":6590,"verse":6591,"Ġpurchased":6592,"ç»Ń":6593,"éħ¸":6594,"ãģ®ãģ¿":6595,"ĺĲ":6596,"âĢ¦":6597,"Ġcommunic":6598,"ĠCam":6599,"Ġgrowth":6600,"Ġclear":6601,"èªįçĤº":6602,"Ġquarter":6603,"å¥ĳ":6604,"ully":6605,"åĪ¶ä½ľ":6606,"ĠìŀĪëĬĶ":6607,"å¹³æĪĲ":6608,"ë¶ĢíĦ°":6609,"Ġhistorical":6610,"ĠEle":6611,"Ġtemper":6612,"poration":6613,"èİ«":6614,"Ġremoved":6615,"åıĮ":6616,"Ġpasseng":6617,"Ġefforts":6618,"rison":6619,"ĠHow":6620,"Ġinitial":6621,"ç¥Ń":6622,"Ġ35":6623,"Ġcities":6624,"è¡Ĩ":6625,"itude":6626,"ãģĦãģªãģĦ":6627,"Ġcorn":6628,"äºĴ":6629,"onic":6630,"Ġ1979":6631,"Ġenem":6632,"kins":6633,"Ġcontact":6634,"ãĥĥãĤ¯ãĤ¹":6635,"Ġbelong":6636,"Ġsal":6637,"ĠEv":6638,"ĠSar":6639,"ĠCreek":6640,"ãĥ³ãĤ¯":6641,"Ġconducted":6642,"ĠTele":6643,"Ġagreed":6644,"å»ºç¯ī":6645,"ê¹Į":6646,"ĠAssembly":6647,"Ġquestion":6648,"Ġfeel":6649,"ĠSocial":6650,"Ġspeed":6651,"reng":6652,"icient":6653,"ĠVol":6654,"ĠInc":6655,"¶Į":6656,"ĠYoung":6657,"ìĪ":6658,"ãģŃ":6659,"æĵį":6660,"ä¹±":6661,"66":6662,"Ġ1972":6663,"ëŀĺ":6664,"Ġprofessor":6665,"Ġoverall":6666,"é®":6667,"ìĹ°":6668,"MA":6669,"çķ«":6670,"Ġspread":6671,"è¨Ńç«ĭ":6672,"ç·´":6673,"ĠEdward":6674,"çĽ£çĿ£":6675,"Ġshare":6676,"Ġletter":6677,"Ġdefeat":6678,"ĠOh":6679,"ĠMcC":6680,"ãģ¨ãĤĤãģ«":6681,"åĨĨ":6682,"iano":6683,"ĠStation":6684,"ĠLong":6685,"zil":6686,"Ġseasons":6687,"Ġ45":6688,"Ġmaintain":6689,"Ġrecords":6690,"Ġhighly":6691,"95":6692,"çĻ»åł´":6693,"gypt":6694,"æĵĶ":6695,"ias":6696,"ĠMore":6697,"ĠCivil":6698,"å¹²":6699,"abeth":6700,"ãĥªãĥ¼ãĤº":6701,"ĠSpr":6702,"Ġyet":6703,"ampion":6704,"ounded":6705,"yan":6706,"èĽ":6707,"Ġweap":6708,"çīĮ":6709,"ĠSund":6710,"more":6711,"Ġattention":6712,"ĠTri":6713,"ï¼īãĢĤ_":6714,"Ġneeded":6715,"æľĹ":6716,"ãĢģãĢĬ":6717,"éĺ³":6718,"Ġiniti":6719,"Ġ80":6720,"ĠIll":6721,"Ġlabel":6722,"æ³ī":6723,"icted":6724,"åĲ¦":6725,"éĿ©åĳ½":6726,"ãĤĮãģ¦":6727,"oration":6728,"ulations":6729,"US":6730,"awa":6731,"wa":6732,"Ġelements":6733,"ĠBig":6734,"Ġpra":6735,"ãĥĵãĥ¥ãĥ¼":6736,"åįı":6737,"æŀĦ":6738,"åįĹéĥ¨":6739,"è¨Ńç½®":6740,"ĠMiddle":6741,"Ġeffects":6742,"íİ":6743,"åĬī":6744,"Ġaim":6745,"Ġpath":6746,"å®ĭ":6747,"ffic":6748,"ãĤĴåĭĻ":6749,"Ġspl":6750,"Ġë§Į":6751,"Ġeastern":6752,"law":6753,"mir":6754,"Ġmuseum":6755,"ĠBoston":6756,"ĠBas":6757,"Ġdestroyed":6758,"çĶ±äºİ":6759,"osh":6760,"Ġë°©":6761,"Ġcustom":6762,"Ġunivers":6763,"èĸ©":6764,"ĠâĢĶ":6765,"ĠFrancisco":6766,"çĬ¯":6767,"è¿İ":6768,"èĲ¥":6769,"orship":6770,"Ġactivity":6771,"Ġplanned":6772,"burgh":6773,"ĠíĶĦ":6774,"ĠDou":6775,"Ġintended":6776,"rance":6777,"ĠPrince":6778,"çĽ®çļĦ":6779,"µľ":6780,"Ġmill":6781,"éĻĨ":6782,"åºı":6783,"Ġ1974":6784,"aging":6785,"fect":6786,"çĶ±æĸ¼":6787,"Ġsched":6788,"åĲĽ":6789,"è©ŀ":6790,"Ġpan":6791,"Le":6792,"ë£¨":6793,"ER":6794,"iana":6795,"è¼ª":6796,"ç§ĳåŃ¦":6797,"ĠBow":6798,"itled":6799,"ieuten":6800,"CC":6801,"aped":6802,"ĠOut":6803,"ĠSub":6804,"Ġmoving":6805,"ãĤ¤ãĤ¹":6806,"ĠSat":6807,"ãĥªãĥ¼ãĤ°":6808,"rif":6809,"Ġbrand":6810,"asketball":6811,"çĩŁ":6812,"åĽŃ":6813,"Ġfloor":6814,"78":6815,"Ġextra":6816,"Ġalongside":6817,"Ġbehav":6818,"ãĥĪãĥ«":6819,"Ġprotect":6820,"èĹ©":6821,"ĠMah":6822,"Ġpotential":6823,"ĠSol":6824,"äºĭæ¥Ń":6825,"ìŀĦ":6826,"Ġstore":6827,"ĠEastern":6828,"Ġsecurity":6829,"ersey":6830,"Ġancient":6831,"isher":6832,"åıĸå¾Ĺ":6833,"edd":6834,"åŃ¦çĶŁ":6835,"astic":6836,"ĠLee":6837,"vis":6838,"ng":6839,"Ġtreatment":6840,"Ġ1968":6841,"å¾®":6842,"Ġ1975":6843,"èĩªèº«":6844,"ali":6845,"Ġfellow":6846,"Ġ1981":6847,"éľĢè¦ģ":6848,"ãģ²":6849,"Ġconver":6850,"isters":6851,"åİĨåı²":6852,"ãģ¨ãģªãģ£ãģ¦ãģĦãĤĭ":6853,"cont":6854,"ç½ĳ":6855,"ãĤªãĥª":6856,"Ġsuffered":6857,"ĠSo":6858,"æŃ·åı²":6859,"1980":6860,"Ġoffer":6861,"Ġbasis":6862,"æ¾³":6863,"ĠBoth":6864,"Ġsmaller":6865,"ĠEarth":6866,"å®Įåħ¨":6867,"ails":6868,"oud":6869,"ãĥīãĥ©":6870,"åĮĹéĥ¨":6871,"Ġproblem":6872,"Ġvalue":6873,"éŁ³æ¥½":6874,"OS":6875,"amily":6876,"è´¨":6877,"andon":6878,"Ġê·":6879,"Ġinh":6880,"æĴ¤":6881,"çĽĬ":6882,"Ġcollect":6883,"íĤ¤":6884,"é»ĥ":6885,"ä¹ĭå¾Į":6886,"Ġability":6887,"igr":6888,"Ġcounter":6889,"ĠSecretary":6890,"ĠLatin":6891,"Ġ1976":6892,"ora":6893,"Ġìŀ¥":6894,"Ġdouble":6895,"ä¹ĭåĲİ":6896,"mph":6897,"è¾ĥ":6898,"æĹ¥æľ¬ãģ®":6899,"Ġchem":6900,"adel":6901,"Ġcomposed":6902,"ĠCentre":6903,"Ķ¼":6904,"Ġë¬´":6905,"åĢ¼":6906,"ĠëĤ´":6907,"Ġparticipated":6908,"Ġ1978":6909,"ĠDutch":6910,"irmed":6911,"ĠêµĲ":6912,"Ġang":6913,"By":6914,"å¤ļãģıãģ®":6915,"éĸĭåĤ¬":6916,"ĠCro":6917,"ipality":6918,"Ġhundred":6919,"éľ²":6920,"ensity":6921,"æİ¡çĶ¨":6922,"ç´ħ":6923,"ãĥĸãĥ©":6924,"AA":6925,"ãĢĢãĢĢ":6926,"Ġinside":6927,"ãģ«ãģ¦":6928,"ìĺģ":6929,"ĠÐ":6930,"åĽ½éļĽ":6931,"ç»Ī":6932,"ìĸĳ":6933,"è§ģ":6934,"PS":6935,"John":6936,"Ġfacilities":6937,"ĠHel":6938,"Ġcaptured":6939,"Ġrenamed":6940,"åħ´":6941,"ë¡Ŀ":6942,"Ġcontrovers":6943,"ĠPak":6944,"ĠBC":6945,"ãģ¤ãģ®":6946,"ãģªãģĮãĤī":6947,"ĠOffice":6948,"Ġstories":6949,"ĠIslam":6950,"ables":6951,"Ġwithd":6952,"ĠBre":6953,"fort":6954,"ĠBelg":6955,"1999":6956,"Ġneighbor":6957,"Ġprobably":6958,"ĠMain":6959,"çĪµ":6960,"ãģİ":6961,"Ġagricult":6962,"Ġuns":6963,"Ġreform":6964,"å»ºç«ĭ":6965,"æĭ¿":6966,"ĠSystem":6967,"ĠGall":6968,"Ġrecover":6969,"akers":6970,"ieutenant":6971,"ä½µ":6972,"Ġwords":6973,"Ġofficially":6974,"Ġhouseholds":6975,"ĠLuc":6976,"ĠMuslim":6977,"Ġaccepted":6978,"ĠEgypt":6979,"Ġcharge":6980,"è¤ĩ":6981,"Ġprominent":6982,"ĠBroad":6983,"Ph":6984,"è§Ħ":6985,"Ġ1973":6986,"ĠCorps":6987,"ĠBBC":6988,"bed":6989,"ĠíĨµ":6990,"Ġimpact":6991,"ì¤ĳ":6992,"ny":6993,"64":6994,"ĠScotland":6995,"ë°ĺ":6996,"Ġseek":6997,"apers":6998,"æħ¶":6999,"Ġrepe":7000,"ä¸ĬãģĴ":7001,"ĠHon":7002,"ãĥ¼ãģ¯":7003,"gend":7004,"wan":7005,"ĠVer":7006,"åĪ»":7007,"ĠFollowing":7008,"ë²ķ":7009,"éĭ":7010,"Ġnative":7011,"å¼ķãģį":7012,"ried":7013,"Ġplays":7014,"ãĥ³ãĤ¿":7015,"Ġlif":7016,"èĢĥãģĪ":7017,"ĠShow":7018,"æı®":7019,"alle":7020,"åĦªåĭĿ":7021,"Ġâ":7022,"åĽłä¸º":7023,"éľĩ":7024,"Ġstreet":7025,"iger":7026,"ä¾µ":7027,"Ġblood":7028,"Ġfemales":7029,"Ġwa":7030,"Ġimplement":7031,"éª¨":7032,"ãĤ¤ãĤ®":7033,"ĠHealth":7034,"éŃĶ":7035,"Ġcomes":7036,"ĠëĺĲ":7037,"ä»ĸãģ®":7038,"American":7039,"ĠOx":7040,"ancy":7041,"Ġdemand":7042,"Ġborder":7043,"Ġgas":7044,"300":7045,"ĠCharl":7046,"Ġelections":7047,"ç³»çµ±":7048,"Ġkilomet":7049,"ãĤ²ãĥ¼ãĥł":7050,"Background":7051,"Ġfocus":7052,"éłĨ":7053,"Ġconne":7054,"stone":7055,"Ġ1971":7056,"ĠPost":7057,"ç¾½":7058,"åĽłçĤº":7059,"Ġ1977":7060,"ĠAv":7061,"ĠJones":7062,"Ġ1969":7063,"Ġadministration":7064,"tainment":7065,"ĠHospital":7066,"town":7067,"æĪ¦äºī":7068,"å»·":7069,"ĠGi":7070,"Ġslow":7071,"æł·":7072,"duce":7073,"å·¨":7074,"Ġnumbers":7075,"ãģĵãĤĮãģ¯":7076,"rong":7077,"Ġdedicated":7078,"Ġgiving":7079,"æĸ¹æ³ķ":7080,"79":7081,"éĻĪ":7082,"è¯ķ":7083,"resp":7084,"ãĥ¼ãĥŃ":7085,"è£½ä½ľ":7086,"Ġprimarily":7087,"ĠRou":7088,"ç¸¾":7089,"Ġhousing":7090,"é¦Ĩ":7091,"ĠLine":7092,"ĠJo":7093,"æ¿Ł":7094,"ĠJes":7095,"Ġreach":7096,"æ¨£":7097,"Ġphysical":7098,"Ġassistant":7099,"ĠWilliams":7100,"ëĶ":7101,"ãĤĬãģ®":7102,"Ġapart":7103,"ĠJul":7104,"Ġë°Ķ":7105,"Ġstreng":7106,"ĠDi":7107,"Ġera":7108,"éĦī":7109,"Ġcandidate":7110,"åŁİå¸Ĥ":7111,"56":7112,"Ġapproach":7113,"Ġleaders":7114,"ä¹Łæĺ¯":7115,"Ġfavor":7116,"çĭ¬ç«ĭ":7117,"Ġquality":7118,"arent":7119,"stein":7120,"Ġcapacity":7121,"ãĤ¤ãĤ®ãĥªãĤ¹":7122,"Ġ1967":7123,"ocated":7124,"Ġdark":7125,"Ġperman":7126,"åģ¥":7127,"ĠLife":7128,"ĠEngine":7129,"obile":7130,"Ġstone":7131,"Ġdirection":7132,"Ġstra":7133,"éĥ¨éļĬ":7134,"Ġ1944":7135,"æµİ":7136,"éĽħ":7137,"Ġdepartment":7138,"Ġpeace":7139,"åįĴæ¥Ń":7140,"Ġupper":7141,"ĠSea":7142,"Ġtaught":7143,"ources":7144,"ĠTro":7145,"Ġconsists":7146,"ĠCarolina":7147,"quarters":7148,"ĠOver":7149,"å½ĵæĹ¶":7150,"ãĥĻãĥ«":7151,"ĠCamb":7152,"dney":7153,"agement":7154,"chester":7155,"ulpt":7156,"ips":7157,"æ±ł":7158,"ĠTeam":7159,"ĠRam":7160,"èĬ¸":7161,"ĠBob":7162,"Ġagreement":7163,"ĠAwards":7164,"è¬Ľ":7165,"New":7166,"pression":7167,"çļĦäºº":7168,"çķ¶æĻĤ":7169,"Ġestate":7170,"ìłģìĿ¸":7171,"æıĲåĩº":7172,"Ġgained":7173,"é«ĺçŃī":7174,"éģĵè·¯":7175,"Ġlargely":7176,"Ġë¬¸":7177,"Ġ70":7178,"åĢ«":7179,"Ġut":7180,"Ġfelt":7181,"çĪ±":7182,"Ġexcept":7183,"åŁºæľ¬":7184,"Ã§":7185,"Ġrecently":7186,"å¸¯":7187,"ç³»åĪĹ":7188,"ĠBor":7189,"ĠChampionships":7190,"ãĥĭãĥ¥":7191,"Ġautom":7192,"íĨł":7193,"ela":7194,"Ġdeclared":7195,"ĠDemocratic":7196,"gar":7197,"ĠRome":7198,"Ġproducer":7199,"å¤ĩ":7200,"Ġscholars":7201,"æľ±":7202,"âģ":7203,"ç¯Ħ":7204,"èĤ¡":7205,"',":7206,"Ġtracks":7207,"Ġassigned":7208,"ìĨį":7209,"Ġtarget":7210,"ecause":7211,"ĠBrazil":7212,"Ġtrial":7213,"iest":7214,"Ġequipment":7215,"ĠJohnson":7216,"ĠCoast":7217,"izes":7218,"cean":7219,"çł²":7220,"ĠTour":7221,"ĠDespite":7222,"ãģĹãģ¦ãģĬãĤĬ":7223,"Ġheav":7224,"ç¼ĸ":7225,"ãĤ·ãĥªãĥ¼ãĤº":7226,"Ġê±°":7227,"çĻºå£²":7228,"ä¸Ńèı¯":7229,"åį´":7230,"ĠEliz":7231,"ä¼Ĺ":7232,"æŃĲ":7233,"Ġexam":7234,"èĴĤ":7235,"ifying":7236,"Ġadopted":7237,"ĠíĬ":7238,"Ġcoming":7239,"ãĤ¥":7240,"Ġabandon":7241,"ĠBh":7242,"æ¼«":7243,"ockey":7244,"ãĥ³ãĥĹ":7245,"æµ·è»į":7246,"Ġhar":7247,"can":7248,"Ġresulted":7249,"ãĥ³ãĥĶ":7250,"Ġpremi":7251,"ogue":7252,"hew":7253,"à¤":7254,"Ġsens":7255,"ĠOs":7256,"iy":7257,"ĠConference":7258,"ĠCross":7259,"Ġwebsite":7260,"Ġserious":7261,"aya":7262,"èĥ¡":7263,"å«":7264,"åį«":7265,"ĠPortug":7266,"Ġê²°":7267,"ĠSenate":7268,"ç«¥":7269,"ìĿ´ëĿ¼":7270,"Ġpaid":7271,"çĸĳ":7272,"perial":7273,"ga":7274,"ĠĠĠ":7275,"ronic":7276,"Ġpresence":7277,"Ġadult":7278,"å¥ī":7279,"Ġcouple":7280,"iser":7281,"Ġburied":7282,"Ġconcent":7283,"Ġtend":7284,"èī¾":7285,"ĠTem":7286,"Ġtherefore":7287,"Ġnucle":7288,"Ġcitizens":7289,"íĨµ":7290,"Ġcateg":7291,"Ġtitled":7292,"ãģ«å¯¾ãģĹãģ¦":7293,"ãģªãĤī":7294,"itness":7295,"ãĤ«ãĥ«":7296,"ĠPeople":7297,"edom":7298,"ãĤ¢ãĥ«ãĥĲ":7299,"çľ¾":7300,"æ¤ľ":7301,"ko":7302,"æª":7303,"grad":7304,"class":7305,"ador":7306,"åħ±ãģ«":7307,"ì¢ħ":7308,"Ġant":7309,"Ġê¸":7310,"Ġlabor":7311,"ç«¹":7312,"ĠTw":7313,"ä¸Ģæĸ¹":7314,"ä½³":7315,"Ġbeat":7316,"aling":7317,"2019":7318,"ĠMot":7319,"68":7320,"Ð°":7321,"Ġnewly":7322,"ĠLove":7323,"Ġorganized":7324,"PA":7325,"Ġmurder":7326,"Ġfifth":7327,"Ġregional":7328,"Ġsinger":7329,"Ġamb":7330,"ãĤªãĥ³":7331,"ĠJac":7332,"çĶ³":7333,"Ġactually":7334,"bl":7335,"éļľ":7336,"aka":7337,"ãĥ¼ãĥģ":7338,"Ġkept":7339,"ĠDev":7340,"ĠTre":7341,"å®ħ":7342,"58":7343,"1998":7344,"ë¥¸":7345,"Plot":7346,"ì´":7347,"ãģĪãģ¦":7348,"Ġleadership":7349,"ĠWind":7350,"çĽ¤":7351,"ĠStan":7352,"ãģ¾ãĤĬ":7353,"omy":7354,"Ġcard":7355,"Ġraces":7356,"éŃļ":7357,"åħĴ":7358,"Ġpropos":7359,"ãģ®å¤§":7360,"éĢļéģİ":7361,"ãĤĴè¦ĭ":7362,"Ġthous":7363,"Ġsuggested":7364,"è¨ª":7365,"ĠDis":7366,"ĠBerlin":7367,"åį±":7368,"åŃ«":7369,"ãģĮãģĤãĤĬ":7370,"esh":7371,"ç°¡":7372,"Ġaccomp":7373,"Ġshowed":7374,"éĽ²":7375,"uilding":7376,"Ġsolo":7377,"59":7378,"Ġpet":7379,"ĠAre":7380,"åĢĴ":7381,"With":7382,"èŃ°åĵ¡":7383,"Ġwidely":7384,"gent":7385,"çīĽ":7386,"ĠCr":7387,"Ġprep":7388,"chen":7389,"è¾ĸ":7390,"ãĥ³ãĥģ":7391,"éĤĬ":7392,"èĢ¶":7393,"Ġ90":7394,"Ġpressure":7395,"ìłģìľ¼ë¡ľ":7396,"éģķ":7397,"Ġarticle":7398,"ê¹Įì§Ģ":7399,"Ġthr":7400,"åĪĹè»Ĭ":7401,"inem":7402,"Ġbranch":7403,"ivity":7404,"oral":7405,"çįİ":7406,"ãĢĭãĢģãĢĬ":7407,"Ġgranted":7408,"è´£":7409,"ĠHy":7410,"Ġsays":7411,"Ġsymb":7412,"Ġtried":7413,"illy":7414,"ima":7415,"ãģ«ç§»":7416,"å¤ļãģĦ":7417,"ĠSand":7418,"ĠSydney":7419,"Ġpeak":7420,"rical":7421,"å¥ĸ":7422,"Ġë¶Ī":7423,"ĠëĤ¨":7424,"Ġrecomm":7425,"enge":7426,"éĹĺ":7427,"ansas":7428,"Ġcomputer":7429,"Ġstrugg":7430,"æĺĮ":7431,"Ġchannel":7432,"ëª¨":7433,"Ġelectric":7434,"Ġcontinues":7435,"ĠAvenue":7436,"Ġcerem":7437,"æĪı":7438,"oles":7439,"åħ±åĲĮ":7440,"book":7441,"Ġexpected":7442,"åŃ¦éĻ¢":7443,"æķµ":7444,"Ġrare":7445,"éĮĦ":7446,"ĠëĮĢíķľ":7447,"Ġcensus":7448,"éģ©":7449,"worth":7450,"ented":7451,"Ġdyn":7452,"umber":7453,"Ġmess":7454,"Ġleaves":7455,"Ġsettlement":7456,"ograp":7457,"Ġ1965":7458,"è´Ł":7459,"èİ·å¾Ĺ":7460,"çŃĳ":7461,"phy":7462,"åĦ¿":7463,"éģ¿":7464,"åĲ¸":7465,"Ġoffers":7466,"ansion":7467,"ĠìĥĿ":7468,"èį·":7469,"Ġmentioned":7470,"Ġinterp":7471,"å¯Ħ":7472,"Ġpaint":7473,"äºĮåįģ":7474,"Ġoccurred":7475,"ĠLy":7476,"itage":7477,"âĢ³":7478,"gu":7479,"Ġcompared":7480,"å¼Ĺ":7481,"with":7482,"è¨ĪçĶ»":7483,"ĠKent":7484,"no":7485,"62":7486,"ĠOrder":7487,"ĠBal":7488,"Ġ1964":7489,"Ġsearch":7490,"ĠHung":7491,"Ġflight":7492,"Ġbad":7493,"ĠìĹŃ":7494,"Ġplaces":7495,"ç¤¼":7496,"å®£å¸ĥ":7497,"å½ķ":7498,"Ġacting":7499,"ĠMu":7500,"Ġretire":7501,"åĶ®":7502,"ĠBrig":7503,"Ġsources":7504,"roll":7505,"ager":7506,"èĲ¨":7507,"Ġexpanded":7508,"Ġgreen":7509,"ãĥ¬ãĤ¹":7510,"ĠHistor":7511,"ãĢıï¼Ī":7512,"Ġwant":7513,"Ġ1966":7514,"ĠVan":7515,"Ġtypes":7516,"ĠOtt":7517,"agon":7518,"Ġknowledge":7519,"Ġforward":7520,"ja":7521,"ãĤ°ãĥ«":7522,"Ġcoin":7523,"1997":7524,"ĠFC":7525,"è¾¹":7526,"miss":7527,"72":7528,"vest":7529,"inity":7530,"æĲŃ":7531,"Ġexecutive":7532,"åĪº":7533,"è¡ĮãĤıãĤĮãģŁ":7534,"ãģĿãģĹãģ¦":7535,"ãĥŀãĥ³":7536,"rie":7537,"mann":7538,"ĠColumbia":7539,"icine":7540,"çİ¯":7541,"ãĤĭãģ¨":7542,"nam":7543,"ĠMatt":7544,"Ġoperating":7545,"Ġpositive":7546,"Ġestimated":7547,"Ġinform":7548,"äºĨä¸Ģ":7549,"cles":7550,"nding":7551,"ĠCur":7552,"å¥ª":7553,"èĩº":7554,"col":7555,"ãĤ»ãĥ³":7556,"è²´":7557,"ĠUr":7558,"unte":7559,"Ġtells":7560,"Ġcat":7561,"èĥŀ":7562,"Ġsexual":7563,"Ġcommunities":7564,"æĬ¤":7565,"osen":7566,"èĩªçĦ¶":7567,"Ġdamage":7568,"Ġwall":7569,"æĪ²":7570,"ãģ¥":7571,"Ġalle":7572,"çĻĤ":7573,"Ġdance":7574,"bo":7575,"aces":7576,"çĹĩ":7577,"Ġsales":7578,"ĠOf":7579,"æĻļ":7580,"Ġdivided":7581,"ĠAsia":7582,"Ġteacher":7583,"èĹĿ":7584,"å»ĥ":7585,"Ġreduced":7586,"ĠLu":7587,"Ġofficials":7588,"erc":7589,"ila":7590,"èĭ±åĽ½":7591,"ĠAlso":7592,"ä»¥å¤ĸ":7593,"emet":7594,"Ġowner":7595,"ĠBul":7596,"çĶŁå¹³":7597,"istered":7598,"éĢ±":7599,"ĠEnter":7600,"Ġsecret":7601,"Ġclaims":7602,"é¡¹":7603,"Ġbecomes":7604,"æ¨¹":7605,"ĠGood":7606,"ĠGames":7607,"Ġnotable":7608,"Ġëĭ¹":7609,"ĠMid":7610,"æ¢ģ":7611,"Ġ1942":7612,"Ġsu":7613,"Ġparish":7614,"mas":7615,"ĠRepublican":7616,"oted":7617,"Ġalone":7618,"Ġcars":7619,"éĥ¨ãģ®":7620,"Ġ500":7621,"çĶļ":7622,"Ġcolor":7623,"69":7624,"IA":7625,"å¹ħ":7626,"Ġonline":7627,"è¯Ħ":7628,"Ġterritory":7629,"ĠOhio":7630,"alion":7631,"Ġwear":7632,"ID":7633,"ĠBlue":7634,"ĠCorporation":7635,"åħħ":7636,"è«¾":7637,"Ġpal":7638,"ãģĵãĤį":7639,"Ġtransfer":7640,"èĥ½åĬĽ":7641,"Ġìĸ´":7642,"åĽ½æ°ĳ":7643,"ibly":7644,"istance":7645,"Ġfr":7646,"íĳľ":7647,"ĠAlexander":7648,"ãģ®ãģŁãĤģ":7649,"olved":7650,"Ġboy":7651,"ãĤ¨ãĥ«":7652,"ella":7653,"ëŀĢ":7654,"Ġindustrial":7655,"Ġtypically":7656,"Ġgreater":7657,"range":7658,"yal":7659,"ãģĹãģı":7660,"Ġgrowing":7661,"Ġprec":7662,"íħ":7663,"ãĢĤãĢį":7664,"æĭį":7665,"ĠJersey":7666,"Ġattacks":7667,"å¹¾":7668,"Ġfeaturing":7669,"ĠWater":7670,"ĠJackson":7671,"gers":7672,".)":7673,"ĠPhilipp":7674,"ãĥ¼ãĥĲ":7675,"Ġmedal":7676,"Ġproviding":7677,"SC":7678,"Ġcampus":7679,"Ġpack":7680,"ãĤĭãģĵãģ¨":7681,"ãĥĥãĥģ":7682,"Ġacademic":7683,"inger":7684,"ĠStep":7685,"het":7686,"amber":7687,"Ġresulting":7688,"Ġconclud":7689,"ĠSeries":7690,"which":7691,"set":7692,"ï¼ļ_":7693,"Ġrefused":7694,"Ġburn":7695,"Ġconfirmed":7696,"Ġmedian":7697,"ãĥªãĥ³":7698,"Life":7699,"Ġrat":7700,"çĽ´æİ¥":7701,"Ġcreation":7702,"Ġrecommend":7703,"ĠHead":7704,"dro":7705,"Ġperformances":7706,"ĠJustice":7707,"Ġvoice":7708,"ãĤ¹ãĥļ":7709,"ï¼Ŀ":7710,"Ġthings":7711,"éŃ¯":7712,"ĠLi":7713,"æĻº":7714,"ĠDevelopment":7715,"íı¬":7716,"Be":7717,"ĠGar":7718,"èª²":7719,"Ġtask":7720,"ione":7721,"éĿ¢ç§¯":7722,"Ġspring":7723,"ç¹¼":7724,"å¥Ī":7725,"Ġobtained":7726,"ĠCard":7727,"ĠMen":7728,"ighter":7729,"Ġcontent":7730,"onto":7731,"ëĤ´":7732,"ãĥĪãĥ©":7733,"51":7734,"yer":7735,"éĢı":7736,"Ġcoal":7737,"èĩ¨":7738,"ãĤ·ãĥ¼ãĤºãĥ³":7739,"One":7740,"oday":7741,"Ġpositions":7742,"è²¨":7743,"å°±æĺ¯":7744,"è¸":7745,"ãĥĬãĥ«":7746,"ç»§":7747,"ä¼¦":7748,"Ġhop":7749,"ë¦½":7750,"ãĤ¢ãĤ¤":7751,"è·¡":7752,"åıĹåĪ°":7753,"Ġì¶ľ":7754,"Ġ1941":7755,"emetery":7756,"Ġjoint":7757,"å®¿":7758,"Ġinjury":7759,"Ġspirit":7760,"Sc":7761,"Ġcombined":7762,"Ã±":7763,"èĩªåĭķ":7764,",_":7765,"Ġteaching":7766,"gal":7767,"ĠBrook":7768,"ĠSong":7769,"ãĤ¯ãĥŃ":7770,"è¿«":7771,"ĠProgram":7772,"Ġcannot":7773,"ĠMax":7774,"ãĤĴçµĮ":7775,"Ġpurpose":7776,"52":7777,"We":7778,"ĠKong":7779,"å°±ä»»":7780,"ĠLibrary":7781,"Ġbought":7782,"Ġpattern":7783,"87":7784,"èİ±":7785,"respond":7786,"é®®":7787,"Ġcritical":7788,"ĠìĹĨ":7789,"èĮĥ":7790,"1970":7791,"ĠAnother":7792,"Ġcondition":7793,"è¥²":7794,"Ġsituation":7795,"çĥĪ":7796,"ĠPolish":7797,"ĠElizabeth":7798,"Å¡":7799,"ĠTy":7800,"ĠFederal":7801,"Ġir":7802,"Ġsplit":7803,"éĩĩ":7804,"Ġcam":7805,"ä»Ģ":7806,"ĠìĽĲ":7807,"ãĥ¼ãĥĨ":7808,"Ġpainting":7809,"Ð¾":7810,"estic":7811,"Ġreceive":7812,"çĮ®":7813,"Ġelev":7814,"Ġpun":7815,"æľīä¸Ģ":7816,"ĠChild":7817,"å¤§éĺª":7818,"æĶ¿çŃĸ":7819,"æĭĽ":7820,"ãĥ¼ãĥĸ":7821,"Ġvess":7822,"æĸĩåŃ¦":7823,"Ġtank":7824,"Ġsculpt":7825,"ira":7826,"oti":7827,"ĠJr":7828,"etts":7829,"ĠFar":7830,"Ġdrum":7831,"ĠMichigan":7832,"æ¥¼":7833,"åªĴ":7834,"ê²©":7835,"pton":7836,"ëĲĺìĸ´":7837,"vard":7838,"Ġidentified":7839,"ĠFe":7840,"ulty":7841,"57":7842,"Ġmax":7843,"å³°":7844,"ĠField":7845,"Ġsupply":7846,"Ġliber":7847,"åĥį":7848,"Ġtrue":7849,"ĠCat":7850,"ĠHor":7851,"aniel":7852,"Ġë°Ľ":7853,"Ġarrested":7854,"ĠViet":7855,"wick":7856,"åĲĮæĹ¶":7857,"ĠCa":7858,"han":7859,"kin":7860,"Ġhands":7861,"uting":7862,"Ġrespectively":7863,"ĠTop":7864,"Ġpict":7865,"54":7866,"Ġeld":7867,"resh":7868,"åīįå¾Ģ":7869,"åıĳå±ķ":7870,"Ġgain":7871,"hens":7872,"Ġlot":7873,"ĠAdd":7874,"ĠUl":7875,"uts":7876,"Ġì§Ħ":7877,"Ġlosing":7878,"ĠAsian":7879,"æ°ĳæĹı":7880,"ĠKenn":7881,"Ġìļ°":7882,"Ġcells":7883,"zer":7884,"Ġvac":7885,"ancing":7886,"ä¸Ńåħ±":7887,"æĭħä»»":7888,"thur":7889,"ç´Ļ":7890,"ê°ģ":7891,"Ī¬":7892,"Ġenj":7893,"Ġmeant":7894,"67":7895,"Ġliterature":7896,"ĠCy":7897,"ãĤĤãģ®ãģ®":7898,"æµ·æĭĶ":7899,"Ġsemi":7900,"Ġbal":7901,"Ġsurrounding":7902,"èīº":7903,"ĠEst":7904,"Ġconduct":7905,"LA":7906,"Ġorganizations":7907,"è£½éĢł":7908,"Ġce":7909,"greg":7910,"Ġdisease":7911,"ĠBern":7912,"ãģĨãģ¡":7913,"Ġyounger":7914,"Ġlibrary":7915,"åħ¬éĸĭ":7916,"éģĩ":7917,"ĠFour":7918,"61":7919,"Ġbegins":7920,"ĠPrime":7921,"Ġauthorities":7922,"å®īåħ¨":7923,"Ġsettled":7924,"å¯©":7925,"Ġflag":7926,"98":7927,"Ġminister":7928,"èĦ±":7929,"ishes":7930,"é²ģ":7931,"ugby":7932,"è²©":7933,"çĻ¼å±ķ":7934,"Ġcaptain":7935,"gs":7936,"ë°ľ":7937,"ĠEll":7938,"Ġsuit":7939,"å½¢å¼ı":7940,"åĶ¯":7941,"Ġ1943":7942,"ĠDuke":7943,"ĠCorn":7944,"ãĤĨ":7945,"Ġsomething":7946,"è®©":7947,"%)":7948,"Ġmodels":7949,"ĠRevolution":7950,"çº¢":7951,"ses":7952,"ãĥ¼ãĥķ":7953,"Ġcommittee":7954,"çī¹åĪ¥":7955,"à¸":7956,"Geography":7957,"ĠGeorgia":7958,"ĠíĺĦ":7959,"ãĥĲãĤ¹":7960,"ĠVilla":7961,"Ġdistance":7962,"ĠPla":7963,"Ġscoring":7964,"Ġtraffic":7965,"ederation":7966,"åĵį":7967,"çµĮæ¸Ī":7968,"æºĢ":7969,"ĠMajor":7970,"å®¶æĹı":7971,"Ġallowing":7972,"æĵĶä»»":7973,"èµ«":7974,"Ġple":7975,"Ġcompletely":7976,"åĨħå®¹":7977,"Ġ1946":7978,"sen":7979,"è®ĵ":7980,"Ġíı¬":7981,"rence":7982,"ĠUk":7983,"å¸ĿåĽ½":7984,"ĠTim":7985,"1996":7986,"olid":7987,"ĠProfessor":7988,"èĭ±èªŀ":7989,"ãģĦãģı":7990,"ãĥ¼ãĥĦ":7991,"Ġ1948":7992,"Ġgoes":7993,"ender":7994,"ĠCE":7995,"åĪĺ":7996,"lers":7997,"Ġë°ĺ":7998,"Ġparties":7999,"Ġhall":8000,"éĽĻ":8001,"ĠBishop":8002,"ĠGuard":8003,"chestra":8004,"Ġopposition":8005,"åįĪ":8006,"ãģ»ãģĭ":8007,"é£ŀ":8008,"nic":8009,"Ġresident":8010,"å¹¼":8011,"Ġmile":8012,"Ġseem":8013,"Ġ1963":8014,"äººãģĮ":8015,"Ġformat":8016,"Ġshop":8017,"Ġë©":8018,"Ġreturning":8019,"ä½ľçĤº":8020,"Ġ1962":8021,"Ġfix":8022,"éĽª":8023,"odies":8024,"ãĤĮãģ¦ãģĦãĤĭ":8025,"wing":8026,"æłª":8027,"èŀį":8028,"åĽ½éĻħ":8029,"Ġwing":8030,"ĠGh":8031,"ãģŀ":8032,"Ġfast":8033,"Ġallows":8034,"íĺķ":8035,"adelph":8036,"ĠCaptain":8037,"ĠJean":8038,"Ġconsum":8039,"ä½ľä¸º":8040,"ãĢįãĢĮ":8041,"Ġelim":8042,"usion":8043,"53":8044,"Ġ1939":8045,"ç¿¼":8046,"çı¾åľ¨ãģ®":8047,"ĠSupreme":8048,"Ġmetal":8049,"ãģ¨ãģĹãģ¦ãģ¯":8050,"Ġconference":8051,"Ġtouch":8052,"ĠHistory":8053,"ĠDan":8054,"åľĭéļĽ":8055,"_\"":8056,"Ġcolumn":8057,"Ġlaunch":8058,"Ġfighting":8059,"Ġfigure":8060,"ules":8061,"Ġsucceeded":8062,"Ġproceed":8063,"iga":8064,"achus":8065,"å¾´":8066,"inois":8067,"Ġparliament":8068,"Ġvisited":8069,"Ġê³Ħ":8070,"Ġexperiment":8071,"Ġstock":8072,"éĻ£":8073,"ĠBridge":8074,"å±Ĭ":8075,"nes":8076,"Ġê°ķ":8077,"ĠOxford":8078,"æĥħåł±":8079,"Ġsons":8080,"æ¬¾":8081,"ëĵ¤ìĿ´":8082,"æŀģ":8083,"ĠMinistry":8084,"elligence":8085,"çĦ¶èĢĮ":8086,"èľ":8087,"room":8088,"æŁĵ":8089,"ë©´ìĦľ":8090,"Ġattacked":8091,"Ġbrothers":8092,"iat":8093,"æĭħå½ĵ":8094,"æĿĢ":8095,"63":8096,"ĠLittle":8097,"Ġroles":8098,"Ġyards":8099,"Ġconcert":8100,"orter":8101,"è¨¼":8102,"ĠAlbert":8103,"1995":8104,"Ġreports":8105,"Ġconflict":8106,"è¾º":8107,"íĹ":8108,"Ġtwenty":8109,"è¯ģ":8110,"ĠAndrew":8111,"Ġloan":8112,"Ġmotor":8113,"ì§ģ":8114,"æĬµ":8115,"ãģĭãģ¤":8116,"Ġtim":8117,"Ġmaterials":8118,"ĠIra":8119,"å¥³åŃĲ":8120,"¸Į":8121,"Ã¡n":8122,"Ġtwice":8123,"Ġfully":8124,"çĽ®ãģ®":8125,"å½ĵåĪĿ":8126,"Ġanalysis":8127,"Ġblue":8128,"ĠScottish":8129,"mad":8130,"ĠIran":8131,"Ġ32":8132,"Ġrecognized":8133,"Ġslight":8134,"Ġcontemporary":8135,"å¹´åº¦":8136,"Ġìŀĳ":8137,"Ġspons":8138,"åĪ¶åº¦":8139,"Ġvictim":8140,"ĠKar":8141,"nel":8142,"adelphia":8143,"ĠAnton":8144,"çĶŁçī©":8145,"ìĭ¤":8146,"èŃī":8147,"éģ¸æĮĻ":8148,"Ġinstrument":8149,"ashion":8150,"ĠDie":8151,"Ġfacility":8152,"Ġve":8153,"Ġentitled":8154,"ĠEmperor":8155,"Ġchalleng":8156,"Ġìµľ":8157,"Ġnecessary":8158,"æīĢä»¥":8159,"ãĥ©ãĤ¯":8160,"ĠNight":8161,"sex":8162,"ba":8163,"å¤§çļĦ":8164,"SP":8165,"èĤī":8166,"While":8167,"çį¨":8168,"èı²":8169,"ä¹ĺ":8170,"ãĤ¢ãĥ³":8171,"ĠAsh":8172,"Ġmom":8173,"åĪĿæľŁ":8174,"éĨ«":8175,"äººæ°ĳåħ±åĴĮ":8176,"ĠUnivers":8177,"æĺ¯åľ¨":8178,"Ġmountain":8179,"ĠCastle":8180,"ĠHong":8181,"Ġbird":8182,"Ġsn":8183,"Ġrapid":8184,"è¨İ":8185,"èŃ¦å¯Ł":8186,"ĠVictoria":8187,"Ġhorse":8188,"Ġplants":8189,"Ġpolitics":8190,"Ġimage":8191,"aug":8192,"Ġapplied":8193,"CD":8194,"bro":8195,"Ġsites":8196,"Ġadvert":8197,"ĠRay":8198,"ãģ®åĲį":8199,"ãĤ½ãĥ³":8200,"ervative":8201,"eller":8202,"Ġvon":8203,"éĽ»å½±":8204,"Ġclasses":8205,"iling":8206,"pass":8207,"Ġdistinct":8208,"åľį":8209,"ãĤµãĤ¤":8210,"èģ²":8211,"Ġhosted":8212,"ä¾ĭå¦Ĥ":8213,"ĠWild":8214,"Ġfunding":8215,"æĺĩ":8216,"ĠPen":8217,"All":8218,"å¸ķ":8219,"Ġfestival":8220,"ãĤ³ãĥ³":8221,"Ġunique":8222,"å¤§éĩı":8223,"çĢ":8224,"71":8225,"Ġchairman":8226,"Ġunable":8227,"Ġëħ¸":8228,"æ¯Ĵ":8229,"é¸":8230,"æĦıåĳ³":8231,"éĽ¨":8232,"çĶµå½±":8233,"å¤īæĽ´":8234,"íĮĮ":8235,"ples":8236,"Ġfans":8237,"å¾Ĳ":8238,"åĦĦ":8239,"Ġattempted":8240,"èºį":8241,"ĠBa":8242,"ĠDun":8243,"çľ¼":8244,"ãĥķãĥĪ":8245,"84":8246,"Ġaudience":8247,"Ġtower":8248,"hemat":8249,"encies":8250,"Ġdoctor":8251,"æīĢå±ŀ":8252,"Ġwild":8253,"Se":8254,"Ġaffili":8255,"ĠPolice":8256,"ãĤıãģĽ":8257,"Ġrisk":8258,"æ²ĥ":8259,"uate":8260,"Ġclubs":8261,"ãĤ¦ãĤ¹":8262,"ç»ĩ":8263,"èĲĬ":8264,"iced":8265,"ãĤ¯ãĥĪ":8266,"æĸ°èģŀ":8267,"antly":8268,"Ġexisting":8269,"Ġë§Ĳ":8270,"Ġmales":8271,"urer":8272,"æļĹ":8273,"ĠSummer":8274,"Ġ1961":8275,"water":8276,"heim":8277,"gn":8278,"Ex":8279,"ãĤ¢ãĥ«ãĥĲãĥł":8280,"åŃ¸éĻ¢":8281,"ä¼ģæ¥Ń":8282,"ĠChap":8283,"Ġcommander":8284,"ãĥ¼ãĥĵ":8285,"ç³»ç»Ł":8286,"Ġspot":8287,"ëĵ¤ìĿĢ":8288,"Ġyour":8289,"åĨ·":8290,"ez":8291,"å¹³åĿĩ":8292,"yes":8293,"Ġcorrespond":8294,"Col":8295,"åĩ¦":8296,"Ġcab":8297,"Ġurban":8298,"ĠMas":8299,"ãĤ·ãĥ³ãĤ°":8300,"Ġinspired":8301,"Ġcreating":8302,"osophy":8303,"Ġsides":8304,"æ¶¯":8305,"ĠUSA":8306,"Following":8307,"ker":8308,"achusetts":8309,"åľ°çĲĨ":8310,"Ġgives":8311,"82":8312,"Ġbill":8313,"è¯º":8314,"Ġconnected":8315,"Ġprovince":8316,"å¥ĳç´Ħ":8317,"Ġformation":8318,"Ġ1947":8319,"èĭ±åľĭ":8320,"ĠIllinois":8321,"å¼¾":8322,"ĠFle":8323,"Sp":8324,"åĲĪä½ľ":8325,"ĠOffic":8326,"åı¸ä»¤":8327,"å¯«":8328,"vin":8329,"æ»ħ":8330,"è©©":8331,"ĠConf":8332,"ĠOpen":8333,"81":8334,"1994":8335,"ĠëĶ°":8336,"ĠDet":8337,"ë²Ħ":8338,"ãģ¼":8339,"ëħ¸":8340,"Ġarms":8341,"Ġmorning":8342,"83":8343,"ĠìķĮ":8344,"å°º":8345,"æķĻä¼ļ":8346,"ĠÎ":8347,"Ġsecondary":8348,"--":8349,"IT":8350,"æĮĩæı®":8351,"Ġunion":8352,"ĠTay":8353,"èµ·ãģĵ":8354,"æľĢå¾Į":8355,"Ġlanguages":8356,"Ġbroke":8357,"Ġreject":8358,"load":8359,"æ¨ĵ":8360,"æŃ²":8361,"ĠBoy":8362,"æ©Łéĸ¢":8363,"íķĺê¸°":8364,"Ġoccasion":8365,"ê¶Į":8366,"è·¯ç·ļ":8367,"åĽ´":8368,"Ġmut":8369,"ĠQueens":8370,"Ġgovernor":8371,"Ġcontest":8372,"pan":8373,"ĠPrem":8374,"íĭ°":8375,"ĠTam":8376,"ĠHind":8377,"Ġstream":8378,"Ġaccident":8379,"é»Ĵ":8380,"inson":8381,"uer":8382,"Ġchosen":8383,"Ġattra":8384,"ì¼":8385,"åĽ²":8386,"74":8387,"ä¸Ńåįİ":8388,"Ġwinner":8389,"ãģ¨ãģ¨ãĤĤãģ«":8390,"çĤ®":8391,"Ġactor":8392,"ĠLew":8393,"ĠKen":8394,"bourne":8395,"onia":8396,"ãĤ¹ãĤ¯":8397,"Ġextend":8398,"Ġcarri":8399,"Ġscript":8400,"zy":8401,"Ġacres":8402,"rics":8403,"Ġprof":8404,"Ġ...":8405,"ë°Ķ":8406,"åı¬":8407,"æ¡¥":8408,"ĠArm":8409,"Ġstre":8410,"èĪ°":8411,"Other":8412,"æŀļ":8413,"ĠThree":8414,"çī¹ãģ«":8415,"æĸ¯çī¹":8416,"ĠVen":8417,"ĠWay":8418,"å²ģ":8419,"400":8420,"Ġmarked":8421,"ãģĵãģ¨ãģĭãĤī":8422,"ĠRel":8423,"Ġdigital":8424,"Ġvotes":8425,"Ġroof":8426,"Ġencoura":8427,"Ġanimals":8428,"ĠNaz":8429,"åĭĿåĪ©":8430,"ĠPhiladelphia":8431,"una":8432,"ĠBang":8433,"ä»ĸåľ¨":8434,"Since":8435,"Ġreviews":8436,"ĠJournal":8437,"ë¦°":8438,"åľ§":8439,"ãĥ¼ãĤ¿":8440,"Ġdoub":8441,"Ġgovern":8442,"Ġweight":8443,"åĽ½åĨħ":8444,"Ġrelatively":8445,"ãģ¨è¨Ģ":8446,"æµ¦":8447,"Ġdensity":8448,"Ġrespond":8449,"ãģŁãģł":8450,"Ġattempts":8451,"è¨´":8452,"ĠMassachusetts":8453,"ĠPress":8454,"åł´æīĢ":8455,"ĠToronto":8456,"Ġenemy":8457,"Ġconsec":8458,"Con":8459,"oty":8460,"Ġoccupied":8461,"ĠRegiment":8462,"ava":8463,"Ġopposed":8464,"Ġauthority":8465,"íķĺê²Į":8466,"uous":8467,"Ġpiece":8468,"ãģłãģĮ":8469,"92":8470,"ãĥ¼ãĥĭ":8471,"Ġfrequently":8472,"ĠSpecial":8473,"ci":8474,"Ġmixed":8475,"Ġdropped":8476,"çĶŁæ¶¯":8477,"ä¸¸":8478,"ç¤¾åĮº":8479,"ĠBell":8480,"çļĦå¤§":8481,"Ġfigures":8482,"è¡£":8483,"ĠëĦ":8484,"ruit":8485,"li":8486,"åĭ¤":8487,"ãĤĴå¾Ĺ":8488,"Ġroyal":8489,"ĠRaj":8490,"ĠAk":8491,"ĠLim":8492,"Ġìĭ¤":8493,"ĠAff":8494,"ĠJeff":8495,"Ġpit":8496,"ĠNetwork":8497,"Ġemployed":8498,"Ġrules":8499,"æĤª":8500,"ãģ®ãģ§":8501,"ãĢĭï¼Ī":8502,"ĠTime":8503,"rat":8504,"eding":8505,"ĠBrad":8506,"è£¡":8507,"åĬ¹":8508,"Ġprotection":8509,"Ġ1956":8510,"ãĤ¹ãĤ¿ãĥ¼":8511,"ĠHome":8512,"Ġfinish":8513,"è´¹":8514,"Ġcrim":8515,"erved":8516,"ì¸":8517,"Ġbillion":8518,"Ġtheatre":8519,"ï½ŀ":8520,"ulate":8521,"ĠRog":8522,"ãģ«ãģªãĤĬ":8523,"Ġmunicipality":8524,"tra":8525,"Ġnominated":8526,"Ġstars":8527,"é»İ":8528,"Ġsevent":8529,"ĠSanta":8530,"Ġearth":8531,"å±Ĥ":8532,"ãĥŀãĤ¤":8533,"Born":8534,"ãĤ¸ãĤ¢":8535,"akh":8536,"rin":8537,"ãĤĴãĤĤ":8538,"ĠBudd":8539,"Ġdistribution":8540,"rep":8541,"ãģ¨ãģį":8542,"ĠSher":8543,"ãģ»ãģ©":8544,"Ð¸":8545,"Ġmis":8546,"Ġmachine":8547,"é£¾":8548,"Ġ1958":8549,"æĶ»æĴĥ":8550,"real":8551,"aks":8552,"Ġmeasure":8553,"é¨İ":8554,"æ³ķå¾ĭ":8555,"ãĥ¼ãĥ«ãĥī":8556,"ĠCop":8557,"Ġpromotion":8558,"ç¿»":8559,"Ã¸":8560,"ĠRod":8561,"Ġ1959":8562,"ctors":8563,"èĩªåĪĨ":8564,"ĠíĮĮ":8565,"Ġaspect":8566,"ĠMaster":8567,"éłĵ":8568,"ĠIraq":8569,"ãĤıãĤĮãĤĭ":8570,"å®ĹæķĻ":8571,"Ġmemory":8572,"73":8573,"Ġscientific":8574,"Ġice":8575,"ç¤¾åįĢ":8576,"hedral":8577,"Ġactions":8578,"Ġsimply":8579,"Ġprovin":8580,"Ġenjoy":8581,"å¢ĵ":8582,"lab":8583,"ä»¥åīį":8584,"ographic":8585,"Ġsubsequent":8586,"aven":8587,"æĿľ":8588,"Ġvan":8589,"è®¾è®¡":8590,"ä¸»å¸Ń":8591,"illery":8592,"è¶³çĲĥ":8593,"Ġflood":8594,"Ġcommonly":8595,"eral":8596,"æģĲ":8597,"æİ§åĪ¶":8598,"ureau":8599,"Ġnarrow":8600,"ëĶĶ":8601,"Ġawards":8602,"å®¶ãģ®":8603,"Ġath":8604,"Ġtrains":8605,"ëł¹":8606,"å¤§åĪ©":8607,"ĠFair":8608,"ois":8609,"Ġexpansion":8610,"ji":8611,"Ġiron":8612,"ĠSports":8613,"åįļå£«":8614,"ãģĮãģĤãģ£ãģŁ":8615,"é«ĺæł¡":8616,"century":8617,"riz":8618,"è³Ģ":8619,"éĸĵãģ®":8620,"Ġrestaur":8621,"1993":8622,"ĠMov":8623,"Ġexchange":8624,"Ġsafety":8625,"Ġepisodes":8626,"åı¦å¤ĸ":8627,"Ġlect":8628,"Ġpublication":8629,"Ġpartner":8630,"ilton":8631,"Ġmind":8632,"1992":8633,"Ġapproved":8634,"æĭł":8635,"imal":8636,"ĠPop":8637,"Ġguns":8638,"Ġec":8639,"Ġachieved":8640,"Ġmethods":8641,"Ġperforming":8642,"ĠTenn":8643,"ĠCommon":8644,"ãģĻãĤĭãģĵãģ¨ãģĮ":8645,"Ġversions":8646,"kee":8647,"éģ£":8648,"Ġadvanced":8649,"Ġwinter":8650,"ĠIndepend":8651,"PC":8652,"Ġly":8653,"Ġíİ":8654,"Ġsense":8655,"Ġtemple":8656,"Ġheadquarters":8657,"Ġportion":8658,"ĠFox":8659,"æĶ¯æı´":8660,"kes":8661,"ĠBatt":8662,"èķ":8663,"ãĥīãĥ«":8664,"Ġillust":8665,"Description":8666,"ĠRh":8667,"ologist":8668,"ĠNations":8669,"inate":8670,"while":8671,"Ġassociation":8672,"æ§ĭæĪĲ":8673,"éĢļè¿ĩ":8674,"ĠCommun":8675,"ĠGirl":8676,"é¡į":8677,"éĢłæĪĲ":8678,"éº»":8679,"ãĥ¼ãĤ¹ãĥĪ":8680,"Ġsilver":8681,"åľŁåľ°":8682,"sey":8683,"åĵ²":8684,"æĸĹ":8685,"åı°çģ£":8686,"¤Ģ":8687,"osis":8688,"Ġê¹":8689,"93":8690,"Ġ1957":8691,"1960":8692,"Ġdog":8693,"bec":8694,"ĠEs":8695,"Ġfair":8696,"Ġarts":8697,"Ġhabit":8698,"Ã©e":8699,"Ġbegin":8700,"ĠAth":8701,"96":8702,"Ġmatter":8703,"ĨĴ":8704,"Ġshortly":8705,"ãģĭãĤīãģ¯":8706,"ĠElect":8707,"Ġeconomy":8708,"omer":8709,"Ġonto":8710,"åĢī":8711,"Ġmagn":8712,"Ġëªħ":8713,"çĽ®åīį":8714,"Ġbackground":8715,"itors":8716,"Ġcompon":8717,"iary":8718,"ç¤¾æľĥ":8719,"udget":8720,"iques":8721,"uls":8722,"Ġtitles":8723,"ĠEp":8724,"ĠMir":8725,"Ġextensive":8726,"Ġserves":8727,"å¯§":8728,"è²Ŀ":8729,"fully":8730,"è²·":8731,"ãģ¨ãģĹãģ¦ãģ®":8732,"çĥı":8733,"Ġresources":8734,"SS":8735,"Ġtheme":8736,"ĠGame":8737,"èĩªæ²»":8738,"omot":8739,"å¾³":8740,"Ġcancer":8741,"ĠPoland":8742,"Ġtrees":8743,"Ġapparent":8744,"Ġreceiving":8745,"ç¹ģ":8746,"ĠColon":8747,"ĠFI":8748,"ĠBab":8749,"Ġsoftware":8750,"ãģ¨åħ±ãģ«":8751,"Ġbul":8752,"Ġsought":8753,"Ġtree":8754,"é§Ĳ":8755,"ĠProject":8756,"Ġìŀ¬":8757,"ĠJoe":8758,"åĽ°":8759,"Ġsle":8760,"Ġeffective":8761,"ãĥªãĤ¹ãĥĪ":8762,"Ġrural":8763,"Ġneeds":8764,"oren":8765,"ìĹĲìĦľëĬĶ":8766,"Ġfought":8767,"íķ©":8768,"ĠIslands":8769,"Ġbasketball":8770,"aret":8771,"ĠìĤ¬ìļ©":8772,"Ġcho":8773,"åİŁåĽł":8774,"rip":8775,"Ġfinds":8776,"ãĤĪãģĨãģ«ãģªãģ£ãģŁ":8777,"ructure":8778,"éłĲ":8779,"plies":8780,"Ġprepar":8781,"çĴ°å¢ĥ":8782,"Ġrob":8783,"uled":8784,"Ġresc":8785,"å·¥æ¥Ń":8786,"igen":8787,"ĠArgent":8788,"AM":8789,"een":8790,"ãĥĩãĥĵãĥ¥ãĥ¼":8791,"97":8792,"Ġmicro":8793,"ĠBand":8794,"è¨ĵ":8795,"Ġwrite":8796,"åįģäºĮ":8797,"ĠAnt":8798,"Ġ1949":8799,"æ´ª":8800,"ãĤ¢ãĥĭ":8801,"è¦ıæ¨¡":8802,"æŀľãģŁ":8803,"Ġwalls":8804,"phas":8805,"åħĥå¹´":8806,"æĨ²":8807,"uns":8808,"ĠDam":8809,"åĲĮæ§ĺ":8810,"å¹¸":8811,"æķħäºĭ":8812,"Ġtal":8813,"rowd":8814,"ova":8815,"Ġdescend":8816,"æ®ĸ":8817,"ĠÅ":8818,"çİ©":8819,"ãĤĩ":8820,"ãĤıãĤĬ":8821,"ĠEconom":8822,"Ġdaily":8823,"Ġdoing":8824,"iant":8825,"Ġë¶Ħ":8826,"ĠCommand":8827,"Ġfish":8828,"met":8829,"ç¨ĭåº¦":8830,"ãĤīãģļ":8831,"aly":8832,"Ġprincipal":8833,"IN":8834,"å¤ªå¹³":8835,"ĠWilson":8836,"Ġsport":8837,"åĥħ":8838,"ĠKorea":8839,"Ġcontributed":8840,"èĸ¬":8841,"Ġcommissioned":8842,"ãĥĩãĥ«":8843,"rum":8844,"asty":8845,"ifically":8846,"ouri":8847,"Ġpair":8848,"Ġ300":8849,"Ġlands":8850,"Man":8851,"bi":8852,"Ġíķ¨":8853,"è§£æĶ¾":8854,"ĠEnd":8855,"ĠDer":8856,"åĦĢ":8857,".âĢĿ":8858,"Ġvent":8859,"Ġrear":8860,"ì½Ķ":8861,"åĨľ":8862,"OR":8863,"ãĤ¸ãĤª":8864,"Ġcombat":8865,"1991":8866,"ĠNether":8867,"Mar":8868,"è¡Įåĭķ":8869,"ĠLady":8870,"Ġbey":8871,"ĠAirport":8872,"æİ¥åıĹ":8873,"ĠIndust":8874,"íĺĦ":8875,"ĠBusiness":8876,"ĠìĿ´íĽĦ":8877,"ĠëĳĲ":8878,"ĠRoute":8879,"åĳ½åĲį":8880,"itter":8881,"Ġstraight":8882,"Ġpowerful":8883,"rations":8884,"ï¼Ł":8885,"èĩªå·±çļĦ":8886,"ĠHuman":8887,"Ġsand":8888,"Ġelement":8889,"Ġetc":8890,"è»įãģ®":8891,"éĻµ":8892,"ĠPakistan":8893,"Ġtry":8894,"achelor":8895,"igration":8896,"ĠAtlantic":8897,"ĠAbb":8898,"Ġrein":8899,"ĠDa":8900,"ĠForest":8901,"da":8902,"Ġregions":8903,"åģĩ":8904,"Ġ1955":8905,"iny":8906,"ropri":8907,"ĠEach":8908,"æĹ¶éĹ´":8909,"æµ·æĭĶé«ĺåº¦":8910,"Ġavoid":8911,"ãĤ¹ãĤ³":8912,"Ġíķľëĭ¤":8913,"Ġ1918":8914,"ìĦ¤":8915,"åĩł":8916,"ĠCult":8917,"èĢħãģĮ":8918,"Ġdial":8919,"ĠTechnology":8920,"TC":8921,"ricket":8922,"Ġthir":8923,"çĥŃ":8924,"urance":8925,"Ġnegoti":8926,"ternal":8927,"ivals":8928,"ĠMun":8929,"itzer":8930,"æĸ¹åĲĳ":8931,"ä¸ĢçĽ´":8932,"arp":8933,"Ġhero":8934,"Ġfunds":8935,"æŃ©":8936,"Ġbeyond":8937,"Ġinvited":8938,"ãģĭãģĳãģ¦":8939,"ĠPers":8940,"ĠOk":8941,"è´¥":8942,"ãĥ³ãĥĩãĤ£":8943,"ãĤ¸ãĥ¥":8944,"Ġreference":8945,"Ġwealth":8946,"amin":8947,"ĠBir":8948,"ä¸»æķĻ":8949,"éĢĻåĢĭ":8950,"íĴ":8951,"èĶµ":8952,"Ġguest":8953,"æ§ĭéĢł":8954,"Ġdeliver":8955,"Ġbow":8956,"Ġlearning":8957,"Ġalleged":8958,"TA":8959,"Ġherself":8960,"ãģªãģ©ãĤĴ":8961,"ĠCommunity":8962,"å¦¹":8963,"å®¶åºŃ":8964,"è¿Ļä¸ª":8965,"Ġpermanent":8966,"Ġtrust":8967,"Ġsimple":8968,"ĠHay":8969,"HL":8970,"Ġretirement":8971,"uilt":8972,"Ġbott":8973,"ãĤĴè¡ĮãģĨ":8974,"å£ģ":8975,"éĽ»è¦ĸ":8976,"Ġfaced":8977,"ĠLight":8978,"Ġadapt":8979,"åħ¬åľĴ":8980,"Ġsets":8981,"ï¼ļãĢĮ":8982,"ãĥ¼ãģĮ":8983,"Ġmunicipal":8984,"position":8985,"mouth":8986,"Ġ1954":8987,"Ġends":8988,"åļ":8989,"ĠHan":8990,"åŃ¸æł¡":8991,"uccess":8992,"Ġê°Ļ":8993,"Ġfocused":8994,"Ġexclus":8995,"íĥľ":8996,"é£Ľè¡Į":8997,"éĢĻäºĽ":8998,"ç¬¬äºĮæ¬¡":8999,"ÅĤ":9000,"íķĻêµĲ":9001,"è¿ĻäºĽ":9002,"å¾ĹåĪ°":9003,"Ġsubs":9004,"ëĳĲ":9005,"Ġcastle":9006,"ĠJews":9007,"ãĥģãĤ§":9008,"Ġportray":9009,"èĥľ":9010,"ãģªãĤĬ":9011,"å¹¹":9012,"Ġgraph":9013,"ĠAmericans":9014,"çī§":9015,"bell":9016,"Ġadvant":9017,"åį°åº¦":9018,"å½Ī":9019,"Ġsuccessfully":9020,"ĠGen":9021,"ìłĲ":9022,"lywood":9023,"ãģ¾ãģ§ãģ®":9024,"åĩºçĶŁ":9025,"Ġgirls":9026,"Ġsetting":9027,"é³¥":9028,"Ġglobal":9029,"ìķĺëĭ¤":9030,"DA":9031,"ĠDar":9032,"è«ĩ":9033,"Ġconverted":9034,"Ġadvance":9035,"long":9036,"uct":9037,"Ġven":9038,"Ġincident":9039,"å¤ļæķ°":9040,"Ġ1952":9041,"çĶµè§Ĩ":9042,"Ġranked":9043,"ĠInst":9044,"åıĬãģ³":9045,"91":9046,"ëŀĮ":9047,"ãĢĤãĢĮ":9048,"orney":9049,"æ¼Ķåĩº":9050,"94":9051,"ĠSquad":9052,"Ġholds":9053,"Ġproved":9054,"ä¿ĿèŃ·":9055,"ï¼ļâĢľ":9056,"Ġshared":9057,"æµľ":9058,"ĠSus":9059,"Is":9060,"Ġbelieve":9061,"Ġultimately":9062,"Ġconvers":9063,"Ġconstitu":9064,"æ¤įçī©":9065,"Ġescape":9066,"ãĤĴæĮģãģ¤":9067,"Ġabandoned":9068,"ĠTa":9069,"Ġfounder":9070,"ãĤ·ãĤ¹ãĥĨ":9071,"organ":9072,"å§Ķåĳĺä¼ļ":9073,"Ġ1953":9074,"Ġdeploy":9075,"ĠEarl":9076,"æ³ķåľĭ":9077,"ĠCub":9078,"æ²¢":9079,"Ġspeech":9080,"ĠOlympics":9081,"ĠPo":9082,"è¥¿éĥ¨":9083,"ĠLes":9084,"åıĳçİ°":9085,"idge":9086,"Ġconsult":9087,"Ġglass":9088,"cow":9089,"Ġspect":9090,"Ġagent":9091,"Ġhired":9092,"ĠAut":9093,"ãģ¨åĳ¼ãģ°ãĤĮãĤĭ":9094,"Ġdefin":9095,"æ³ķåĽ½":9096,"erick":9097,"Ġvehicles":9098,"çĩĥ":9099,"enna":9100,"ĠKir":9101,"Ġfuel":9102,"lyn":9103,"é¡¿":9104,"Ġsector":9105,"æĭľ":9106,"Ġletters":9107,"Ġdeveloping":9108,"ighth":9109,"çŃĨ":9110,"ĠìĦ¤":9111,"oured":9112,"ading":9113,"Ġcompeted":9114,"urches":9115,"1950":9116,"æĭĴ":9117,"ĠZh":9118,"rect":9119,"Ġdesignated":9120,"Ġarchitecture":9121,"Ġways":9122,"Ġcode":9123,"å¸ĮæľĽ":9124,"ĠGer":9125,"çĭĢ":9126,"ç»ıæµİ":9127,"Ġreally":9128,"åŁ¹":9129,"Ġcontrast":9130,"è³¼":9131,"æĬĺ":9132,"æ¯İ":9133,"å°Ĭ":9134,"And":9135,"ãĤ¹ãĥĿ":9136,"éłĪ":9137,"´ĳ":9138,"çĻ¼çı¾":9139,"æŀĲ":9140,"aming":9141,"ä¸Ńãģ«":9142,"ucky":9143,"uation":9144,"ë¦Ħ":9145,"inder":9146,"Ġdrive":9147,"Ġunknown":9148,"åĬ´":9149,"under":9150,"ãĤ·ãĤ¹ãĥĨãĥł":9151,"anger":9152,"ĠBeach":9153,"å·»":9154,"pool":9155,"Ġcert":9156,"1989":9157,"Ġargued":9158,"Ġpieces":9159,"aded":9160,"ĠMedia":9161,"Ġinstitutions":9162,"180":9163,"ĠãĢĬ":9164,"ears":9165,"Ġ1938":9166,"ĠHighway":9167,"Ġrot":9168,"oes":9169,"olis":9170,"åĩºæĿ¥":9171,"ãĥ³ãĤĴ":9172,"Ġfields":9173,"Ġinvestigation":9174,"ä»²":9175,"ĠRom":9176,"åıªæľī":9177,"ĠPower":9178,"ĠAh":9179,"å§Ķåĵ¡æľĥ":9180,"ä¾¯":9181,"Ġcrime":9182,"Am":9183,"ĠMarsh":9184,"ç¶ĵæ¿Ł":9185,"Ġhotel":9186,"æ¶²":9187,"å¾Įä¾Ĩ":9188,"æºª":9189,"Ġ44":9190,"Don":9191,"ĠOb":9192,"ĠìĺĪ":9193,"Ġattrib":9194,"ĠOrgan":9195,"åĲİæĿ¥":9196,"ĠSab":9197,"Ind":9198,"otic":9199,"éĸĵãģ«":9200,"Ġì°¨":9201,"Ġdecre":9202,"Ġnormal":9203,"Ġprem":9204,"Ġtrying":9205,"èĭ¦":9206,"é¡¯":9207,"Ġconstitution":9208,"çĻºçĶŁ":9209,"ĠCirc":9210,"Ġ150":9211,"éĻ¤äºĨ":9212,"kg":9213,"ä»ĺãģĳ":9214,"é¡ĺ":9215,"oln":9216,"Ġinfluenced":9217,"ëŀĳ":9218,"Ġtrav":9219,"æķ¦":9220,"Although":9221,"Ġapplication":9222,"æĪ»":9223,"Ġëĭ¨":9224,"ĠMaria":9225,"ãĥĲãĥ¼":9226,"Ġcopies":9227,"rade":9228,"ĠInt":9229,"Ġplanning":9230,"lain":9231,"Ġdefense":9232,"elve":9233,"ëħĦìĹĲ":9234,"osa":9235,"é±":9236,"ĠBase":9237,"Ġdistingu":9238,"ãĥĪãĥª":9239,"ĠLt":9240,"å¯Ĩåº¦":9241,"åĢŁ":9242,"Ġsomeone":9243,"Ġentrance":9244,"Ġcenturies":9245,"ä¸»ä»»":9246,"Ġcritics":9247,"Ġengineering":9248,"fe":9249,"Ġheight":9250,"ĠTal":9251,"Ðµ":9252,"Ġtable":9253,"illing":9254,"ç¿°":9255,"Ġemphas":9256,"ĠAdminist":9257,"è»Į":9258,"å½±åĵį":9259,"Ġfounding":9260,"Ġgall":9261,"ĠNetherlands":9262,"Ġdipl":9263,"å¼¹":9264,"Ġcalls":9265,"ä¸ĸçºª":9266,"çļĨ":9267,"appe":9268,"ì¡±":9269,"Ġrecognition":9270,"Ġweapons":9271,"ĠìķĪ":9272,"Ġcart":9273,"ä»Ļ":9274,"iments":9275,"Ġbra":9276,"ĠMedical":9277,"Ġvirt":9278,"gian":9279,"prise":9280,"tario":9281,"éĬĢè¡Į":9282,"åľ°ä¸ĭ":9283,"æµĭ":9284,"Ġeducated":9285,"æŃ¤å¤ĸ":9286,"Ġpartnership":9287,"cluding":9288,"Ġdrama":9289,"è·Ł":9290,"pet":9291,"rete":9292,"ori":9293,"æ°ĳåĽ½":9294,"ĠTaylor":9295,"ĠBol":9296,"Will":9297,"ĠRA":9298,"è¯Ŀ":9299,"å¢ŀåĬł":9300,"Ġfleet":9301,"Ġwatch":9302,"ä½ľçĶ¨":9303,"ĠHun":9304,"èĳĹåĲį":9305,"åĶ¯ä¸Ģ":9306,"èģļ":9307,"æĺ¾":9308,"åĩºçı¾":9309,"ĠMike":9310,"ĠVi":9311,"íķ¨":9312,"Ġcorner":9313,"olitan":9314,"omew":9315,"Ġtoward":9316,"Ġexhibition":9317,"umes":9318,"ä½ł":9319,"Ġoldest":9320,"ãĥ«ãĤ¯":9321,"Ġreasons":9322,"yard":9323,"ãĤĴåĲ«":9324,"anning":9325,"ìľ¼ëĤĺ":9326,"æĹĭ":9327,"Ġchampion":9328,"Ġ1951":9329,"Ġpilot":9330,"Ġscenes":9331,"iti":9332,"ĠMP":9333,"Ġpatients":9334,"ãģ«å¯¾ãģĻãĤĭ":9335,"Ġending":9336,"éı":9337,"æĻĤãģ«":9338,"Ġfer":9339,"åľ°çĲĥ":9340,"ãģŀãĤĮ":9341,"Ġengaged":9342,"ç»Ħç»ĩ":9343,"weight":9344,"Ġ36":9345,"Ġbass":9346,"oly":9347,"mes":9348,"ãģ¾ãģ¾":9349,"ĠTurk":9350,"life":9351,"æ½®":9352,"ĠNic":9353,"Ġopportunity":9354,"Ġconsisted":9355,"Ġarticles":9356,"ĠHal":9357,"è¿ĲåĬ¨":9358,"ãģĿãĤĮãģŀãĤĮ":9359,"èª¿æŁ»":9360,"OM":9361,"æľĿé®®":9362,"ãģĵãģĨ":9363,"å¼±":9364,"ĠDown":9365,"æĪ·":9366,"Ġexpressed":9367,"æĲį":9368,"Ġholding":9369,"bar":9370,"äº«":9371,"ä¸ĸçķĮå¤§":9372,"Ġ1919":9373,"è²©å£²":9374,"Ġmerch":9375,"ĠPrize":9376,"Ġoffices":9377,"text":9378,"çģ½":9379,"åħ·æľī":9380,"åĪĨå¸ĥ":9381,"Ġfailure":9382,"Ġviolence":9383,"Ġvoc":9384,"ãĥĥãĥĳ":9385,"è¾ŀ":9386,"ĠBecause":9387,"äºĳ":9388,"ĠAmong":9389,"åįļçī©":9390,"Ġ64":9391,"èĢ³":9392,"Ġappoint":9393,"èĢħãģ¯":9394,"Ġbasic":9395,"risis":9396,"Ġhistoric":9397,"Ġplot":9398,"ìĬ¹":9399,"iform":9400,"Ġdetermined":9401,"ä»»ä½ķ":9402,"elle":9403,"è¡Ĺéģĵ":9404,"eman":9405,"Ġopin":9406,"è»įäºĭ":9407,"ãģĻãģ¹":9408,"ĠMountain":9409,"ìĭ¬":9410,"Ġrise":9411,"Ġstructures":9412,"Ġdocumentary":9413,"Ġ1936":9414,"Ġdescript":9415,"Ġë¡":9416,"Ġbor":9417,"Ġsust":9418,"åĿ¡":9419,"ä»¥æĿ¥":9420,"ãĤĴæŀľãģŁ":9421,"Ġheard":9422,"ãģ§ãģ¯ãģªãģı":9423,"gest":9424,"ĠíĹ":9425,"Ġcarry":9426,"Ġidentity":9427,"éŃı":9428,"åıĥåĬł":9429,"Ġvehicle":9430,"Ġ33":9431,"ronze":9432,"éļĶ":9433,"è¯·":9434,"Ġviews":9435,"stream":9436,"ĠMarg":9437,"é«ĺéĢŁ":9438,"çŃĶ":9439,"Ġneighborhood":9440,"ĠBureau":9441,"yo":9442,"ĠSunday":9443,"åĿĳ":9444,"è²łè²¬":9445,"Ġideas":9446,"king":9447,"haps":9448,"æŃ»äº¡":9449,"clos":9450,"éĸī":9451,"Ġlaid":9452,"Ġinhabit":9453,"ĠBrother":9454,"anna":9455,"Ġë¦":9456,"ä¹Į":9457,"æĤ£":9458,"olished":9459,"æľīéĻĲ":9460,"Ġrequest":9461,"ĠHu":9462,"çĬ¶æħĭ":9463,"å¨ĺ":9464,"after":9465,"ĠRac":9466,"ĠNap":9467,"friend":9468,"éĳ":9469,"æĶ¹éĿ©":9470,"åīįãģ«":9471,"ê±´":9472,"Ġsamp":9473,"Ġheavily":9474,"ĠPremier":9475,"Ġring":9476,"ii":9477,"Ġvillages":9478,"Ġguard":9479,"è¾Ľ":9480,"orph":9481,"Ġtowns":9482,"Ġsac":9483,"æī¾":9484,"Ġaid":9485,"ĠJon":9486,"ĠAlf":9487,"Ġrival":9488,"ãĥ´ãĤ§":9489,"ĠBat":9490,"urd":9491,"éŁ³ä¹Ĳ":9492,"ãģ§ãģ¯ãģªãģĦ":9493,"imens":9494,"åĩºçİ°":9495,"ĠWalk":9496,"åĥ¹":9497,"zh":9498,"ãĤµãĥ¼":9499,"ĠDavis":9500,"è¿ľ":9501,"å®ģ":9502,"Ġgod":9503,"ä»·":9504,"ãĢĤâĢĿ":9505,"Ġnob":9506,"Ġpul":9507,"ĠFire":9508,"Ġ1937":9509,"éł¼":9510,"èĮ¶":9511,"Ġdomestic":9512,"ĠTrust":9513,"iner":9514,"Ġseats":9515,"íĮĲ":9516,"Ġload":9517,"éį":9518,"outheast":9519,"è´Łè´£":9520,"éŁ³æ¨Ĥ":9521,"ĠWeek":9522,"ãĤ°ãĥ«ãĥ¼ãĥĹ":9523,"Ġstating":9524,"ricts":9525,"Ġpoll":9526,"å»ºçŃĳ":9527,"Ġorders":9528,"éĸ£":9529,"ĠSever":9530,"fl":9531,"ĠSu":9532,"ĠBaron":9533,"je":9534,"äºĭåĭĻ":9535,"ĠMic":9536,"ĠCambridge":9537,"Ġnotes":9538,"Ġauth":9539,"çļĦæĺ¯":9540,"Ġregarding":9541,"Ġimportance":9542,"å§ĵ":9543,"Ġgar":9544,"ê¸Ī":9545,"ĠAtt":9546,"Ġextrem":9547,"èŃ°ä¼ļ":9548,"1988":9549,"Ġtechnical":9550,"Ġconnection":9551,"restling":9552,"æ»¡":9553,"è®¡åĪĴ":9554,"éºĹ":9555,"iversary":9556,"èªŃ":9557,"ĠOntario":9558,"SR":9559,"Ġdetect":9560,"æĮī":9561,"åĨ¬":9562,"Ġdecades":9563,"æľŁéĹ´":9564,"Ġslightly":9565,"Ġsuppor":9566,"ä¸ĺ":9567,"å¶":9568,"Education":9569,"bra":9570,"Ġaccompan":9571,"Ġsteel":9572,"è±Ĭ":9573,"Ġincorporated":9574,"ä»ħ":9575,"Ġdecor":9576,"ë¡ł":9577,"ä¸įèĥ½":9578,"Ġsupporting":9579,"é¦ĸæ¬¡":9580,"æ»¿":9581,"Ġfollows":9582,"ç©Ĩ":9583,"ç®Ģ":9584,"ipe":9585,"å®Ļ":9586,"ĠëĲĺìĹĪëĭ¤":9587,"ãĢľ":9588,"Ġinstalled":9589,"è´Ŀ":9590,"å¾Įãģ¯":9591,"Ġswe":9592,"éģ¸æīĭæ¨©":9593,"å½ĵæĻĤãģ®":9594,"ĠStadium":9595,"ãĢī":9596,"Ġrang":9597,"hat":9598,"ãĢĪ":9599,"Ġexperien":9600,"çµĲå©ļ":9601,"cell":9602,"Ġexped":9603,"Ġcas":9604,"Ġwarn":9605,"Ġdress":9606,"æŁĲ":9607,"ĠSerb":9608,"Ġnuclear":9609,"è±ª":9610,"Ġformal":9611,"Ġ1917":9612,"ãģĵãģ¨ãģ§":9613,"æĸĩåŃĹ":9614,"Ġreligion":9615,"Ġpassing":9616,"600":9617,"Ġestablishment":9618,"Ġx":9619,"ĠMemorial":9620,"ĠBad":9621,"æĵģ":9622,"ĠíĬ¹":9623,"ĠFord":9624,"Ġmaintained":9625,"ĠKel":9626,"igation":9627,"åı¦ä¸Ģ":9628,"Ġresigned":9629,"Ġrough":9630,"Ġpowers":9631,"çĶ·æĢ§":9632,"ecutive":9633,"Ġpup":9634,"ĠGree":9635,"Ġrain":9636,"Ġvolunte":9637,"gment":9638,"Ġoppon":9639,"ami":9640,"Ġstrength":9641,"Ġhot":9642,"åĬª":9643,"Ġmaximum":9644,"ä¹ĭåīį":9645,"Ġharm":9646,"çµĤäºĨ":9647,"ĠìļĶ":9648,"Ġalbums":9649,"ä¼¸":9650,"ĠArthur":9651,"éļĽãģ«":9652,"Ġnort":9653,"ä¸»ä¹ī":9654,"Ġshape":9655,"Ġquite":9656,"Ġliterary":9657,"åĬĽãĤĴ":9658,"çı¾ä»£":9659,"ĠAlb":9660,"æĪ¶":9661,"å»ł":9662,"ãĥĮ":9663,"ç¬¬ä¸Ģæ¬¡":9664,"Ġprice":9665,"ĠKer":9666,"Ġlies":9667,"ĠWars":9668,"ĠSwedish":9669,"åħĲ":9670,"ĠTok":9671,"ì¦Ī":9672,"æ´»èºį":9673,"è²¢":9674,"ãĥ³ãĥĳ":9675,"Ġwor":9676,"Ġindependence":9677,"ĠMoscow":9678,"åĿĤ":9679,"ĠBla":9680,"Ġimprove":9681,"æĹ¶æľŁ":9682,"ns":9683,"wise":9684,"å£Ĭ":9685,"ĠFrancis":9686,"Ġcompar":9687,"æĸ½è¨Ń":9688,"ãĥŃãĤ·ãĤ¢":9689,"Ġoccurs":9690,"Ġcontained":9691,"Ġacts":9692,"aki":9693,"ĠSweden":9694,"åľ°çļĦ":9695,"Ġinstitution":9696,"Ġenvironmental":9697,"Ãº":9698,"aved":9699,"ç§°ä¸º":9700,"å±¬æĸ¼":9701,"å¦Ĥæŀľ":9702,"ĠSpring":9703,"ĠWat":9704,"Ġì¦":9705,"ĠStand":9706,"iel":9707,"æ¥Ĭ":9708,"ãĤīãĤĮãģ¦":9709,"ĠWel":9710,"ĠChris":9711,"å¹´äººåı£":9712,"ĠHoly":9713,"ãģ«ãģ¤ãģĦãģ¦ãģ¯":9714,"Ġfinishing":9715,"pot":9716,"ª½":9717,"Ġdefined":9718,"æĢģ":9719,"Ġpaintings":9720,"Ġreign":9721,"éĺ»":9722,"ĠHart":9723,"ç¡®":9724,"Ġ1914":9725,"è¿·":9726,"æĽ¹":9727,"ìŀħ":9728,"ĠPope":9729,"Ġgeneration":9730,"Ġsale":9731,"Ġpromote":9732,"Ġcru":9733,"åį»":9734,"ìĦĿ":9735,"uties":9736,"Ġproducing":9737,"å±ŀäºİ":9738,"Ġhomes":9739,"è§Ĵèī²":9740,"Ġjudge":9741,"æ´ŀ":9742,"place":9743,"come":9744,"ĠFree":9745,"incoln":9746,"Ġtrained":9747,"Ġvocal":9748,"ĠSom":9749,"ç¨±çĤº":9750,"pur":9751,"ç´¹":9752,"Ġobserved":9753,"Ġcomedy":9754,"ĠLabor":9755,"ĠStudies":9756,"Ġinternal":9757,"éĥ½æĺ¯":9758,"ĠOlympic":9759,"Ġlocations":9760,"ĠKhan":9761,"Ġstarts":9762,"ĠStephen":9763,"ĠJoh":9764,"onym":9765,"oto":9766,"ante":9767,"icy":9768,"acter":9769,"throp":9770,"èĦļ":9771,"apore":9772,"ĠDaniel":9773,"lines":9774,"tered":9775,"ushed":9776,"ãĤĵãģ©":9777,"Ġox":9778,"Ġyellow":9779,"ĠMilitary":9780,"Ġcrowd":9781,"Ġaged":9782,"Ġdoor":9783,"ĠConstitution":9784,"Ġexistence":9785,"Ġinstall":9786,"Ġdrink":9787,"Ġcausing":9788,"å±Ĩ":9789,"è®Ģ":9790,"æ¸¸æĪı":9791,"éĻĦè¿ĳ":9792,"utation":9793,"Ġsituated":9794,"ç¬¦":9795,"éľį":9796,"ä¸įæĺ¯":9797,"Ġclimate":9798,"nds":9799,"ãĥ¼ãĥĢ":9800,"actions":9801,"ĠColor":9802,"èĳ¬":9803,"Com":9804,"Ġëıħ":9805,"é¹¿":9806,"ä¹¾":9807,"ì¶ľ":9808,"ãĢįãĢģãĢĮ":9809,"abil":9810,"å½©":9811,"Ġroll":9812,"rog":9813,"ãĥĭãĥ¼":9814,"ĠRoss":9815,"Ġphase":9816,"æŁı":9817,"è½½":9818,"enz":9819,"ãģķãģĽãĤĭ":9820,"asy":9821,"Ġimpr":9822,"ãģ«éĸ¢ãģĻãĤĭ":9823,"Ġë§İ":9824,"åĪĿãĤģãģ¦":9825,"ĠThen":9826,"ĠDVD":9827,"ãģ¨ãģĵãĤį":9828,"ãĥ¼ãĥ¬":9829,"ĠCas":9830,"Ġfavour":9831,"Ġreflect":9832,"å·²ç»ı":9833,"æĪ¦ãģ§":9834,"ĠSav":9835,"Ġstrike":9836,"Ġbands":9837,"ãĤ¹ãģ¯":9838,"arry":9839,"Ġprogramme":9840,"å·²ç¶ĵ":9841,"\"),":9842,"ĠBalt":9843,"ãģĿãģĵ":9844,"Some":9845,"erts":9846,"uration":9847,"ä¹ł":9848,"Ġuncle":9849,"Ġfoundation":9850,"åĨħãģ®":9851,"Ġfashion":9852,"ocation":9853,"æľĢåĲİ":9854,"æĿ¯":9855,"ĠMinn":9856,"ãĥ¼ãĥĳ":9857,"Ġbehavior":9858,"ãģ¨ãģĦãģ£ãģŁ":9859,"Ġpolitician":9860,"Ġê·¸ëĬĶ":9861,"ĠChannel":9862,"duct":9863,"Ġaccused":9864,"rees":9865,"Ġfactory":9866,"åĭķçī©":9867,"å§¿":9868,"ãģ¾ãģ£ãģŁ":9869,"Ġlegend":9870,"éĢĨ":9871,"è¼¯":9872,"ĠTest":9873,"po":9874,"å¤§èĩ£":9875,"Ġ400":9876,"Ġbelief":9877,"IV":9878,"é¢Ħ":9879,"Ġairport":9880,"ĠPoint":9881,"ĠLewis":9882,"æ´»åĬ¨":9883,"iful":9884,"Ġ1935":9885,"Ġdidn":9886,"zech":9887,"éĽĳ":9888,"isms":9889,"ĠManchester":9890,"èĪŀåı°":9891,"ìĪł":9892,"å¹´ãģ¯":9893,"itionally":9894,"ĠUN":9895,"Ġentry":9896,"è¡¨çı¾":9897,"sis":9898,"è¯»":9899,"ĠTai":9900,"ader":9901,"ãĥ¼ãĤ·ãĥ§ãĥ³":9902,"equ":9903,"åŃ¦èĢħ":9904,"1945":9905,"æĹ¢":9906,"ĠChristmas":9907,"ĠDor":9908,"Ġemployees":9909,"Ġalternative":9910,"1985":9911,"Ġille":9912,"Ġhour":9913,"Ġkilometres":9914,"million":9915,"Ġsubstant":9916,"æľĪãģ®":9917,"outs":9918,"Ġchoice":9919,"ä¸Ńãģ®":9920,"isf":9921,"Ġ1900":9922,"agan":9923,"Ġhun":9924,"åĢĭäºº":9925,"Ġseems":9926,"Ġinterests":9927,"éĩįæĸ°":9928,"father":9929,"Ġboat":9930,"icide":9931,"Ġ1933":9932,"å®«":9933,"çĶŁçĶ£":9934,"æĪ¦ãģĦ":9935,"èĥĮæĻ¯":9936,"Ġsixth":9937,"ãģ£ãģ¦ãģĬãĤĬ":9938,"è£Ĥ":9939,"ãĤĴçµĲ":9940,"è¾ĳ":9941,"åİļ":9942,"Ġfresh":9943,"Ġwitness":9944,"Ġceremony":9945,"æİĽ":9946,"wich":9947,"Ġëį°":9948,"å¤§ãģįãģª":9949,"ìķ½":9950,"Ġeducational":9951,"æĮĳ":9952,"Ġcalc":9953,"usal":9954,"Ġinvasion":9955,"Ġexerc":9956,"Ġment":9957,"iang":9958,"Ġobtain":9959,"å½¼ãģ¯":9960,"Ġpros":9961,"Ġstatement":9962,"æº«":9963,"ĠNative":9964,"To":9965,"Ġsurvey":9966,"ĠTownship":9967,"ãĥ³ãĥķ":9968,"ĠLind":9969,"ì²ľ":9970,"Ġdiam":9971,"Ġanimal":9972,"äº¬éĥ½":9973,"ito":9974,"ãģ®ãģĮ":9975,"Ġsell":9976,"lan":9977,"è¡Ŀ":9978,"Ġscale":9979,"ìħ":9980,"éĢŁåº¦":9981,"çĶļèĩ³":9982,"ãĥªãĥ³ãĤ°":9983,"ĠHot":9984,"éĹ®é¢ĺ":9985,"Ġì¶Ķ":9986,"ãģķãģĽãģŁ":9987,"800":9988,"ennis":9989,"Ġtor":9990,"ãĥ¼ãĤ¿ãĥ¼":9991,"Ġclin":9992,"ĠGreg":9993,"Ġkilling":9994,"ĠInfantry":9995,"ĠMelbourne":9996,"1987":9997,"ĠSciences":9998,"ĠJunior":9999,"æŃĮæĽ²":10000,"Ġvoted":10001,"oster":10002,"Ġimproved":10003,"ĠBall":10004,"æľĢãĤĤ":10005,"Ð½":10006,"è·ĿéĽ¢":10007,"ãĤŃãĥ¼":10008,"Ġgetting":10009,"Ġsail":10010,"Ġjoining":10011,"âĤĤ":10012,"å°½":10013,"éłĤ":10014,"agh":10015,"ãģ¦ãģ®":10016,"Ġlandsc":10017,"Ġbudget":10018,"ĠPit":10019,"Ġêµ°":10020,"å±ķéĸĭ":10021,"ĠPhilip":10022,"Ġ1929":10023,"ä¹İ":10024,"ç§Ĵ":10025,"èĳ£":10026,"ä¹Łæľī":10027,"ĠFurther":10028,"Ġcollected":10029,"iders":10030,"ç¼º":10031,"vi":10032,"Ġproperties":10033,"ourney":10034,"amm":10035,"Ġlake":10036,"Ġcompl":10037,"ĠProvince":10038,"inus":10039,"éģĬæĪ²":10040,"Ġcooper":10041,"Ġshall":10042,"åĲįç§°":10043,"Ġhydro":10044,"åħĦå¼Ł":10045,"Ġpasses":10046,"sky":10047,"ĠSem":10048,"æ²Ī":10049,"Ġcontaining":10050,"letic":10051,"kh":10052,"atures":10053,"Ġreduce":10054,"çĪ¶è¦ª":10055,"ĠIV":10056,"Ġpossess":10057,"ãĤĴåıĹãģĳãģŁ":10058,"Ġ34":10059,"vant":10060,"ãĤĤãģ®ãģ§ãģĤãĤĭ":10061,"ĠBi":10062,"ĠKorean":10063,"entially":10064,"åıĹè³ŀ":10065,"Ġast":10066,"ĠKal":10067,"Ġsurvived":10068,"Ġentirely":10069,"ĠGre":10070,"Ġvolume":10071,"ç¨İ":10072,"1986":10073,"ĠStock":10074,"IP":10075,"ĠRepresent":10076,"Ġequal":10077,"ä¿Ĺ":10078,"çĲĨçĶ±":10079,"ä½ĵãģ®":10080,"éĻ¸è»į":10081,"then":10082,"ĠBu":10083,"ĠPier":10084,"ĠHo":10085,"Ġsan":10086,"Ġë¦¬":10087,"Ġinaug":10088,"Ne":10089,"occer":10090,"Ġarmed":10091,"Ġvice":10092,"Ġgrant":10093,"ë¥ĺ":10094,"Ġìŀħ":10095,"pson":10096,"éĽĸ":10097,"ĠLeon":10098,"ĠFinal":10099,"æĸ°çļĦ":10100,"ĠIntern":10101,"åŃĲãģ®":10102,"æ¾¤":10103,"ãĥıãĤ¤":10104,"Ġjunior":10105,"Ġstandards":10106,"Ġnothing":10107,"gi":10108,"zen":10109,"èĻ½":10110,"ãģĤãģŁ":10111,"ĠíĻľ":10112,"åĢį":10113,"inth":10114,"Ã£":10115,"state":10116,"Ġimpress":10117,"Ġportra":10118,"ĠForm":10119,"gency":10120,"Over":10121,"æ¡ĳ":10122,"Ġgraduate":10123,"åĨµ":10124,"Her":10125,"ãģ«åĩº":10126,"åºĵ":10127,"Ġwhy":10128,"ĠMoh":10129,"ä¸īå¹´":10130,"Ġaffected":10131,"ĠSteve":10132,"Ġfaith":10133,"ãģĹãģªãģĦ":10134,"ĠGolden":10135,"ä¼ı":10136,"olec":10137,"Ġoccas":10138,"lets":10139,"Ġbodies":10140,"rine":10141,"ç²¾ç¥ŀ":10142,"éĿĻ":10143,"Ġcauses":10144,"athan":10145,"athe":10146,"å¤©çļĩ":10147,"ĠBrigade":10148,"Ġcharges":10149,"allel":10150,"ĠFederation":10151,"è¨±å¤ļ":10152,"ãĤ¸ãĥ§ãĥ³":10153,"Ġemot":10154,"çĻ¼çĶŁ":10155,"Ġmayor":10156,"ommod":10157,"MP":10158,"Ġcriminal":10159,"ãĤĴçµĮãģ¦":10160,"track":10161,"ëĬĶëį°":10162,"ED":10163,"ä¸Ĭãģ®":10164,"Ġpoly":10165,"Ġbriefly":10166,"Ã¢":10167,"ç¦®":10168,"åıĳçĶŁ":10169,"è®¸å¤ļ":10170,"Ġrevolution":10171,"Ġspecifically":10172,"ãģªãģ©ãģĮ":10173,"Ġcosts":10174,"èĮ¨":10175,"Ġfine":10176,"Ġstrateg":10177,"ĠTemple":10178,"ĠCape":10179,"Ġruled":10180,"Ġduty":10181,"ãĥĲãĤ¤":10182,"Ġpurchase":10183,"ä»»åĳ½":10184,"å®ĩå®Ļ":10185,"Ġsole":10186,"ç©¿":10187,"ĠLincoln":10188,"ĠKim":10189,"Ġconsequ":10190,"éĢ²åħ¥":10191,"olt":10192,"Ġfram":10193,"pir":10194,"Î±":10195,"é«ĺãģĦ":10196,"Ġskills":10197,"Ġovers":10198,"Ġconcluded":10199,"Ġreaching":10200,"Ġusers":10201,"è¡ĮçļĦ":10202,"clusion":10203,"ãģ¨ãģķãĤĮãĤĭ":10204,"ç¯ĩ":10205,"Ġsinging":10206,"Ġrepeated":10207,"ãĤ¢ãĥĭãĥ¡":10208,"ãģ«å°±ä»»":10209,"AN":10210,"Ġspok":10211,"Ġreplace":10212,"ãĢĭãĢĤ":10213,"æĬľ":10214,"raf":10215,"Ġresistance":10216,"Ġ1934":10217,"ç§¦":10218,"çļĩå¸Ŀ":10219,"Ġquant":10220,"Ġ1910":10221,"El":10222,"onsin":10223,"Ġengines":10224,"äººãģ¯":10225,"åł±åĳĬ":10226,"Ġactress":10227,"ä¸Ģèµ·":10228,"orage":10229,"eke":10230,"Ġmist":10231,"Ġpoetry":10232,"wegian":10233,"Ġregularly":10234,"Ġsingles":10235,"Ġmel":10236,"ãģªãģ£ãģŁ":10237,"alo":10238,"Ġinjured":10239,"Ġì´Ī":10240,"ãĥĹãĥ©":10241,"Ġtechniques":10242,"ĠThrough":10243,"ãĤ¦ãĥ³":10244,"Ġvisual":10245,"uther":10246,"ĠKa":10247,"Ġstorm":10248,"ropolitan":10249,"apes":10250,"hire":10251,"ĠShort":10252,"æĮĩå®ļ":10253,"ĠAffairs":10254,"Ġsteam":10255,"Ġcontrolled":10256,"ÑĢ":10257,"Ġaware":10258,"poses":10259,"Ġresidence":10260,"car":10261,"Ġmulti":10262,"isconsin":10263,"Ġnegative":10264,"Ġagricultural":10265,"å°ĳå¹´":10266,"ãģĵãģ¨ãĤĤ":10267,"alty":10268,"æķ¬":10269,"Ġdescribes":10270,"ç¬¬åĽĽ":10271,"æĭ¡":10272,"ĠìĹĲ":10273,"Ġreading":10274,"force":10275,"ika":10276,"ĠPlan":10277,"ĠHou":10278,"Ġinhabitants":10279,"Ġchose":10280,"æ§į":10281,"çĨĬ":10282,"åĬ¿":10283,"ä½©":10284,"Later":10285,"Ġadministrative":10286,"é©Ĺ":10287,"ĠLo":10288,"Ġreserve":10289,"ĠVice":10290,"ques":10291,"ĠUs":10292,"ĠManagement":10293,"Ġscheduled":10294,"ãĥĥãĤ·ãĥ¥":10295,"Ġoperate":10296,"Ġì¢ħ":10297,"ãģŁãģłãģĹ":10298,"opher":10299,"Ġgrounds":10300,"'.":10301,"éªĮ":10302,"è©ķä¾¡":10303,"inally":10304,"ĠBah":10305,"Ġcalling":10306,"iva":10307,"1984":10308,"cious":10309,"ĠSingapore":10310,"Ġclassical":10311,"ĠLabour":10312,"Ġcoord":10313,"Ġcovers":10314,"Ġë°°":10315,"æ©Łèĥ½":10316,"ĠWall":10317,"ãĤ¨ãĥ³ãĤ¸":10318,"ibb":10319,"Ġtrip":10320,"éĪ":10321,"Ġtemperature":10322,"çĶĺ":10323,"ĠìľĦíķ´":10324,"ãĥ³ãĤ¬":10325,"çĤ¸":10326,"åŃĶ":10327,"Ġearliest":10328,"çłĶç©¶æīĢ":10329,"ãģ®ãĤ¢":10330,"éĵ¶":10331,"ĠëĲľ":10332,"going":10333,"çī¹å¾´":10334,"ĠArea":10335,"Ġeasily":10336,"SE":10337,"Ġderived":10338,"Ġprogramming":10339,"ëĲĺìĹĪ":10340,"ìª½":10341,"åĿĢ":10342,"åħ¬åħ±":10343,"æĮĩå°İ":10344,"Ġgrade":10345,"Ġë¹":10346,"Ġsignal":10347,"Ġrooms":10348,"ateur":10349,"Ġenl":10350,"run":10351,"åıİéĮ²":10352,"ãĥ¶":10353,"Ġpage":10354,"ê»":10355,"ĠSquadron":10356,"icians":10357,"æĽľ":10358,"Ġcourses":10359,"ĠProt":10360,"owa":10361,"Ġans":10362,"Ġclean":10363,"ãģĵãģ¨ãģ¯":10364,"è¯Ĩ":10365,"Ġeg":10366,"Ġsusp":10367,"Ġassault":10368,"Ġweather":10369,"rates":10370,"åľ°ä½į":10371,"Ġinterse":10372,"ç¡¬":10373,"Ġrejected":10374,"å§Ķåĵ¡ä¼ļ":10375,"Ġworldwide":10376,"åİĤ":10377,"Ġere":10378,"Reception":10379,"Ġadvantage":10380,"Ġdismiss":10381,"uese":10382,"æĪ´":10383,"Ġmoment":10384,"ĠMissouri":10385,"ĠBefore":10386,"utor":10387,"ĠClark":10388,"æ³ķéĻ¢":10389,"æ¯Ķè¼ĥ":10390,"150":10391,"Ġbenef":10392,"ĠMexican":10393,"ĠUt":10394,"Ġopposite":10395,"åŃ¦éĥ¨":10396,"æł¹æĵļ":10397,"Ġtwelve":10398,"Ġconvent":10399,"Ġlooking":10400,"æĸ·":10401,"idden":10402,"æľ¬ä½ľ":10403,"Ġfolk":10404,"éļ¾":10405,"ëıħ":10406,"Ġdoll":10407,"æ±½":10408,"ographer":10409,"ãĥ¡ãĥ³ãĥĲ":10410,"ĠMiller":10411,"åĭĩ":10412,"ãģĦãģ¯":10413,"ĠEven":10414,"Ġinterior":10415,"åĳĪ":10416,"è¯į":10417,"Ġclosely":10418,"ãģ¨èĢĥãģĪ":10419,"ryst":10420,"Ġsecretary":10421,"Ġpainted":10422,"ruce":10423,"ãģ¾ãģŁãģ¯":10424,"Ġhighway":10425,"ãģĻãĤĭãģŁãĤģ":10426,"Ġitems":10427,"Ġrom":10428,"æĮĻãģĴ":10429,"orge":10430,"odox":10431,"å»ºéĢł":10432,"Ġhair":10433,"Ġworth":10434,"Ġaired":10435,"å¼ĺ":10436,"è»Ĭä¸¡":10437,"ĠBon":10438,"å´ĩ":10439,"essee":10440,"ĠJacob":10441,"Ġadmitted":10442,"ĠMagazine":10443,"æł¹æį®":10444,"ãĥĽãĥ¼ãĥł":10445,"ĠSquare":10446,"ĠVietnam":10447,"ĠCzech":10448,"éĿĴå¹´":10449,"Ġfunctions":10450,"Ġdraft":10451,"é¤ĺ":10452,"Ġban":10453,"ĠAD":10454,"ãģĸ":10455,"çµ¶":10456,"éĵģè·¯":10457,"ãĤ¯ãĥ©ãĥĸ":10458,"ĠFa":10459,"Ġobjects":10460,"Ġselection":10461,"Ġsuperv":10462,"æ½ľ":10463,"Ġbaseball":10464,"Ġleads":10465,"ĠHard":10466,"Ġlimit":10467,"Ġextension":10468,"ãĥĥãĥĦ":10469,"æľĪãģ«ãģ¯":10470,"esota":10471,"Ġcandidates":10472,"íĸ¥":10473,"é§Ĩ":10474,"Ġethnic":10475,"åĲĪãĤıãģĽ":10476,"Ġmerged":10477,"Ġintroduction":10478,"Ġregistered":10479,"ëĤľ":10480,"ĠLive":10481,"Ġwounded":10482,"ãĤ·ãĤ§":10483,"Ġcorpor":10484,"ä¸»å¼µ":10485,"æŁ±":10486,"aga":10487,"éº¦":10488,"Ġregarded":10489,"æŃ»åİ»":10490,"ĠSix":10491,"ĠCab":10492,"Ġedge":10493,"ĠTs":10494,"Ġlocomot":10495,"åŃ©":10496,"Ġcommit":10497,"Ġdesigns":10498,"Ġflu":10499,"Ġcommitted":10500,"aria":10501,"ãģĹãģ°":10502,"ãģ¸ãģ¨":10503,"æĢª":10504,"Ġbatter":10505,"Ġwriters":10506,"ĠWisconsin":10507,"Ġ1928":10508,"ĠForeign":10509,"Ġê±´":10510,"ordon":10511,"Ġroads":10512,"åħ¥ãĤĬ":10513,"Ab":10514,"ï¼ģ":10515,"oven":10516,"Ġlearned":10517,"Ġactual":10518,"è¿Ľåħ¥":10519,"ë£Į":10520,"Ġcapture":10521,"ãģ»ãģ¨":10522,"ĠFund":10523,"çĽĳ":10524,"Ġ38":10525,"Ġíĺķ":10526,"fall":10527,"èĻİ":10528,"æĢ§çļĦ":10529,"1983":10530,"å£ĵ":10531,"Ġremark":10532,"icts":10533,"ãģµ":10534,"ĠCountry":10535,"Ġahead":10536,"ĠDu":10537,"ĠWeb":10538,"dd":10539,"ologies":10540,"Ġ75":10541,"Ġ1922":10542,"æĹ¥ãģ«ãģ¯":10543,"former":10544,"Ġbusinesses":10545,"Ġgoods":10546,"Ġshell":10547,"Ġimages":10548,"Ġdistricts":10549,"itional":10550,"å°¤":10551,"Ġattract":10552,"ãĤ¤ãĥ³ãĤ¿":10553,"ãĤĴéĢļ":10554,"åİĭ":10555,"ĠGallery":10556,"Ġdates":10557,"ikh":10558,"ĠStone":10559,"Ġracing":10560,"Ġphilosophy":10561,"abled":10562,"æ¼«çĶ»":10563,"ãģķãĤĮãģ¦ãģĬãĤĬ":10564,"å¯¶":10565,"ëĤ¨":10566,"éģ·":10567,"ĠRa":10568,"ĠQueensland":10569,"aph":10570,"åģı":10571,"Ġrefers":10572,"Ġcopy":10573,"ãĥ¼ãĥĨãĤ£":10574,"è¬Ŀ":10575,"Ġaccommod":10576,"Ġpossibly":10577,"Ġapplications":10578,"ĠExecutive":10579,"Ġbrick":10580,"ĠFront":10581,"è£ģåĪ¤":10582,"èİĬ":10583,"Ġsymbol":10584,"AP":10585,"olas":10586,"çĶ¨ãģĦ":10587,"ĠKansas":10588,"Ġstores":10589,"Ġcore":10590,"çļĦä¸Ģä¸ª":10591,"Ġexact":10592,"åįģä¸Ģ":10593,"box":10594,"Ġcharged":10595,"Ġassess":10596,"Ġgets":10597,"ivered":10598,"ducing":10599,"ãĥ³ãģĮ":10600,"è¬Ģ":10601,"éŁ©":10602,"çļĦä¸ĢåĢĭ":10603,"ëĬ¥":10604,"Ġrefuge":10605,"Ġrich":10606,"Ġadvoc":10607,"Ġwaters":10608,"urrent":10609,"ĠConst":10610,"Ġchurches":10611,"ãĤĴåĩº":10612,"ãĤĴçį²å¾Ĺ":10613,"acent":10614,"Ġsave":10615,"ä½ľæĽ²":10616,"unch":10617,"ĠAst":10618,"Ġflat":10619,"Ġmap":10620,"Ġnor":10621,"Ġowners":10622,"ì§Ī":10623,"Ġdamaged":10624,"Ġfreedom":10625,"rant":10626,"Ġanaly":10627,"ĠDoctor":10628,"Ġbed":10629,"term":10630,"ëĵ¤ìĿĺ":10631,"Ġinterested":10632,"åĲĦåľ°":10633,"agues":10634,"åŁºåľ°":10635,"ä¾§":10636,"rÃ©":10637,"aska":10638,"ĠìĿ¼ë³¸":10639,"Ġstanding":10640,"ãģĵãĤĮãĤĴ":10641,"ĠEntertainment":10642,"ĠToday":10643,"III":10644,"éĿł":10645,"ãĤ±ãĥĥãĥĪ":10646,"åħ¨åľĭ":10647,"ceived":10648,"ocese":10649,"ãĤĥ":10650,"å¸Ĥåł´":10651,"ãĤīãģĭ":10652,"ãĤ¾":10653,"Ġcrown":10654,"08":10655,"æĲº":10656,"åºĨ":10657,"Ġtries":10658,"ãĥŃãĥ¼":10659,"Ġhistorian":10660,"icks":10661,"ĠCensus":10662,"Ġrailroad":10663,"Ġ1932":10664,"Ġones":10665,"William":10666,"æī§":10667,"1982":10668,"Ġarrival":10669,"Ġë°ı":10670,"è¡ĮçĤº":10671,"Ġboys":10672,"å¤ĸäº¤":10673,"ĠOcean":10674,"éĥŃ":10675,"Ġbroken":10676,"ĠNaval":10677,"Ġì±":10678,"Ġvir":10679,"å¹´ãģ¾ãģ§":10680,"åĢ¤":10681,"ĠServices":10682,"Fran":10683,"ãģ»ãģ¨ãĤĵãģ©":10684,"SI":10685,"Ġtransform":10686,"åŃĿ":10687,"çīĪæľ¬":10688,"êµŃìĿĺ":10689,"ĠPalest":10690,"orders":10691,"Ġ1931":10692,"ĠHollywood":10693,"Ġchemical":10694,"ãĥŀãĥ«":10695,"Ġ1927":10696,"uris":10697,"Ġrenov":10698,"Ġstands":10699,"ĠWhit":10700,"eler":10701,"Ġ1924":10702,"ĠIndones":10703,"Ġcomposer":10704,"æĿ¨":10705,"anes":10706,"FM":10707,"ĠStaff":10708,"ĠSecurity":10709,"Ġ1921":10710,"point":10711,"idel":10712,"ì²Ń":10713,"Ġdriver":10714,"Ġregiment":10715,"ĠHarry":10716,"ĠBarb":10717,"ĠTony":10718,"ãĤ¹ãĤ«":10719,"ì´Ī":10720,"Ġstadium":10721,"åĨ°":10722,"Ġmand":10723,"Ġ37":10724,"ĠThus":10725,"International":10726,"BI":10727,"who":10728,"ĠAz":10729,"urday":10730,"æĪĲç¸¾":10731,"ĠAustria":10732,"äºĭæķħ":10733,"ãĥĲãĥ«":10734,"isa":10735,"rolled":10736,"Ġdivers":10737,"ĠMarc":10738,"Ġlyrics":10739,"Ġvalley":10740,"othing":10741,"Ġìłģ":10742,"Ġrepresentative":10743,"Ġë¡ľ":10744,"aro":10745,"udi":10746,"ĠHotel":10747,"ski":10748,"çµĮæŃ´":10749,"æī±":10750,"Ġpraised":10751,"ç¸®":10752,"çµµ":10753,"ĠëķĮë¬¸":10754,"Ġaccompanied":10755,"æ»ĳ":10756,"ãĤīãģ¯":10757,"æĪĪ":10758,"OC":10759,"Ġracial":10760,"Ġshel":10761,"Ġparticipate":10762,"Ġpassenger":10763,"Ġdevice":10764,"çĽ´åĪ°":10765,"ĠEngineering":10766,"ghan":10767,"çıł":10768,"Ġstood":10769,"onder":10770,"èĤ¯":10771,"Ġsurg":10772,"éĩİçĲĥ":10773,"éģĤ":10774,"Ġpersonnel":10775,"Ġìĭľìŀĳ":10776,"icial":10777,"Ġìļ´":10778,"èĢĮä¸Ķ":10779,"ä¹ĭéĸĵ":10780,"ëĵ±":10781,"enh":10782,"åĪĿãģ®":10783,"ê¸ī":10784,"æĹ©æľŁ":10785,"La":10786,"å®ľ":10787,"âĢĶâĢĶ":10788,"ĠëįĶ":10789,"Ġmarg":10790,"å¨ľ":10791,"ĠGil":10792,"Ġsomew":10793,"æ¢°":10794,"vements":10795,"oli":10796,"ê»ĺ":10797,"ĠNorwegian":10798,"lock":10799,"ĠTurn":10800,"western":10801,"Ġagency":10802,"æ®Ĭ":10803,"åı¶":10804,"çĻºè¦ĭ":10805,"rator":10806,"ĠBuilding":10807,"Ġchance":10808,"Ã¼r":10809,"Ġë§¤":10810,"éĲµè·¯":10811,"Ġdelivered":10812,"ĠColl":10813,"ãģĺãģŁ":10814,"å¹´èĩ³":10815,"æ±ŁæĪ¸":10816,"night":10817,"Ġconqu":10818,"ä»°":10819,"ĠAcc":10820,"ĠPass":10821,"Ġdecade":10822,"Ġstopped":10823,"Ġreserv":10824,"è¨Ńå®ļ":10825,"Ġpiano":10826,"Ġ1916":10827,"DP":10828,"åĨįæ¬¡":10829,"ä¸½":10830,"edia":10831,"ĠíĿ":10832,"Ġselling":10833,"Ġopera":10834,"Res":10835,"Ġprofession":10836,"ĠMedal":10837,"æĪĺäºī":10838,"Ġshut":10839,"Ġ1915":10840,"Ġproced":10841,"pa":10842,"æ²ĸ":10843,"ilst":10844,"owned":10845,"antic":10846,"ieval":10847,"enses":10848,"åįģåĪĨ":10849,"ä¹ĭéĹ´":10850,"ãĤįãģĨ":10851,"Co":10852,"regon":10853,"ĠDue":10854,"ĠOt":10855,"ĠMarine":10856,"Ġì¡":10857,"Ġarrang":10858,"hand":10859,"Ġshowing":10860,"Ġdeleg":10861,"ĠLegisl":10862,"çķ¢":10863,"ĠBurn":10864,"raine":10865,"cons":10866,"anned":10867,"Ġmort":10868,"inch":10869,"ì£¼ìĿĺ":10870,"MC":10871,"ĠNich":10872,"ãĤ¢ãĥ¼":10873,"Ġattached":10874,"æĴ®":10875,"hips":10876,"ĠHeart":10877,"ĠTennessee":10878,"ë¦¬ìķĦ":10879,"Ġstrip":10880,"Ġmathemat":10881,"ĠNorway":10882,"ĠLieutenant":10883,"active":10884,"ifications":10885,"Ġexperienced":10886,"itzerland":10887,"ĠRab":10888,"09":10889,"Ġretained":10890,"ĠRose":10891,"Ġturns":10892,"Ġassumed":10893,"ui":10894,"èıĮ":10895,"ĠFamily":10896,"ãģ«ä¼´":10897,"Ġjournalist":10898,"Ġax":10899,"ä¾į":10900,"racy":10901,"ĠDrag":10902,"Ġbond":10903,"Ġcoll":10904,"Ġbrain":10905,"Ġ1912":10906,"Ġê·¸ë¦¬":10907,"å¸Ĥæ°ĳ":10908,"ĠMinnesota":10909,"Ġrepresenting":10910,"ãģĺãģ¦":10911,"glas":10912,"Ġcaught":10913,"ĠId":10914,"Ġrating":10915,"eanwhile":10916,"å¡ģ":10917,"Ġíĸī":10918,"Ġbrown":10919,"Ġformerly":10920,"including":10921,"gor":10922,"RC":10923,"rating":10924,"ãĤ¦ãĤ©":10925,"ĠJesus":10926,"ublin":10927,"ãĤĴä¸Ńå¿ĥ":10928,"æĬ¼":10929,"ĠJane":10930,"Ġ1925":10931,"ç¾İåħĥ":10932,"Ġimmigr":10933,"anga":10934,"'m":10935,"ĠBarn":10936,"æĻ®éĢļ":10937,"Ġdiplom":10938,"ĠPa":10939,"ĠSpace":10940,"Ġcheck":10941,"ello":10942,"Ġ1923":10943,"ĠTransport":10944,"ä¿ĥ":10945,"Ġdelay":10946,"èĿ":10947,"pse":10948,"roit":10949,"avalry":10950,"ä¸ºäºĨ":10951,"Ġflying":10952,"åĨįãģ³":10953,"Ġgarden":10954,"Ġrestored":10955,"æ¼Ķå¥ı":10956,"ãģ¤ãģĭ":10957,"åı«":10958,"ĠHamilton":10959,"çī©çĲĨ":10960,"Cont":10961,"Ġintelligence":10962,"éĹ»":10963,"æĥł":10964,"pective":10965,"å¤§åŀĭ":10966,"Ġíıī":10967,"Ġdivor":10968,"ĠBos":10969,"æ±ºåĭĿ":10970,"ĠDiego":10971,"autiful":10972,"ĠEP":10973,"è¦Ĩ":10974,"Ġalleg":10975,"ãĤµãĥ³":10976,"Ġancest":10977,"çĲĨè«ĸ":10978,"ãĤ¤ãĤ¿":10979,"ä½ľå®¶":10980,"Ġda":10981,"ĠAnne":10982,"ãģ«åĲĳ":10983,"Ġìĸĳ":10984,"åļ´":10985,"Ġconsisting":10986,"åĨ³å®ļ":10987,"Ġheaded":10988,"ĠPhilippines":10989,"ĠBillboard":10990,"En":10991,"obe":10992,"ãĤĴè¡Įãģ£ãģŁ":10993,"1979":10994,"DS":10995,"Ġsuggests":10996,"ĠPortuguese":10997,"è¨Ĭ":10998,"æµª":10999,"ĠIndiana":11000,"Ġcriticized":11001,"Ġcircum":11002,"ĠHoward":11003,"overty":11004,"åįĶä¼ļ":11005,"ì¤Ģ":11006,"èªī":11007,"ì»":11008,"Ġdocuments":11009,"rome":11010,"Å«":11011,"äº®":11012,"Ġsession":11013,"ì¡Į":11014,"ëĵ¤ìĿĦ":11015,"ä¸»ãģ«":11016,"ä¿±":11017,"ogy":11018,"ĠWell":11019,"cu":11020,"Ġduties":11021,"Ġplayoff":11022,"amic":11023,"æ¯ķ":11024,"íĴĪ":11025,"æ©Łæ§ĭ":11026,"anguage":11027,"iler":11028,"ãĥ«ãĤ¹":11029,"åºĦæĿĳ":11030,"ĠColorado":11031,"%.":11032,"GB":11033,"ãĤĴä¸İ":11034,"æĪ¦éĹĺ":11035,"èĥ½å¤":11036,"Ġped":11037,"Ġdriving":11038,"æĪ°çĪŃ":11039,"iller":11040,"Ġrecon":11041,"ĠJos":11042,"Ġbottom":11043,"íĶ¼":11044,"Ġcombination":11045,"Ġpassengers":11046,"ĠReview":11047,"Ġengineer":11048,"ĠDec":11049,"Ġtownship":11050,"ishment":11051,"Ġparallel":11052,"ordan":11053,"onom":11054,"ĠTit":11055,"Ġfired":11056,"Death":11057,"Ġteachers":11058,"ãĤ»ãĥ³ãĤ¿ãĥ¼":11059,"æĻĤä»£ãģ®":11060,"Ġëĵ¤":11061,"ê°ķ":11062,"å¤§éĻ¸":11063,"General":11064,"äººåı£å¯Ĩåº¦":11065,"Ġign":11066,"rec":11067,"Ġthousands":11068,"Ġfan":11069,"åŃ¸çĶŁ":11070,"ĠMcG":11071,"season":11072,"ĠArmen":11073,"Ã£o":11074,"Ġmeters":11075,"Ġsubsid":11076,"æłªå¼ı":11077,"ĠLiberal":11078,"çĤºäºĨ":11079,"ãĤŃãĥ³ãĤ°":11080,"coh":11081,"ĠCemetery":11082,"ãģ¨ãģĹ":11083,"å½¼å¥³":11084,"Ġunsuccess":11085,"inburgh":11086,"ribution":11087,"star":11088,"Ġstayed":11089,"Ġutil":11090,"Ġthick":11091,"Ġcarrying":11092,"åĪ¸":11093,"Ġ1926":11094,"thodox":11095,"ĠIslamic":11096,"Ġresign":11097,"Ġconsecutive":11098,"Ġaccur":11099,"ãģĭãģĳ":11100,"Rec":11101,"è§¦":11102,"ĠMaryland":11103,"Ġsolid":11104,"Ġtypical":11105,"Ġsoci":11106,"Ġwindows":11107,"Ġgreatest":11108,"Ġprepared":11109,"Ġê°Ĳ":11110,"Ġhill":11111,"ĠLike":11112,"ivalent":11113,"Ġcollaboration":11114,"ĠNick":11115,"inners":11116,"rac":11117,"Ġpresidential":11118,"ardens":11119,"ĠKat":11120,"Ġmusicians":11121,"èī¦éļĬ":11122,"Ġtail":11123,"éº¥":11124,"ĠRoy":11125,"æĢĿæĥ³":11126,"Ġinvestment":11127,"ç£ģ":11128,"æŀª":11129,"Ġphotograph":11130,"æ°ĳåľĭ":11131,"ĠHarvard":11132,"Ġknock":11133,"ĠìĪ":11134,"ä¸¥":11135,"æŃ¦åĻ¨":11136,"éļ»":11137,"ëŁī":11138,"ä¼Ĳ":11139,"Ġê¹Ģ":11140,"Ġpione":11141,"Ġcategory":11142,"Ġdetails":11143,"Ġmotion":11144,"ĠAuthor":11145,"èĪį":11146,"Ġassistance":11147,"ï¼īãĢį":11148,"ĠAli":11149,"\").":11150,"ë¸Į":11151,"å»³":11152,"Ġ42":11153,"ĠSimon":11154,"Ġreturns":11155,"ìļ¸":11156,"ĠPrin":11157,"æľįåĬ¡":11158,"å®Łæĸ½":11159,"Ġdebuted":11160,"uv":11161,"ä¸Ģæ¬¡":11162,"Ġselect":11163,"aby":11164,"ãģĦãģ£ãģŁ":11165,"åĲ³":11166,"Ġpolicies":11167,"ãĤ¯ãĥª":11168,"æľĢç»Ī":11169,"ML":11170,"Ġflo":11171,"ource":11172,"don":11173,"æ¯Ķè³½":11174,"íĪ¬":11175,"æİĮ":11176,"aux":11177,"1949":11178,"åĤĳ":11179,"Ġprotein":11180,"Ġãģ®":11181,"issance":11182,"è¨ĺå¿µ":11183,"Ġfactors":11184,"iples":11185,"æ¨Ļæºĸ":11186,"æĲŃè¼ī":11187,"ĠAC":11188,"å¤§æŃ£":11189,"Ġadjacent":11190,"éĩĿ":11191,"ĠSaturday":11192,"Ġreality":11193,"Ġdrawn":11194,"ç´Ķ":11195,"Ġsections":11196,"æ¯«":11197,"ropical":11198,"arsh":11199,"Ġbuy":11200,"å»ī":11201,"Ġdry":11202,"ctoral":11203,"iable":11204,"Ed":11205,"æµ®":11206,"æŁ³":11207,"èµ´":11208,"åİħ":11209,"adi":11210,"igenous":11211,"Ġíģ":11212,"Ġswim":11213,"Ġsubjects":11214,"Ġhors":11215,"ĠSwitzerland":11216,"Ġacid":11217,"ĠForces":11218,"ãĥ³ãĥĸ":11219,"åĲĪä½µ":11220,"Ġsignificantly":11221,"Ġstarred":11222,"ç¢ĳ":11223,"BM":11224,"çŀ":11225,"ìĬ¤íĬ¸":11226,"ĠVillage":11227,"Ġtons":11228,"å¾Ħ":11229,"Ġresponsibility":11230,"ãĥĭãĥ¥ãĥ¼":11231,"ä¼¤":11232,"ç·ł":11233,"ĠBattalion":11234,"ãģ«ãģĹãģŁ":11235,"ëĦ¤":11236,"åŃĻ":11237,"æĻĭ":11238,"Ġlegislation":11239,"Ġinher":11240,"ÃŃa":11241,"ãĤ·ãĥ¼":11242,"Ġownership":11243,"ĠTurkish":11244,"åĲĪè¡Ĩ":11245,"ĠIsraeli":11246,"Ġunderstanding":11247,"Ġimprison":11248,"jan":11249,"å¼ķéĢĢ":11250,"Ste":11251,"ĠTen":11252,"Ġrenew":11253,"ĠAdministration":11254,"1978":11255,"Ġterror":11256,"Ġpriest":11257,"èīĩ":11258,"Ġì°¸":11259,"è³ĩæĸĻ":11260,"05":11261,"Ġnotably":11262,"Ġobl":11263,"Ġpopularity":11264,"Ġwindow":11265,"rizona":11266,"Ġcomposition":11267,"Ġqualified":11268,"RE":11269,"ogen":11270,"ĠPrinc":11271,"zo":11272,"ĠImperial":11273,"coming":11274,"Ġunus":11275,"ĠWalter":11276,"ĠEth":11277,"ëĿ¼ëĬĶ":11278,"Ġvalues":11279,"ĠLow":11280,"ãģ®ãģŁãĤģãģ«":11281,"éĥ·":11282,"ìł¸":11283,"ĠEdinburgh":11284,"ĠDesign":11285,"ĠSeveral":11286,"aired":11287,"ĠTrib":11288,"åį·":11289,"è¿°ãģ¹":11290,"hr":11291,"eless":11292,"Ġthrow":11293,"onstruction":11294,"ĠOregon":11295,"Ap":11296,"ĠPot":11297,"ãĥĹãĥ¬":11298,"No":11299,"aver":11300,"Ġcrisis":11301,"Äį":11302,"ĠReal":11303,"Ġri":11304,"çĲ´":11305,"Ġconcerns":11306,"Ġ+":11307,"Ġanniversary":11308,"åħĭæĸ¯":11309,"å½Ĵ":11310,"Ġshooting":11311,"åīįãģ®":11312,"Ġtall":11313,"ç»ĥ":11314,"ãĥªãĥ¼ãĤ¹":11315,"ĠBetween":11316,"åı°åĮĹ":11317,"Ġseparated":11318,"ì¿":11319,"Ġveter":11320,"é¡§":11321,"ĠLtd":11322,"å¤ªå¹³æ´ĭ":11323,"istant":11324,"ĠAnth":11325,"ãĥĢãĤ¤":11326,"ĠìĤ¬ëŀĮ":11327,"Ġappropri":11328,"unnel":11329,"ĠDep":11330,"iot":11331,"âĶ":11332,"æİ²":11333,"çµĦãģ¿":11334,"ãģĿãģĨ":11335,"Ġsevere":11336,"ĠAbd":11337,"wealth":11338,"07":11339,"Ġrow":11340,"Ġcompete":11341,"ogether":11342,"èª¤":11343,"ë¨":11344,"æŃ¸":11345,"ãĤĩãģĨ":11346,"èİī":11347,"å¥´":11348,"ĠCommunist":11349,"è½®":11350,"ĠìĬ¹":11351,"Ġcommunication":11352,"ĠDiv":11353,"æĿ°":11354,"ĠìĻķ":11355,"Ġtick":11356,"ĠBowl":11357,"Ġdepth":11358,"Ġmeasures":11359,"Ġpurposes":11360,"ëĲľëĭ¤":11361,"Ġextremely":11362,"ĠíļĮ":11363,"urric":11364,"Ġdaughters":11365,"rav":11366,"Ġexamples":11367,"Ġchain":11368,"éĥ¨éĸĢ":11369,"ä½¿å¾Ĺ":11370,"1981":11371,"Music":11372,"Ġuser":11373,"Ġisol":11374,"ä¹ĥ":11375,"Ġprisoners":11376,"Ġzone":11377,"ç»Ĩ":11378,"ëł¨":11379,"ĠPrim":11380,"åºģ":11381,"Ġlat":11382,"Ġíĥľ":11383,"Ġseconds":11384,"Ġê³¼":11385,"Ġevening":11386,"Ġnaval":11387,"ĠTelevision":11388,"Łģ":11389,"ãģĪãģ°":11390,"ãģ«ãģ¨":11391,"acre":11392,"åĪĢ":11393,"Ġencounter":11394,"ãģ«åıĤåĬł":11395,"ê²°":11396,"mith":11397,"ë°°":11398,"ãĥĸãĥŃ":11399,"ãĤ»ãĥ«":11400,"è¦ļ":11401,"é«ĺçŃīåŃ¦æł¡":11402,"Ġstages":11403,"Ġperhaps":11404,"å¾Īå¤ļ":11405,"ĠVis":11406,"ĠThough":11407,"å¾·åĽ½":11408,"angel":11409,"Ġ1890":11410,"Or":11411,"ãģ®ãĤĪãģĨãģ«":11412,"åħ¬è·¯":11413,"çļĦæĥħ":11414,"ĠFrederick":11415,"dale":11416,"Ġinnov":11417,"ãĥ¼ãĥĩãĤ£":11418,"ãĤıãĤĮãģŁ":11419,"æ¯ĶèµĽ":11420,"å¾·åľĭ":11421,"Ġsurre":11422,"ĠĠĠĠĠĠĠĠĠĠĠĠĠĠĠĠ":11423,"Ġstreets":11424,"Ġcriticism":11425,"ĠFarm":11426,"do":11427,"ĠAdam":11428,"Ġbishop":11429,"foot":11430,"Ġislands":11431,"udden":11432,"ãĥ¡ãĥ³ãĥĪ":11433,"Ġensure":11434,"Ġtheater":11435,"ãĥ¨ãĥ¼ãĥŃ":11436,"ç®¡è½Ħ":11437,"Ġdisappe":11438,"åı¥":11439,"ĠNow":11440,"Ġeye":11441,"Ġdegrees":11442,"Ġfeed":11443,"Ġcourts":11444,"Ġíķ¨ê»ĺ":11445,"ĠPalace":11446,"Ġfaculty":11447,"ĠAbout":11448,"ĠBuddh":11449,"oming":11450,"ä¸´":11451,"Ġsun":11452,"åĲ´":11453,"Ġopinion":11454,"ãĥĸãĥª":11455,"ĠHouston":11456,"ĠSwiss":11457,"Ġwins":11458,"ĠTreat":11459,"Ġsort":11460,"ĠChairman":11461,"æĿī":11462,"Ġreaction":11463,"ç·Ĵ":11464,"Ġgraduating":11465,"å¹¶ä¸Ķ":11466,"oa":11467,"ãģĮè¡ĮãĤıãĤĮ":11468,"ãĥĬãĥ¼":11469,"ë©Ķ":11470,"åĳ½ä»¤":11471,"Ġmining":11472,"Ġhumans":11473,"ĠDomin":11474,"ĠInternet":11475,"ture":11476,"ĠíĥĢ":11477,"argo":11478,"enny":11479,"ibl":11480,"also":11481,"åıĤä¸İ":11482,"Ġcontext":11483,"æµĻ":11484,"Ġexpedition":11485,"éĢ£åĲĪ":11486,"ĶĮ":11487,"è©³":11488,"LC":11489,"íħĮ":11490,"Ġkid":11491,"è¹":11492,"ĠOak":11493,"Ġcontroversy":11494,"emble":11495,"ĠNFL":11496,"ĠìŀĦ":11497,"Te":11498,"ĠUpon":11499,"igious":11500,"Ġweb":11501,"Ġinterpret":11502,"ĠChildren":11503,"ĠOrchestra":11504,"éł»":11505,"åŁºçĿ£":11506,"ä¸¦ä¸Ķ":11507,"Pr":11508,"Ġ1911":11509,"eries":11510,"Ġraise":11511,"ĠKr":11512,"ĠRoc":11513,"ãĤŃãĥ£ãĥ©ãĤ¯":11514,"ĠNY":11515,"Ġfiled":11516,"æ¶ī":11517,"å°¼äºŀ":11518,"åħ¬å¼ı":11519,"Ġ48":11520,"ĠBou":11521,"éı¡":11522,"éŀ":11523,"Ġprize":11524,"ç¥ĸçĪ¶":11525,"Ġreception":11526,"iami":11527,"ĠëĿ¼":11528,"çıį":11529,"é»ĺ":11530,"ãĥ¨ãĥ¼ãĥŃãĥĥãĥĳ":11531,"Ġheat":11532,"ãģķãĤĮãģŁãģĮ":11533,"å±ħæ°ĳ":11534,"ĠWrit":11535,"ĠClin":11536,"1975":11537,"éĢĿ":11538,"æµ·éģĵ":11539,"ĠDal":11540,"Ġago":11541,"íĿ":11542,"Ġcinem":11543,"Ġvictims":11544,"ĠAnderson":11545,"éĽ»åŃĲ":11546,"ä½ıæ°ĳ":11547,"Ġgang":11548,"Ġprosec":11549,"borough":11550,"åĿĲ":11551,"ĠGab":11552,"ìĸ¸":11553,"Ġalt":11554,"Ġ1913":11555,"ĠRights":11556,"Polit":11557,"æķ·":11558,"Ġrecru":11559,"ãģ§ãģĤãģ£ãģŁãģĮ":11560,"Ġpractices":11561,"ãĤ«ãĥĥãĥĹ":11562,"Crit":11563,"ĠìĤ°":11564,"unes":11565,"Ġphen":11566,"éĻ¶":11567,"uscript":11568,"Ġchair":11569,"ãģ®ãĤĪãģĨãģª":11570,"éĹľä¿Ĥ":11571,"çµ¡":11572,"éĥ¨éķ·":11573,"æ£Ħ":11574,"Ġpublishing":11575,"å¤§éĥ¨åĪĨ":11576,"ĠMalays":11577,"ĠDur":11578,"ãģ®ä¸Ģéĥ¨":11579,"è»½":11580,"ĠYouth":11581,"æľĢåĪĿãģ®":11582,"æĶ¯éħį":11583,"yles":11584,"ĠChen":11585,"å±ħä½ı":11586,"Ġpool":11587,"ĠOttoman":11588,"Ġcolonial":11589,"ooth":11590,"ç´°èĥŀ":11591,"ĠConnect":11592,"ìŁģ":11593,"Ġoccupation":11594,"ĠOnly":11595,"ĠRailroad":11596,"è¨ĪåĬĥ":11597,"andy":11598,"ME":11599,"æĬĢæľ¯":11600,"Ġincreasingly":11601,"rastructure":11602,"Ġmembership":11603,"Ġchallenge":11604,"Ġminute":11605,"Ġprotest":11606,"æİ¨åĩº":11607,"èĪİ":11608,"åħ±æľī":11609,"'re":11610,"ads":11611,"ãĥ¡ãĥ¼ãĥĪ":11612,"ĠìĹ´":11613,"é±¼":11614,"ĠRon":11615,"rons":11616,"Ġexplained":11617,"åħ³ç³»":11618,"ĠOnce":11619,"çĶ±æĿ¥":11620,"ĠHug":11621,"ãĤ³ãĥŁ":11622,"ĠSound":11623,"Ġì¹´":11624,"aked":11625,"è¡ĮæĶ¿åĮº":11626,"Ġexplos":11627,"ĠWolf":11628,"ç§Ł":11629,"èĬ¬":11630,"ãĥ³ãĥĦ":11631,"ĠExpress":11632,"ĠDublin":11633,"ĠAge":11634,"Ġgender":11635,"heme":11636,"å¢¨":11637,"Ġupd":11638,"Ġexpression":11639,")ãĢģ":11640,"ĠTar":11641,"unications":11642,"é¼ĵ":11643,"Ġê·¸ëŁ¬":11644,"Ġreputation":11645,"agen":11646,"Ġaspects":11647,"utt":11648,"Ġkm":11649,"ĠNiger":11650,"Ġinvolving":11651,"Ġarchae":11652,"oyd":11653,"Ġchildhood":11654,"ugar":11655,"Ġrates":11656,"oen":11657,"å¥Ĺ":11658,"æķ°ãģ®":11659,"ĠOfficer":11660,"Ġadvent":11661,"06":11662,"ĠAllen":11663,"des":11664,"Ġdifferences":11665,"Ġbronze":11666,"èĳĹä½ľ":11667,"åĪĨæŀĲ":11668,"æ¦Ĥå¿µ":11669,"ĠCEO":11670,"ĠConc":11671,"æľŃ":11672,"ĠRen":11673,"Ġeyes":11674,"level":11675,"åģľæŃ¢":11676,"éģĭè¡Į":11677,"Ġtechnique":11678,"Ġcycle":11679,"äººæ°Ĺ":11680,"Ġretail":11681,"æ¸ħæľĿ":11682,"Ġdescription":11683,"ĠFame":11684,"ìĨ¡":11685,"Ġlov":11686,"Ġmilit":11687,"ners":11688,"ãĤıãģ£ãģŁ":11689,"uma":11690,"Ġcomic":11691,"Ġnick":11692,"know":11693,"Ġ49":11694,"Ġcontributions":11695,"Dem":11696,"çµķ":11697,"èĻ½çĦ¶":11698,"ĠMit":11699,"Char":11700,"æĿ±åĮĹ":11701,"åĲįãģ®":11702,"Ġsquadron":11703,"01":11704,"ĠíĶ¼":11705,"Trans":11706,"ãĥŃãĥ¼ãĥŀ":11707,"ĠGreece":11708,"Ġcrossing":11709,"ãĥ¼ãĥį":11710,"íİ¸":11711,"ellect":11712,"04":11713,"Ġlinked":11714,"è¶£":11715,"Ġveget":11716,"ompl":11717,"æīĢåľ¨":11718,"éĽĸçĦ¶":11719,"ëĵł":11720,"ç»Ŀ":11721,"æ§ĺãĢħ":11722,"ĠMayor":11723,"Ġstress":11724,"Ġcatal":11725,"Ġfear":11726,"æĺ¯çĶ±":11727,"ë³ĳ":11728,"éĿĪ":11729,"èĪĬ":11730,"odge":11731,"Ġbrig":11732,"ĠGa":11733,"pen":11734,"edding":11735,"burn":11736,"bal":11737,"ĠArizona":11738,"ĵ°":11739,"Ġarranged":11740,"Ġmedicine":11741,"æĭ¥":11742,"éĢļãĤĬ":11743,"CAA":11744,"Ġlanding":11745,"ãĥªãĤª":11746,"ĠTan":11747,"Ġdetermine":11748,"Ġdistributed":11749,"Ġfranch":11750,"EFA":11751,"è¥¿çıŃ":11752,"Ñģ":11753,"ĠHills":11754,"ĠSamuel":11755,"ä»¥å¾Į":11756,"ilation":11757,"ĠOrig":11758,"é¬¥":11759,"Ġjourney":11760,"ĠBeng":11761,"ãĤ¤ãĤ¿ãĥªãĤ¢":11762,"ĠMember":11763,"ĠBrand":11764,"Ġcous":11765,"å·¦åı³":11766,"ĠDick":11767,"Ġmine":11768,"Ġpersons":11769,"related":11770,"Ġcredit":11771,"ippi":11772,"Leg":11773,"Ġconsiderable":11774,"åıĥèĪĩ":11775,"Ġmouth":11776,"ç¥¥":11777,"ĠPC":11778,"è¥¿çıŃçīĻ":11779,"Ġvary":11780,"where":11781,"âĢĿï¼Ī":11782,"äºĪå®ļ":11783,"agu":11784,"å¤¢":11785,"æĸ°ãģŁ":11786,"ç«ĭãģ¡":11787,"Ġmyth":11788,"ãĥĩãĤ¶":11789,"ĠLiver":11790,"Ġstret":11791,"æ¦ľ":11792,"Ġquestions":11793,"cha":11794,"Ġdenied":11795,"ìĻķ":11796,"ĠSky":11797,"Ġenh":11798,"1972":11799,"ĠëĶ°ëĿ¼":11800,"åĬŁèĥ½":11801,"åķĨæ¥Ń":11802,"åįĹäº¬":11803,"ãĥĪãĥŃ":11804,"æĬķç¥¨":11805,"Ġkick":11806,"Ġproposal":11807,"æī¹åĪ¤":11808,"Ġcapable":11809,"Ġbiggest":11810,"ãĤĪãĤĬãĤĤ":11811,"ç¾İè¡ĵ":11812,"ãģĹãģ¾ãģĨ":11813,"ĠDouglas":11814,"ãģ«å¯¾ãģĹ":11815,"rapy":11816,"Ġmissing":11817,"ĠWy":11818,"å½¼ãģ®":11819,"Ġdebate":11820,"Ġdepos":11821,"Ġdifference":11822,"Ġur":11823,"æľįåĭĻ":11824,"åºĬ":11825,"ãģĵãĤĮãĤīãģ®":11826,"Ġ39":11827,"ĠDNA":11828,"å¹£":11829,"Ġadap":11830,"Ġdeclined":11831,"èĵĭ":11832,"ĠFac":11833,"ãģ§ãģĤãĤĭãģĮ":11834,"Ġbran":11835,"ĠHans":11836,"Ġfilled":11837,"ç³ĸ":11838,"ĠLanc":11839,"èįĴ":11840,"Ġroutes":11841,"ĠNa":11842,"ï¼ĮãĢĬ":11843,"Ġê°ĻìĿĢ":11844,"ista":11845,"Ġì§ĢìĹŃ":11846,"èĦĪ":11847,"ç²ī":11848,"æĪĲåĵ¡":11849,"ĠDig":11850,"ãĤĴéĸĭå§ĭ":11851,"Ġmanner":11852,"dam":11853,"ãģĻãĤĭãģĮ":11854,"è¦ıå®ļ":11855,"ãĥīãĥ©ãĥŀ":11856,"Ġconstituency":11857,"ĠMississ":11858,"rene":11859,"Dist":11860,"Ġpoverty":11861,"íķŃ":11862,"stances":11863,"uster":11864,"ĠTurkey":11865,"ardo":11866,"iley":11867,"ä¸¤ä¸ª":11868,"Ġtouchdown":11869,"ĠPolit":11870,"åĪĨåŃĲ":11871,"Ġtesting":11872,"Ġdevices":11873,"Ġ1880":11874,"ĠìŀĲìĭł":11875,"Ġsigning":11876,"ä¸įä¹ħ":11877,"Ġmessage":11878,"Ġteen":11879,"Ġsupposed":11880,"Ġbenefit":11881,"Ġuniform":11882,"Ġstudying":11883,"ĠíĻĶ":11884,"Ġscheme":11885,"Ġoffering":11886,"ë§¤":11887,"Ġreleg":11888,"Ġfiction":11889,"ë²ł":11890,"ĠDetroit":11891,"elson":11892,"ication":11893,"hol":11894,"Ġpicture":11895,"ä»įçĦ¶":11896,"Ġresidential":11897,"æīİ":11898,"Ġmemorial":11899,"atically":11900,"Ġhuge":11901,"å©¦":11902,"ãĥ¼ãĥªãĥ¼":11903,"%,":11904,"ãĤ¹ãĥĨãĤ£":11905,"ãĤĴè¨ĺéĮ²":11906,"Ġoption":11907,"ä¸ĭçļĦ":11908,"Ġgene":11909,"æĪĴ":11910,"èĴĻåı¤":11911,"1973":11912,"æį¢":11913,"Ġcoverage":11914,"æĪĲåĳĺ":11915,"æĿ¡ä»¶":11916,"Ġtack":11917,"Ġaer":11918,"rane":11919,"ĠGordon":11920,"Ġstorage":11921,"Ġbit":11922,"Ġhelping":11923,"Ġprompt":11924,"ĠCra":11925,"assador":11926,"jo":11927,"çµ±éłĺ":11928,"ãģĦãģ§":11929,"ĠHawai":11930,"Ġmurd":11931,"ĠPear":11932,"ãĤ¤ãĥ³ãĥī":11933,"ĠMoore":11934,"eed":11935,"éĢ£ç¶ļ":11936,"Ġsequence":11937,"ĠBuck":11938,"icut":11939,"ĠDC":11940,"ä¼ĺ":11941,"æľĢä½³":11942,"ĠSilver":11943,"è»Ĭç«Ļ":11944,"Ġcredited":11945,"ĠOpera":11946,"laimed":11947,"Ġcorrect":11948,"ãģ«ãģªãģ£ãģ¦ãģĦãĤĭ":11949,"Ġtemporary":11950,"ãĤĴä½ľ":11951,"ĠCommander":11952,"ãģĭãĤĮãģŁ":11953,"ĠRem":11954,"ç·ļãģ®":11955,"iency":11956,"Ġfactor":11957,"ä¸Ģéĥ¨":11958,"Ġmolec":11959,"Ġbirds":11960,"íķĺë©°":11961,"çģµ":11962,"ãĥĭãĥ¥ãĥ¼ãĥ":11963,"ê¸°ëıĦ":11964,"Ġreplacement":11965,"Ġactors":11966,"ĠìĻ¸":11967,"Ġmeets":11968,"æ´¾éģ£":11969,"Ġaccompl":11970,"åĨ²":11971,"çĹĽ":11972,"ĠCommonwealth":11973,"Ġsed":11974,"Ġjobs":11975,"Ġ1908":11976,"å¤§ãģįãģı":11977,"Ġwooden":11978,"Ġfrag":11979,"Ġimag":11980,"Ġheads":11981,"aine":11982,"Ġexpect":11983,"ĠInn":11984,"Ġrequirements":11985,"inding":11986,"å¼ģ":11987,"æ¬ł":11988,"ext":11989,"ĠPatrick":11990,"ocks":11991,"ãĤĴåĭĻãĤģãģŁ":11992,"Ġknew":11993,"Ġì²ĺ":11994,"Ġsoil":11995,"ç¬ĳ":11996,"Ġcelebrated":11997,"teenth":11998,"Ġë³¸":11999,"ĠOperation":12000,"phone":12001,"Ġdiagn":12002,"power":12003,"tenance":12004,"ĠJuan":12005,"ãĥĩãĤ£ãĤ¢":12006,"æķı":12007,"mosp":12008,"ë²Ī":12009,"tery":12010,"åĲĮçĽŁ":12011,"Ġrequires":12012,"Ġcrop":12013,"è£ħç½®":12014,"Ġinstance":12015,"èªķ":12016,"Ġbanks":12017,"åħ©åĢĭ":12018,"ĠBrian":12019,"astery":12020,"Ġwithdraw":12021,"Ġappointment":12022,"æ³Ľ":12023,"Ġsuccessor":12024,"ìĿ´ëĤĺ":12025,"Ġunderstand":12026,"inian":12027,"åĤ¾":12028,"ĠVienna":12029,"Äĥ":12030,"iege":12031,"otte":12032,"å°İåħ¥":12033,"ãĤ·ãĥ³ãĤ°ãĥ«":12034,"anton":12035,"Ġpremiered":12036,"Ġë³Ģ":12037,"amps":12038,"ĠReserve":12039,"Ġprohib":12040,"inter":12041,"ĠLet":12042,"Ġdating":12043,"Ġliqu":12044,"ĠMrs":12045,"Ġstrongly":12046,"á»":12047,"Ġrelief":12048,"Ġunf":12049,"umin":12050,"ĠCooper":12051,"oslav":12052,"Ġrestaurant":12053,"adow":12054,"1974":12055,"1940":12056,"ãĥ¢ãĥĩãĥ«":12057,"rage":12058,"ĠRet":12059,"Ġcommemor":12060,"Ġdies":12061,"Ġcarbon":12062,"íķĺì§Ģ":12063,"Ġunp":12064,"ä¼ļèŃ°":12065,"åĬ´åĥį":12066,"ç·¨æĪĲ":12067,"Ġinvolvement":12068,"1976":12069,"ĠIl":12070,"Ġë¬¼":12071,"å°ĤéĸĢ":12072,"ãĥįãĥĥãĥĪ":12073,"Ġartillery":12074,"Ġsecure":12075,"åľ°éľĩ":12076,"èĩªåĭķè»Ĭ":12077,"ogan":12078,"Ġjazz":12079,"ĠColonel":12080,"ĠMand":12081,"ëĿ¼ê³ł":12082,"Ġnortheast":12083,"éģİç¨ĭ":12084,"Ġbringing":12085,"ç¦ģæŃ¢":12086,"ĠStra":12087,"Ġpainter":12088,"ĠThird":12089,"uri":12090,"Ġëĭ¤ë¥¸":12091,"Ġfinding":12092,"å¥¹çļĦ":12093,"lected":12094,"ĠModern":12095,"ĠKentucky":12096,"700":12097,"Ġorganisation":12098,"äº¤æµģ":12099,"Ġcontra":12100,"ĠGulf":12101,"ĠRang":12102,"ãĤĴä½¿":12103,"Ġanything":12104,"Ġadvis":12105,"Dav":12106,"1930":12107,"Ġcolour":12108,"ĠNA":12109,"Ġkingdom":12110,"Ġmedium":12111,"Ġelectronic":12112,"Ġë¶ģ":12113,"Ġprotected":12114,"ãĥĪãĥ¬":12115,"PR":12116,"ãĥ³ãĥĨãĤ£":12117,"Ġfly":12118,"æĿ¥æŃ´":12119,"èıľ":12120,"è»¸":12121,"Ġsynthe":12122,"Ġfixed":12123,"miral":12124,"æ¦®":12125,"Ġtruck":12126,"uy":12127,"ĠLas":12128,"ĠLyn":12129,"Ġíģ¬":12130,"ä¼ļè®®":12131,"Ġgather":12132,"åı¤ä»£":12133,"ĠCroat":12134,"Ġappeal":12135,"ĠGram":12136,"ÃĹ":12137,"TS":12138,"ìĿ´ë©°":12139,"ãĤ¢ãĥ¡ãĥªãĤ«åĲĪè¡Ĩ":12140,"ĠMiami":12141,"election":12142,"iece":12143,"insula":12144,"Ġentering":12145,"ĠLiverpool":12146,"Ġjustice":12147,"ĠStew":12148,"ĠSri":12149,"Ġdie":12150,"è¶Ļ":12151,"etime":12152,"imore":12153,"çŃīäºº":12154,"ocracy":12155,"bishop":12156,"Ġalcoh":12157,"ĠBush":12158,"èĬĿ":12159,"anch":12160,"Ġdeputy":12161,"çļĦäººåı£":12162,"1968":12163,"Ġíĺ¸":12164,"tha":12165,"ĠRegional":12166,"åĽĽå¹´":12167,"ĠSenior":12168,"Ġmanuscript":12169,"Ġsubmar":12170,"éģ¸åĩº":12171,"aron":12172,"ĠTel":12173,"çĽ¸å½ĵ":12174,"Ġvide":12175,"çĤİ":12176,"åĹ":12177,"ç´Ĳ":12178,"Ġstarring":12179,"ãĥ¬ãĥ¼ãĤ¹":12180,"å´©":12181,"æĭĵ":12182,"Ġuniversities":12183,"asure":12184,"Ġachieve":12185,"ĠGrant":12186,"Ġcold":12187,"ĠCrown":12188,"eland":12189,"ãĤŃãĥ£ãĥ©ãĤ¯ãĤ¿ãĥ¼":12190,"1977":12191,"çĶ·åŃĲ":12192,"acher":12193,"ãĥĹãĥ¬ãĤ¤":12194,"ĠHarris":12195,"éĻº":12196,"ãĤĴå§ĭ":12197,"ellite":12198,"Ġsuspend":12199,"You":12200,"Ġperfect":12201,"ãģ®ãģ¡":12202,"Ġê°ģ":12203,"Ġtell":12204,"Ġadding":12205,"åľ¨æŃ¤":12206,"Ð¾Ð":12207,"ĠGib":12208,"åĨħãģ«":12209,"ĠAfghan":12210,"evin":12211,"pers":12212,"Ġfit":12213,"ãģ®å¾Į":12214,"ĠStat":12215,"comm":12216,"Ġformally":12217,"ĠBart":12218,"Ġvisitors":12219,"ä»ı":12220,"ĠAdditionally":12221,"Orig":12222,"ĠFIFA":12223,"ĠIron":12224,"ĠNik":12225,"ĠìĿĮ":12226,"writer":12227,"03":12228,"æµ·å²¸":12229,"lahoma":12230,"Ġdecline":12231,"è¼ķ":12232,"Ġstruck":12233,"Ġdated":12234,"ĠAssoci":12235,"Ġtransition":12236,"di":12237,"é¡º":12238,"ë³µ":12239,"è¨ĵç·´":12240,"ĠPeace":12241,"ì²ĺ":12242,"ĠëĴ":12243,".'":12244,"å¯¿":12245,"Ġ1905":12246,"ãĤıãĤĭ":12247,"ĠJay":12248,"Ġaccounts":12249,"Ġcycl":12250,"Ġrose":12251,"merce":12252,"ĠArk":12253,"Ġplate":12254,"ãģĭãģ¤ãģ¦":12255,"ãĥģãĥ¥":12256,"Ġweeke":12257,"ĠëĺĲíķľ":12258,"æĮĩåĩº":12259,"ahn":12260,"èģ¯åĲĪ":12261,"found":12262,"ĠÄ":12263,"çĶ¨ãģ®":12264,"ãĥĲãĥ³ãĥī":12265,"åĮħåĲ«":12266,"xual":12267,"é¦ĸéĥ½":12268,"è¨³":12269,"Ġclassic":12270,"Ġlawyer":12271,"ĠJam":12272,"çµĮåĸ¶":12273,"arner":12274,"Ġdream":12275,"ãĥĵãĥ«":12276,"ä¸ŃåŃ¦":12277,"æģĭ":12278,"isition":12279,"ĠCow":12280,"Ġë²Ī":12281,"lov":12282,"åħ¨éĥ¨":12283,"Ġspiritual":12284,"Ġ41":12285,"ĠPhys":12286,"ivated":12287,"allas":12288,"Ġhappened":12289,"ĠDeputy":12290,"å¸Ĥãģ®":12291,"Ġtranslated":12292,"ĠEric":12293,"æµ·å¤ĸ":12294,"èģĶåĲĪ":12295,"´ī":12296,"Ġnote":12297,"ruption":12298,"atherine":12299,"race":12300,"çī¹æ®Ĭ":12301,"poss":12302,"ĠTokyo":12303,"ĠNi":12304,"Ġgrown":12305,"Ġì§ģ":12306,"ĠCook":12307,"å¼Ĥ":12308,"Ġrelative":12309,"Ġaffairs":12310,"eline":12311,"è½»":12312,"ĠLin":12313,"ĠSel":12314,"ĠRun":12315,"ĠKennedy":12316,"Ġsumm":12317,"lad":12318,"ĠDream":12319,"ĠRoberts":12320,"EN":12321,"ĠGarden":12322,"åĪĩãĤĬ":12323,"hard":12324,"Ġfal":12325,"Ġsynd":12326,"Ġ1906":12327,"ĠMission":12328,"éģİåİ»":12329,"uerto":12330,"ĠHere":12331,"éĥ¨ãģ«":12332,"Ġfalls":12333,"ãĥĥãĤ°":12334,"Ġauthors":12335,"ester":12336,"Ġthing":12337,"crib":12338,"æłĳ":12339,"æ§ĺãĢħãģª":12340,"Ġweekly":12341,"eping":12342,"ĠBan":12343,"Play":12344,"çĳª":12345,"Ġcited":12346,"Ġmobile":12347,"Ġ1907":12348,"Ġrend":12349,"Ġcool":12350,"bach":12351,"Ġdrew":12352,"1969":12353,"Ġappearing":12354,"ä¿Ĭ":12355,"éģĭè»¢":12356,"Ġble":12357,"ĠPhill":12358,"nal":12359,"ridges":12360,"ç§»ç±į":12361,"otten":12362,"1971":12363,"Ġotherwise":12364,"called":12365,"Ġweak":12366,"Ġeverything":12367,"rell":12368,"Ġrefere":12369,"Ġattracted":12370,"Ġtraveled":12371,"ãģ«åĬł":12372,"rik":12373,"02":12374,"åįĹåĮĹ":12375,"ĠDisney":12376,"Ġconcrete":12377,"Ġfra":12378,"è¡ĮæĶ¿åįĢ":12379,"Ġ120":12380,"ĠìĥĪ":12381,"Ġevolution":12382,"ĠAntonio":12383,"Ķëĭ¤":12384,"Ġoperates":12385,"Ġpublications":12386,"Ġëĭ¬":12387,"åľĭæ°ĳ":12388,"ìłĪ":12389,"Ġpray":12390,"ĠPrix":12391,"iac":12392,"Ġgrass":12393,"Ġvessels":12394,"çłĤ":12395,"èĻ«":12396,"asts":12397,"æ¥ļ":12398,"å°¼äºļ":12399,"unities":12400,"ä¹Ļ":12401,"har":12402,"ãĥĹãĥª":12403,"ãģĹãģ¦ãģĦãģŁãģĮ":12404,"Ġartistic":12405,"Ġspeak":12406,"Ġhang":12407,"ãĥķãĥ¬":12408,"wen":12409,"Ġwheel":12410,"ĠProte":12411,"Ġreun":12412,"Ġê²½ìļ°":12413,"ĠBry":12414,"Ġexperiences":12415,"Ġsufficient":12416,"Ġfilmed":12417,"ĠAle":12418,"å»Ł":12419,"Ġpoem":12420,"èĮĤ":12421,"ĠDaily":12422,"ãģ¨åĲĮãģĺ":12423,"MI":12424,"æĶĿ":12425,"vo":12426,"1920":12427,"ĠJordan":12428,"èį£":12429,"Ġfled":12430,"Ġpreced":12431,"Ġprovincial":12432,"ä¹³":12433,"erg":12434,"HK":12435,"ĠCru":12436,"sch":12437,"çī¹å®ļ":12438,"ãĥ³ãĥŀ":12439,"çļĦæĸ°":12440,"æŃĮæīĭ":12441,"Ġprocesses":12442,"ussian":12443,"ĠEag":12444,"æľīåĲį":12445,"ĠErn":12446,"ãģ®ä¸Ĭ":12447,"ĠABC":12448,"Ġneighbour":12449,"Ġstrate":12450,"ãĥªãĥªãĥ¼ãĤ¹":12451,"Ġexpert":12452,"Ġvocals":12453,"é½Ĭ":12454,"ìķħ":12455,"Ġdonated":12456,"Ġclimb":12457,"æĹ¥ãģĭãĤī":12458,"olph":12459,"Ġillegal":12460,"ãģ«åĩºåł´":12461,"æıļ":12462,"Ġteach":12463,"AL":12464,"ãģ¨ãģĹãģ¦ãģĦãĤĭ":12465,"Ġëł":12466,"igg":12467,"Ġ,":12468,"Ġtur":12469,"Ġmental":12470,"ĠHit":12471,"Ġstrategy":12472,"ĠMargaret":12473,"Ġ55":12474,"Ġrecip":12475,"itals":12476,"Ġmob":12477,"ĠIndependent":12478,"Ġoffensive":12479,"ĠWinter":12480,"ĠWhe":12481,"chang":12482,"åı¯èĥ½æĢ§":12483,"Ġ1870":12484,"éĬĥ":12485,"ĠSon":12486,"Ġfishing":12487,"odd":12488,"orf":12489,"ighters":12490,"Ġelder":12491,"Ġpapers":12492,"æĬ±":12493,"çĲĨäºĭ":12494,"Ġmanufacturing":12495,"olly":12496,"Ġmonument":12497,"å°ī":12498,"Ġdefensive":12499,"asters":12500,"Ġpric":12501,"èĳĽ":12502,"org":12503,"Ġexception":12504,"break":12505,"ĠIowa":12506,"éĤĢ":12507,"æ³½":12508,"Ġshif":12509,"ä¿ĿæĮģ":12510,"Ġenfor":12511,"çİĦ":12512,"íĻ©":12513,"Ġforming":12514,"ãĤ³ãĥ¼ãĥī":12515,"ĠMontreal":12516,"å¯¾æĪ¦":12517,"ãģ«ãģĬãģĦãģ¦ãģ¯":12518,"Ġcompletion":12519,"Ġíĳľ":12520,"Ġê·¸ìĿĺ":12521,"Ġì´Ŀ":12522,"ãĥ¢ãĥ³":12523,"åĳ¨è¾º":12524,"é¬¼":12525,"èĶ¡":12526,"åİ»ä¸ĸ":12527,"ĠKam":12528,"ethod":12529,"Ġham":12530,"Ġseventh":12531,"Ġinstruments":12532,"çļĦä¸»":12533,"æĵįä½ľ":12534,"Ġmarkets":12535,"ework":12536,"æľīéĻĲåħ¬åı¸":12537,"ultan":12538,"Ġcontinuing":12539,"Ġsurrounded":12540,"ĠMississippi":12541,"Ġdefeating":12542,"çĨŁ":12543,"Ġëª©":12544,"Ġwave":12545,"ĠCathedral":12546,"ĠMcK":12547,"Ġë¯¸êµŃ":12548,"ĠíķĻ":12549,"intend":12550,"Ġrestrict":12551,"ãģ«ãģªãģ£ãģ¦":12552,"é¡»":12553,"ĠConvention":12554,"ĠNag":12555,"ĠKarl":12556,"ĠAgency":12557,"åĢĻè£ľ":12558,"erted":12559,"è½¦ç«Ļ":12560,"ĠWW":12561,"æ¯ıå¹³æĸ¹åħ¬éĩĮ":12562,"ĠíĶĦë¡ľ":12563,"ĠRegion":12564,"ãĤĴåıĸãĤĬ":12565,"Ġextens":12566,"äººæ°ĳåħ±åĴĮåĽ½":12567,"Ġassass":12568,"BO":12569,"ì³":12570,"è¿ģ":12571,"ãĤ¢ãĤ¯":12572,"å¯¾è±¡":12573,"Ġdang":12574,"ãģĦãģ«":12575,"Ġgreatly":12576,"Ġlasted":12577,"çĶŁãģ¾ãĤĮ":12578,"Ġinfluential":12579,"My":12580,"Ġroughly":12581,"ned":12582,"éĻ°":12583,"è£ı":12584,"ãģ®ä¸ĭ":12585,"è»Įéģĵ":12586,"åĪĨåĪ¥":12587,"ç¥ŀç¤¾":12588,"Ġencouraged":12589,"Ġlosses":12590,"Ġdim":12591,"è¥¿åįĹ":12592,"Ġbes":12593,"ĠAud":12594,"igrated":12595,"ãĥ©ãĤ¤ãĥĸ":12596,"è§£éĩ":12597,"Ġcamera":12598,"ĠFinn":12599,"ivation":12600,"hus":12601,"ãĥ¼ãĥ´":12602,"Ġspoke":12603,"ãĤ¢ãĥĬ":12604,"Ġ1909":12605,"Ġexpos":12606,"åģ¶":12607,"din":12608,"If":12609,"ushing":12610,"Ġacted":12611,"Ġwarm":12612,"ãĥ¬ãĤ¯":12613,"Ġê°Ħ":12614,"zi":12615,"Ġvisiting":12616,"mate":12617,"ĠMorgan":12618,"éĢļä¿¡":12619,"theless":12620,"Ġsomewhat":12621,"ĠLane":12622,"Ġplane":12623,"ç¨¿":12624,"ä¸įæĺİ":12625,"æĻĤãģ®":12626,"olo":12627,"ĠAmb":12628,"ìĹĲëıĦ":12629,"Ġjuris":12630,"HS":12631,"è¡¡":12632,"Ġeffectively":12633,"ĠBack":12634,"Ġsudden":12635,"Ġwrong":12636,"æ´Ĺ":12637,"Production":12638,"ĠLang":12639,"from":12640,"Ġvic":12641,"ĠEarly":12642,"æĳĦ":12643,"1967":12644,"ĠPed":12645,"ported":12646,"ãģĵãģĵ":12647,"Ac":12648,"Ġapproval":12649,"ĠDenmark":12650,"ilit":12651,"Ġabsor":12652,"Ġdynasty":12653,"ë§Ŀ":12654,"aste":12655,"ĠDanish":12656,"ignment":12657,"Ġsolution":12658,"Ġìĺ¬":12659,"mod":12660,"Ġsuicide":12661,"ĠBelgium":12662,"ĠHonor":12663,"ĠAlban":12664,"Ġcook":12665,"ĠConfeder":12666,"å®ĺæĸ¹":12667,"ĠDefense":12668,"Ġbegun":12669,"Ġëĭ¹ìĭľ":12670,"ä»»åĭĻ":12671,"Ġnorthwest":12672,"Ġtranslation":12673,"Ġexecuted":12674,"æĶ¿æ²»äººçī©":12675,"AD":12676,"Ġmedieval":12677,"éģĹ":12678,"World":12679,"ĠYour":12680,"ãĤ¤ãĥī":12681,"ĠAtlanta":12682,"Ġassembly":12683,"Ġoutput":12684,"Ġru":12685,"ĠOklahoma":12686,"Ġeval":12687,"Ġê²ĥìĿĦ":12688,"ä½ıå®ħ":12689,"Ġreplacing":12690,"ĠKings":12691,"ĠPeters":12692,"graduate":12693,"Ġequipped":12694,"Ġreact":12695,"ilarly":12696,"çŃ¾":12697,"hyth":12698,"Ġvo":12699,"ãĤ¿ãĥ«":12700,"ĠHistoric":12701,"ä¸°":12702,"Ġvision":12703,"Ġbattles":12704,"æī©":12705,"å¸Ĥéķĩ":12706,"1964":12707,"Ġafterwards":12708,"Ġrapidly":12709,"ĠOrthodox":12710,"ĠMicro":12711,"äººãĤĴ":12712,"Ġhits":12713,"åĪĨåĪ«":12714,"Ġcontroversial":12715,"ĠQuebec":12716,"å¡ĺ":12717,"ãĥłãģ®":12718,"ä¼į":12719,"Ġrepro":12720,"ãĤĴçĶ¨":12721,"Ġvert":12722,"Ġben":12723,"äººå£«":12724,"ĠAlexand":12725,"1966":12726,"Bl":12727,"ãĥĵãĤ¢":12728,"Ġëģ":12729,"éĻ·":12730,"åĬ³":12731,"ä¸Ģåº¦":12732,"emen":12733,"Ġintention":12734,"Ġcovering":12735,"Ġpitch":12736,"ĠMunic":12737,"Ġwine":12738,"åŁ·è¡Į":12739,"è¥¿åĮĹ":12740,"Ġamend":12741,"ä¸įåĲĮçļĦ":12742,"ĠMach":12743,"Ġprint":12744,"äºĭãĤĴ":12745,"chell":12746,"Ġrecommended":12747,"å¸Ĥéİ®":12748,"ĠMatthew":12749,"Qu":12750,"Ġdrawing":12751,"ĠFM":12752,"ĠíĸĪëĭ¤":12753,"ãĥ¼ãĥ«ãģ®":12754,"æģ¢":12755,"However":12756,"Ġchapel":12757,"åĭŀ":12758,"ĠDean":12759,"ĠAnthony":12760,"ĠAnna":12761,"Ġconstruct":12762,"ĠConnecticut":12763,"ç¢ºèªį":12764,"acon":12765,"Ġmeetings":12766,"ãĤ½ãĥķãĥĪ":12767,"SU":12768,"ĠPuerto":12769,"ç¤İ":12770,"ãģ«åĪĨ":12771,"roup":12772,"ãĥ¼ãĥ©ãĥ³ãĥī":12773,"æĻĤçĤ¹":12774,"iki":12775,"æĽ¸è¨ĺ":12776,"ä¸īåįģ":12777,"æĵ´":12778,"Ġdowntown":12779,"éģĭåĸ¶":12780,"Ġfurn":12781,"ì±":12782,"pes":12783,"éĽľ":12784,"Ġhorses":12785,"ĠDark":12786,"èį¯":12787,"ãģ«éĢ²":12788,"Ġcoastal":12789,"essions":12790,"Ġadopt":12791,"Ġremember":12792,"æį·":12793,"å±¯":12794,"åħ¥ãĤĮ":12795,"ĠHand":12796,"Ġneut":12797,"ĠFal":12798,"oviÄĩ":12799,"ĠCost":12800,"éĶĢ":12801,"çİĽ":12802,"cts":12803,"åĽ½ç«ĭ":12804,"rett":12805,"ĠLiter":12806,"æĬĳ":12807,"Ġnewspapers":12808,"1965":12809,"Ġmassive":12810,"ĠFleet":12811,"Ġpregn":12812,"ç´«":12813,"Ġintellect":12814,"è£ķ":12815,"Ġtreated":12816,"1946":12817,"ĠRow":12818,"åį¢":12819,"ìłĢ":12820,"ĠArgentina":12821,"ãģ§ãģįãģªãģĦ":12822,"ĠColomb":12823,"Ġacknow":12824,"ãĤµãĥ¼ãĥĵ":12825,"Ġsurf":12826,"æĸ¯åĿ¦":12827,"çµ±æ²»":12828,"Ġsupplies":12829,"Ġdivisions":12830,"ĠSeattle":12831,"look":12832,"çĬ¶æ³ģ":12833,"ashed":12834,"rove":12835,"ĠLawrence":12836,"ĠNar":12837,"uj":12838,"Ġskin":12839,"ä¸Ģå¹´":12840,"ãģ®ä¸Ńãģ§":12841,"Ġë¯¼":12842,"Ġchanging":12843,"èĹĿè¡ĵ":12844,"Ġ52":12845,"1000":12846,"ĠBull":12847,"ç½Ĺæĸ¯":12848,"Ġcatch":12849,"ç¥Ŀ":12850,"åĲĳãģĳ":12851,"ç«ĭãģ¦":12852,"å¾µ":12853,"Ġhundreds":12854,"ĠHop":12855,"ĠSport":12856,"ĠGlas":12857,"veland":12858,"ĠStudios":12859,"å¤©æ´¥":12860,"labama":12861,"1958":12862,"ãĥ³ãģ«":12863,"Ġsuffering":12864,"Ġnet":12865,"è¼¸éĢģ":12866,"ĠLam":12867,"120":12868,"Ġnovels":12869,"Ġsurviving":12870,"Ġconcerned":12871,"Ġsupporters":12872,"Ġcricket":12873,"xts":12874,"Ġmir":12875,"çķ¢æ¥Ń":12876,"è¯Ĺ":12877,"å¤§çµ±éłĺ":12878,"ĠTerrit":12879,"è±Ĳ":12880,"åĲĮæĻĤãģ«":12881,"æłĦ":12882,"Ġì§ĳ":12883,"éĬ·":12884,"letics":12885,"ãĥĥãĤ«ãĥ¼":12886,"éĺ¿æĭī":12887,"rient":12888,"æ¯ķä¸ļ":12889,"Ġ1902":12890,"çĦ¼":12891,"ĠSR":12892,"ä¸įè¶³":12893,"Ġthreatened":12894,"ĠPict":12895,"Ġfest":12896,"Ġposted":12897,"ĠBrothers":12898,"çĨĻ":12899,"çµ±ä¸Ģ":12900,"ographical":12901,"èĹ¥":12902,"ĠNazi":12903,"ä½įæĸ¼è©²":12904,"ĠStr":12905,"Ġemergency":12906,"ãĤªãĥ¼ãĤ¹ãĥĪ":12907,"ĠPow":12908,"é¥°":12909,"å²³":12910,"Ġcouples":12911,"æİĺ":12912,"Ġë²ł":12913,"idency":12914,"íķĺëĭ¤":12915,"otype":12916,"æĴ®å½±":12917,"inction":12918,"éĥĬ":12919,"å½ĵåľ°":12920,"åĩ±":12921,"Ġmovements":12922,"Ġretain":12923,"250":12924,"Ġatmosp":12925,"ingly":12926,"ĠChile":12927,"TO":12928,"çķ°ãģªãĤĭ":12929,"Ġframe":12930,"ifer":12931,"mingham":12932,"ì§ĳ":12933,"soft":12934,"Ġhockey":12935,"West":12936,"anny":12937,"Ġloyal":12938,"é©»":12939,"ç§ĳåŃ¸":12940,"SO":12941,"ĠAlliance":12942,"Ġrecept":12943,"ãģ¨æĢĿ":12944,"åľĪ":12945,"gow":12946,"Ġbranches":12947,"Ġgone":12948,"ĠPitts":12949,"Ġsurgery":12950,"Ġrecre":12951,"èŃ°éĻ¢":12952,"æĻ¶":12953,"Ġtact":12954,"ĠGermans":12955,"ĠëķĮë¬¸ìĹĲ":12956,"ige":12957,"Ġ43":12958,"ogle":12959,"ç·Ĭ":12960,"acc":12961,"æĪĸèĢħ":12962,"ãĥĨãĥ«":12963,"çı¾åľ¨ãģ¯":12964,"çĳŁ":12965,"æľĥèŃ°":12966,"è¾ĵ":12967,"ä¸»æĮģ":12968,"âĢī":12969,"ç¯ĢçĽ®":12970,"ä¸Ģå®ļ":12971,"Ġster":12972,"Ġapparently":12973,"ê¸°ë¥¼":12974,"ĠNev":12975,"ãģĤãĤĭãģĦãģ¯":12976,"æ¥ŃåĭĻ":12977,"Ġundert":12978,"Ġ1904":12979,"ĠEnvironment":12980,"Ġwhilst":12981,"èº«ä»½":12982,"Ġcolony":12983,"åłħ":12984,"resents":12985,"ĠMoon":12986,"Ġseed":12987,"Bet":12988,"Ġcards":12989,"éģĭçĶ¨":12990,"Ġhosts":12991,"ĠCleveland":12992,"Ġexisted":12993,"ç¾ħæĸ¯":12994,"éĽ¶":12995,"ĠChamber":12996,"Ġvessel":12997,"è¶ĬåįĹ":12998,"ĠRol":12999,"ĠWalker":13000,"mat":13001,"éĦŃ":13002,"ãĤ¿ãĤ¤ãĥĪãĥ«":13003,"ä»®":13004,"æ¬§æ´²":13005,"ĠBroadway":13006,"Ġwides":13007,"ãĤŃãĥ¥":13008,"å»ĥæŃ¢":13009,"å¾½":13010,"uda":13011,"Ġtrading":13012,"ĠGlobal":13013,"elli":13014,"ĠShah":13015,"Ġmodified":13016,"ìĭľìķĦ":13017,"ĠPap":13018,"ê¸°ìĹĲ":13019,"Ġpenalty":13020,"ĠSaf":13021,"ĠRyan":13022,"ĠìŀĪìĹĪëĭ¤":13023,"Ġhabitat":13024,"Ġcollections":13025,"Ġremainder":13026,"æ¡ĥ":13027,"Many":13028,"'ve":13029,"ÑĤ":13030,"iors":13031,"æŃĲæ´²":13032,"å²Ĳ":13033,"Ġfranchise":13034,"Ġthirty":13035,"ĠPlace":13036,"åİŁåŃĲ":13037,"Ġìķ½":13038,"ãģ®ãĤĤãģ®":13039,"ä½įäºİè¯¥":13040,"Ġequivalent":13041,"otton":13042,"éĢ®":13043,"Ġcomponents":13044,"Ġcircuit":13045,"Ġsnow":13046,"åł´åĲĪãģ¯":13047,"æĿĤ":13048,"ulating":13049,"è»įéļĬ":13050,"AF":13051,"ãĤ¹ãĥĿãĥ¼ãĥĦ":13052,"ĠWelsh":13053,"åĲįä¸º":13054,"ĠMarket":13055,"ĠProtest":13056,"į¼":13057,"ĠInvest":13058,"Ġturning":13059,"Per":13060,"imet":13061,"ĠëĴ¤":13062,"æĪĲçļĦ":13063,"Ġsend":13064,"Mc":13065,"çģ°":13066,"Ġtransportation":13067,"åĬĩåł´":13068,"Ġheritage":13069,"å¡ļ":13070,"Ġdispla":13071,"æľīçļĦ":13072,"ä½ľæĪ¦":13073,"Ġmaintenance":13074,"èīºæľ¯":13075,"%ï¼Į":13076,"Ġdeparture":13077,"æµĻæ±Ł":13078,"ĠAlan":13079,"å¤ªéĥİ":13080,"DC":13081,"Ġclaiming":13082,"æīĵãģ¡":13083,"bridge":13084,"Ġvisible":13085,"éĽĨä¸Ń":13086,"usted":13087,"çį¨ç«ĭ":13088,"inations":13089,"aints":13090,"èĽĭ":13091,"ĠJudge":13092,"osm":13093,"Ġparticipation":13094,"åĲįçĤº":13095,"sea":13096,"Ġreportedly":13097,"æĿ±äº¬éĥ½":13098,"äººåĵ¡":13099,"èħ¹":13100,"è²¿":13101,"Ġinjuries":13102,"auty":13103,"Ġdiscovery":13104,"Ä±":13105,"die":13106,"Ġtow":13107,"ĠLouisiana":13108,"Ġphone":13109,"Ġê²ĥìĿ´":13110,"Ġoccasionally":13111,"terior":13112,"åįļçī©é¤¨":13113,"ctic":13114,"Ġdirectors":13115,"Ġagriculture":13116,"ãĤĴçĽ®":13117,"ç§»åĭķ":13118,"ĠBaltimore":13119,"æ¡Ĥ":13120,"Ġmissions":13121,"çĶ£æ¥Ń":13122,"Ġhope":13123,"pat":13124,"ãģ«ãģĤãģŁ":13125,"ï¼ī_":13126,"Ġlicense":13127,"ãģĭãģĭ":13128,"Ġnickn":13129,"æ¼¸":13130,"èĮ²":13131,"Ġmode":13132,"Ġ1901":13133,"Ġtruth":13134,"attan":13135,"math":13136,"Ġrecordings":13137,"è´µ":13138,"çĽ§":13139,"ĠUkraine":13140,"andal":13141,"Ãł":13142,"Ġcousin":13143,"ç«¶æĬĢ":13144,"resident":13145,"Ġemployment":13146,"ç¬¬äºĮæ¬¡ä¸ĸçķĮå¤§":13147,"ĠDyn":13148,"ĠIndians":13149,"1941":13150,"ĠHeritage":13151,"ĠAuthority":13152,"ãĥŀãĥ¼":13153,"Ġattending":13154,"åĥ§":13155,"Ġgradually":13156,"Ġturb":13157,"æķ´åĤĻ":13158,"ĠTheater":13159,"Ġfruit":13160,"ivate":13161,"è´Ń":13162,"ãĤĭãģĵãģ¨ãģĮ":13163,"ãĥ©ãĤ¸ãĤª":13164,"ĠYan":13165,"è»Ł":13166,"Ġplanet":13167,"ĠBuff":13168,"è®Ń":13169,"roke":13170,"Ġhearing":13171,"äº¿":13172,"ĠRick":13173,"abilities":13174,"ãĤīãĤĮãģ¦ãģĦãģŁ":13175,"rix":13176,"è¡¨éĿ¢":13177,"pread":13178,"ĠPur":13179,"ho":13180,"åĭĿãģ¡":13181,"åŁĭ":13182,"Ġfil":13183,"èĩºçģ£":13184,"Ġerected":13185,"ãĥ¼ãĥĻ":13186,"Ġindicated":13187,"amental":13188,"åĮĸåŃ¦":13189,"ĠInstead":13190,"ĠNav":13191,"çĽ¸åĲĮ":13192,"Tube":13193,"1948":13194,"èĬĤçĽ®":13195,"ando":13196,"olds":13197,"ĠSingh":13198,"åĩ½":13199,"åį¿":13200,"stan":13201,"Ġtools":13202,"Ġsatisf":13203,"ĠLaure":13204,"Ġsafe":13205,"åŁºç¤İ":13206,"apolis":13207,"åĲĮä¸Ģ":13208,"ancell":13209,"ĠFriend":13210,"rehens":13211,"icon":13212,"Ġspending":13213,"æ£ĭ":13214,"Ġrif":13215,"ĠìłĢ":13216,"Ġ1903":13217,"é¶":13218,"Ġlandscape":13219,"è´¢":13220,"Ġopportunities":13221,"ĠHamp":13222,"Work":13223,"Ġdefence":13224,"ĠìłĲ":13225,"èĬ³":13226,"Ġunderground":13227,"åŃĲä¾Ľ":13228,"ç¶ŃæĮģ":13229,"Ġeveryone":13230,"Ġthousand":13231,"ĠAlabama":13232,"ials":13233,"Ġexcell":13234,"Ġregime":13235,"ĠApp":13236,"rang":13237,"Ġtests":13238,"ãĤ¢ãĥķ":13239,"Ġinfrastructure":13240,"æ³Ĭ":13241,"WA":13242,"ĠArchitect":13243,"icop":13244,"ãģ¯ãģĺ":13245,"å¤ªéĻ½":13246,"aman":13247,"Ã«":13248,"æłªå¼ıä¼ļç¤¾":13249,"Ġwants":13250,"ologists":13251,"aptist":13252,"ãģ¯ãģĵãģ®":13253,"è¨ĺè¼ī":13254,"åºĻ":13255,"çļĦãģ«ãģ¯":13256,"1944":13257,"ä¸įéģİ":13258,"Ġworksh":13259,"ä¸įè¿ĩ":13260,"ithuan":13261,"ĠBachelor":13262,"æĢĴ":13263,"ĠMountains":13264,"ãĤĴä½¿çĶ¨":13265,"usalem":13266,"ĠAustrian":13267,"Ġinfantry":13268,"Ġboats":13269,"Not":13270,"æ¿ĥ":13271,"ĠëłĪ":13272,"Ġrepresents":13273,"æı¡":13274,"Ġcharacteristics":13275,"ĠTaiwan":13276,"ĠGri":13277,"æĽ¸é¤¨":13278,"é²ľ":13279,"ãĤ¢ãĤ¸ãĤ¢":13280,"Ġplus":13281,"casting":13282,"Ġillness":13283,"wall":13284,"ç«ĭæ³ķ":13285,"Ġemerged":13286,"Ġadaptation":13287,"äººåı£å¯Ĩåº¦æ¯ıå¹³æĸ¹åħ¬éĩĮ":13288,"Ġshares":13289,"Ġ47":13290,"çĸ¾":13291,"ĠFern":13292,"éļ£":13293,"Ġtoured":13294,"æııè¿°":13295,"ãĤ¹ãĥ¼ãĥĳ":13296,"ç®±":13297,"é£²":13298,"äººéĸĵ":13299,"ilty":13300,"æ¼ĶåĶ±":13301,"UN":13302,"ourse":13303,"Ġpanel":13304,"æĻī":13305,"éĭ¼":13306,"Ġrescue":13307,"Ġconcerts":13308,"Ġsees":13309,"Ġtheore":13310,"Ġedited":13311,"host":13312,"Ã©s":13313,"æµģè¡Į":13314,"Ġready":13315,"ãĤ«ãĥ¼ãĥī":13316,"å°ıãģķ":13317,"åľ°ãģ®":13318,"Ġnav":13319,"Ġproc":13320,"ked":13321,"éĢ®æįķ":13322,"å°ıèª¬":13323,"çĬ¬":13324,"TE":13325,"Ġattributed":13326,"Ġcasual":13327,"Ġlieutenant":13328,"Ġëª»":13329,"ãĤĴåĲ«ãĤĢ":13330,"å¾©å¸°":13331,"master":13332,"Ġmounted":13333,"è£Ķ":13334,"Ġworship":13335,"Ġimmediate":13336,"èªįãĤģ":13337,"åħ»":13338,"ĠEnergy":13339,"ç¬¬äºĶ":13340,"Ġtheat":13341,"ĠPortugal":13342,"rity":13343,"åĽŀåĪ°":13344,"Ġ<":13345,"è¾²æ¥Ń":13346,"ĠHockey":13347,"profit":13348,"å¯¹äºİ":13349,"Ġchapter":13350,"mates":13351,"top":13352,"Ġsym":13353,"ĠSarah":13354,"ãĤ¦ãĥ«":13355,"net":13356,"æĬķåħ¥":13357,"ãĥĭãĥ¥ãĥ¼ãĥ¨":13358,"Ġ51":13359,"å°įæĸ¼":13360,"asa":13361,"Rober":13362,"æ¬²":13363,"ĠíĻķ":13364,"ĠBirmingham":13365,"ĠNash":13366,"Ġpassage":13367,"íļ":13368,"Ġprinted":13369,"lem":13370,"Ġadvertising":13371,"åĨłè»į":13372,"ania":13373,"Ġpopulations":13374,"Ã´":13375,"Ġprime":13376,"ãĤıãĤĮãģ¦ãģĦãĤĭ":13377,"ãģĭãģª":13378,"Ġextent":13379,"Ġamongst":13380,"ë³Ħ":13381,"åĽ£ä½ĵ":13382,"udes":13383,"ĠTraining":13384,"åķŁ":13385,"ĠFive":13386,"çĻºå±ķ":13387,"Ġcompris":13388,"Ġì»":13389,"ultane":13390,"sq":13391,"Can":13392,"Ġbenefits":13393,"Ġnations":13394,"orer":13395,"ulum":13396,"Ġenjoyed":13397,"Christ":13398,"èĢħçļĦ":13399,"ĠRy":13400,"æĢ»ç»Ł":13401,"Ġoverse":13402,"Ġsoutheast":13403,"vy":13404,"1947":13405,"1956":13406,"heastern":13407,"Ġfur":13408,"ĠCare":13409,"Ġ46":13410,"iration":13411,"åĪ©äºŀ":13412,"ãĥĩãĤ¶ãĤ¤ãĥ³":13413,"ogs":13414,"ĠNCAA":13415,"ĠMaur":13416,"éİĸ":13417,"Ġmakeup":13418,"cies":13419,"ĠKelly":13420,"Ġunusual":13421,"ĠSac":13422,"éĢ£éĤ¦":13423,"ãģ»ãģ¼":13424,"Comm":13425,"RI":13426,"ĠWard":13427,"gressive":13428,"åĮ¹":13429,"Ġãģ¯":13430,"ãĥ³ãĥĵ":13431,"Ġmarketing":13432,"Ġvs":13433,"ĠCanal":13434,"Ġabsence":13435,"ĠÃī":13436,"ãĥŁãĥ¥ãĥ¼":13437,"Ġdistinguished":13438,"è²«":13439,"å¤©æĸĩ":13440,"åĩºçļĦ":13441,"çĶŁäº§":13442,"Ġabroad":13443,"åĲ¯":13444,"éĬħ":13445,"é½Ĳ":13446,"ĠRub":13447,"ãĥĭãĥ¥ãĥ¼ãĥ¨ãĥ¼ãĤ¯":13448,"ĠNorman":13449,"ãģ«èĩ³":13450,"ĠBoys":13451,"chi":13452,"ĠConstant":13453,"ãĥ¡ãĥ³ãĥĲãĥ¼":13454,"ĠëĬ":13455,"å¹´åľ¨":13456,"ĠYug":13457,"1963":13458,"Ġflowers":13459,"Ġqualifying":13460,"ni":13461,"Ġboundary":13462,"çĽĸ":13463,"Ġwrites":13464,"ĠRussell":13465,"ĠGran":13466,"ãĥĪãĤ¥":13467,"ĠWhat":13468,"æŁ´":13469,"Ġsubstantial":13470,"çŃīãģ®":13471,"ä¸Ńéĥ¨":13472,"1962":13473,"Ġpatrol":13474,"Ġmountains":13475,"ĠConservative":13476,"ãĢĢãĢĢãĢĢãĢĢ":13477,"åĮĹæµ·éģĵ":13478,"ëĭ¬":13479,"Ġsoul":13480,"Most":13481,"Ġê¸°ë¡Ŀ":13482,"ĠStewart":13483,"Ġlob":13484,"ĠKu":13485,"Ġblocks":13486,"æ¸Ľå°ĳ":13487,"ĠëĲľëĭ¤":13488,"ĠNever":13489,"Ġ1860":13490,"ĠDisc":13491,"HE":13492,"åĭŁ":13493,"æª¢":13494,"è®¿":13495,"Ġbot":13496,"Ġê²ĥìľ¼ë¡ľ":13497,"éĺ¶":13498,"æ£Ĵ":13499,"Î¿":13500,"ranean":13501,"ĠCampbell":13502,"ĠLl":13503,"GA":13504,"Ġsegment":13505,"Ġeasy":13506,"åĩı":13507,"ãģĳãĤĮãģ°":13508,"åĨłåĨĽ":13509,"ãĤ¤ãĥĻ":13510,"aware":13511,"!\"":13512,"Ġdrag":13513,"æħĪ":13514,"ĠFil":13515,"ĠBeat":13516,"Ġflows":13517,"Ġcustomers":13518,"Ġproducers":13519,"ĠTourn":13520,"ĠSud":13521,"ĠDave":13522,"Ġdemolished":13523,"äºĶå¹´":13524,"ç¸½çµ±":13525,"Ġfriendly":13526,"1955":13527,"Ġsuspended":13528,"ãģłãģ£ãģŁãģĮ":13529,"ĠAlfred":13530,"oca":13531,"Post":13532,"Ġmoder":13533,"åħģ":13534,"çİĭåĽ½":13535,"ãĥĥãĤ¸":13536,"Ġswitch":13537,"Ġstatue":13538,"ĠRugby":13539,"Ġentertainment":13540,"ĠRoger":13541,"Ġcrash":13542,"éĢĻç¨®":13543,"íİĺ":13544,"ĠAustin":13545,"ãĥ¦ãĥĭ":13546,"Ġrelocated":13547,"Ġruling":13548,"mal":13549,"ä¸įå°ĳ":13550,"cut":13551,"ìĺĢëĭ¤":13552,"ë¦¼":13553,"hai":13554,"ãģ¾ãģ§ãģ¯":13555,"ĠAdams":13556,"door":13557,"Ġeleven":13558,"è¿Ļç§į":13559,"ĠTreaty":13560,"Ġsentenced":13561,"Sec":13562,"mphony":13563,"ounsel":13564,"uated":13565,"tes":13566,"ĠNob":13567,"Ġtied":13568,"ãĢįãĢģ":13569,"Ġwidespread":13570,"å±ķç¤º":13571,"German":13572,"å¤ĸåĽ½":13573,"Ġstruggle":13574,"ĠKy":13575,"gie":13576,"omas":13577,"Ġì²´":13578,"åįĥç±³":13579,"TP":13580,"ĠìĿ´ë¦Ħ":13581,"omes":13582,"ayan":13583,"Ã©t":13584,"anks":13585,"Ġrivers":13586,"æ·¡":13587,"Two":13588,"Ġshore":13589,"èªĺ":13590,"ĠEver":13591,"Ġtenure":13592,"rak":13593,"çī©èªŀ":13594,"1939":13595,"Ġasks":13596,"ĠOd":13597,"Ġjurisd":13598,"orton":13599,"ãĤĴç¤º":13600,"ĠFrid":13601,"Ġbat":13602,"leans":13603,"åīĽ":13604,"ãĥ¡ãĥ¼ãĥĪãĥ«":13605,"ãĥįãĥ«":13606,"Ġagents":13607,"ĠKey":13608,"ĠRap":13609,"ãģªãģ©ãģ§":13610,"ä¹ĹãĤĬ":13611,"Ġnomination":13612,"Ġbear":13613,"arest":13614,"ê²¬":13615,"Ġadapted":13616,"ĠAM":13617,"Ġanch":13618,"Ġuseful":13619,"Ġfinals":13620,"éĽĨåĽ¢":13621,"æģĴ":13622,"ĠMond":13623,"éĲĺ":13624,"Ġcommented":13625,"Ġthemes":13626,"ÃŃn":13627,"ĠArn":13628,"åŃĺåľ¨ãģĻãĤĭ":13629,"ìĽĮ":13630,"çĶŁçĶ¢":13631,"iah":13632,"ĠUpper":13633,"è»įãģ¯":13634,"ĠCBS":13635,"Ġdestruction":13636,"ls":13637,"ê·¼":13638,"æ¯įè¦ª":13639,"Ġarchitectural":13640,"orus":13641,"æ¸Ĳ":13642,"ìĻ¸":13643,"Ġsouthwest":13644,"æ£Ģ":13645,"ocol":13646,"éģį":13647,"mund":13648,"rainian":13649,"Ġwhereas":13650,"Ġnone":13651,"Ġescort":13652,"Ġyoungest":13653,"äº§çĶŁ":13654,"ĠHell":13655,"Ġbeautiful":13656,"Ġbeach":13657,"ãĤ«ãĥª":13658,"Ġrestoration":13659,"äºĮå¹´":13660,"ĠThompson":13661,"Ġoccasions":13662,"ĠHispan":13663,"ãĥĳãĤ¤":13664,"Ġ250":13665,"Ġminimum":13666,"pha":13667,"Ġcompetitions":13668,"ĠJohann":13669,"ĠHeb":13670,"ĠGene":13671,"å®¡":13672,"å°ıåŃ¦æł¡":13673,"Ġseeking":13674,"å°ĭ":13675,"Ġsettlers":13676,"Ġconstant":13677,"å¼ķèµ·":13678,"ĠBed":13679,"ĠFall":13680,"ĠHindu":13681,"arat":13682,"åķĨåĵģ":13683,"æķ°ãģ¯":13684,"Ġlap":13685,"lap":13686,"Ġwars":13687,"ãģ¾ãĤĭ":13688,"enez":13689,"æħ¢":13690,"ĠFA":13691,"abad":13692,"ensed":13693,"Ġpublicly":13694,"æ¹¯":13695,"Ġbehalf":13696,"ĠSha":13697,"ĠAy":13698,"çĶ¢çĶŁ":13699,"Ġconvin":13700,"JR":13701,"iture":13702,"Ġpreserved":13703,"Ġsailed":13704,"Ġinstru":13705,"è©¦é¨ĵ":13706,"ĠJerusalem":13707,"Ġê·¸ëŁ¬ëĤĺ":13708,"Ġrebuilt":13709,"ĠíķŃ":13710,"Ġtempor":13711,"Ġexternal":13712,"ĠInformation":13713,"å¤±æķĹ":13714,"è¸ı":13715,"åĨįåº¦":13716,"ĠDh":13717,"äººãĢħ":13718,"ĠBrooklyn":13719,"ĠMem":13720,"ĠWright":13721,"ĠKaz":13722,"such":13723,"é¡¶":13724,"æĺĨ":13725,"è·¨":13726,"stic":13727,"Ġpossibility":13728,"è¡°":13729,"æĶ¹éĢł":13730,"æħķ":13731,"1961":13732,"çĶŁåĳ½":13733,"Ġfrequency":13734,"athy":13735,"ocratic":13736,"Ġgrandfather":13737,"Ġrounds":13738,"ĠFried":13739,"å¤īåĮĸ":13740,"Ġexposed":13741,"Ġfrequent":13742,"Ġì½Ķ":13743,"Another":13744,"å°ĳå¥³":13745,"Ġviewed":13746,"Ġeliminated":13747,"å½¦":13748,"ĠSS":13749,"annels":13750,"ĠDallas":13751,"ãĥ³ãĥį":13752,"çİĭåº§":13753,"Ã¥":13754,"Ġdesire":13755,"Ġdecides":13756,"ĠBruce":13757,"eneration":13758,"ĠWol":13759,"Ġperiods":13760,"but":13761,"ĠChall":13762,"Ġcul":13763,"later":13764,"lon":13765,"ĠNBC":13766,"Ġdescribe":13767,"ĠFranklin":13768,"ìĺĪ":13769,"ĠVinc":13770,"ãģ«å¾ĵ":13771,"Ġchamber":13772,"éĢ²å£«":13773,"Ø§":13774,"Ġcreative":13775,"1937":13776,"archy":13777,"ä¿¡ä»°":13778,"pm":13779,"Ġhonour":13780,"å·¥åł´":13781,"å°Īè¼¯":13782,"ãĤªãĥ¼ãĥĹ":13783,"ëħĢ":13784,"ìĥī":13785,"Ġcup":13786,"åĬłæĭ¿":13787,"ãģĿãģ®ãģŁãĤģ":13788,"ĠSenator":13789,"ä¼ģçĶ»":13790,"uble":13791,"ĠTower":13792,"ãĤ¹ãĥļãĤ¤ãĥ³":13793,"ĠMedicine":13794,"ä¸įåı¯":13795,"Awards":13796,"itarian":13797,"ãĤıãģļ":13798,"æĳĺ":13799,"Ġannually":13800,"Art":13801,"åĲįãģ¯":13802,"åĴĮå¹³":13803,"Ġintent":13804,"Ġtribes":13805,"æĸ°ãģĹãģĦ":13806,"éĩĳèŀį":13807,"Ġtimber":13808,"é¢ĳ":13809,"Ġcontribution":13810,"ĠPas":13811,"åĸ¬":13812,"Ġwings":13813,"ounced":13814,"ĠOrleans":13815,"igs":13816,"1942":13817,"åĩ¯":13818,"æ³¨æĦı":13819,"Ġrelationships":13820,"Ġnetworks":13821,"arks":13822,"ãģĦãģ¦ãģĦãĤĭ":13823,"las":13824,"åħ¨çĲĥ":13825,"Ġpicked":13826,"Ġclassified":13827,"ãĤ¤ãĥ³ãĤ°":13828,"ferences":13829,"1954":13830,"Ġfacing":13831,"ĠMeanwhile":13832,"å°İèĩ´":13833,"ĠSchools":13834,"Ġsustain":13835,"ĠNelson":13836,"ãĤ·ãĥ£ãĥ«":13837,"ä½ĵèĤ²":13838,"Ġpersu":13839,"ĠLib":13840,"Ġparticipants":13841,"å¼Ģåıĳ":13842,"Ġelse":13843,"æ²³åįĹ":13844,"Ġrugby":13845,"ç·ıåĲĪ":13846,"Ġresolution":13847,"ĠDance":13848,"ç¨®é¡ŀ":13849,"Ġcommanded":13850,"ä¸Ńãģ§":13851,"ä¸ĵè¾ĳ":13852,"Despite":13853,"å¯¼èĩ´":13854,"è¡¨æ¼Ķ":13855,"ãĤĴè¡ĮãģĦ":13856,"ouver":13857,"Ġbelonged":13858,"çİ©å®¶":13859,"Ġkeeping":13860,"Ġamateur":13861,"Ġanyone":13862,"Ġweapon":13863,"lac":13864,"Ġpursue":13865,"ãģ«æĪ»":13866,"Ġsupports":13867,"ĠSn":13868,"Ġapartment":13869,"ãģ®ãĤ³":13870,"ãģ®ãģĤãĤĭ":13871,"è¡¥":13872,"ç§ĳæĬĢ":13873,"CE":13874,"ìľ¡":13875,"åŃŁ":13876,"ãĤīãģĮ":13877,"arked":13878,"Ġpatient":13879,"Ġpure":13880,"archers":13881,"ãģķãĤĵ":13882,"çĤŃ":13883,"Ġdrugs":13884,"atur":13885,"éģŃåĪ°":13886,"Ġdesigner":13887,"Ġphenomen":13888,"Ġresponded":13889,"èŁ":13890,"åĩºãģĹãģŁ":13891,"fare":13892,"Ġvast":13893,"Ġassociate":13894,"lie":13895,"Ġsubstitute":13896,"ĠMorris":13897,"ç°½":13898,"uters":13899,"Ġinner":13900,"Ġmerchant":13901,"Ġnom":13902,"ĠDonald":13903,"æĪª":13904,"Ġimperial":13905,"ãģ²ãģ¨":13906,"ìĿ´ëĿ¼ê³ł":13907,"Ġagencies":13908,"çļĦå°ı":13909,"Ðº":13910,"æĮģãģ¡":13911,"ĠìĤ¬ìĿ´":13912,"ymn":13913,"bound":13914,"ãĤĮãģ¦ãģĦãģŁ":13915,"Ġ1898":13916,"ĠEvent":13917,"Ġvideos":13918,"çĪ¶äº²":13919,"ãĢģâĢľ":13920,"ëłĪìĿ´":13921,"dr":13922,"Ġcable":13923,"1959":13924,"èİİ":13925,"ãĤ¹ãģĮ":13926,"Ġpoems":13927,"ëĲĺëĬĶ":13928,"Star":13929,"éħįç½®":13930,"Ġdeployed":13931,"ĠMarie":13932,"è¼Ŀ":13933,"They":13934,"finals":13935,"éļª":13936,"Ġrepair":13937,"itially":13938,"æŁĶ":13939,"Ġtalent":13940,"Ġì¢":13941,"Ġwedding":13942,"çĦ¡æ³ķ":13943,"åĲįãĤĴ":13944,"ä¼°":13945,"ĠChampions":13946,"ĠKnight":13947,"Ġexcav":13948,"íĻĺ":13949,"inist":13950,"ìķł":13951,"èĳ¡":13952,"·¨":13953,"éĩĮæĸ¯":13954,"ĠMethod":13955,"ĠGirls":13956,"ä¿¡æģ¯":13957,"è§£æķ£":13958,"ĠST":13959,"ç¢¼":13960,"ĠTrade":13961,"umph":13962,"Ġaimed":13963,"sequently":13964,"ĠRobinson":13965,"ç¤¾éķ·":13966,"National":13967,"erk":13968,"uzz":13969,"éĸĭçĻ¼":13970,"Ġ600":13971,"ãĤıãģŁ":13972,"ĠHungary":13973,"æľĪãģĭãĤī":13974,"antine":13975,"ĠLocal":13976,"ãĤĴçĻºè¡¨":13977,"iveness":13978,"ĠDeath":13979,"åĪ©äºļ":13980,"çµĲæĿŁ":13981,"Ġpalace":13982,"ĠCarter":13983,"ashi":13984,"äº¤æĺĵ":13985,"æĭ¥æľī":13986,"å¤ļçļĦ":13987,"Ġabuse":13988,"ãĥķãĥŃ":13989,"gregation":13990,"Ġresearchers":13991,"estone":13992,"1952":13993,"éĴŁ":13994,"åĨĻçľŁ":13995,"Ġcanc":13996,"Ġchoose":13997,"æŀĿ":13998,"Ġgovernments":13999,"å¤§ãģª":14000,"ãĤĴçĻº":14001,"æĺĤ":14002,"èģ´":14003,"ä»¥ä¸Ĭãģ®":14004,"æĭīæĸ¯":14005,"Ġreveals":14006,"ĠAndre":14007,"ais":14008,"ì§¸":14009,"hu":14010,"Ġdepending":14011,"1957":14012,"ĠChart":14013,"è°¢":14014,"rele":14015,"Ġgenre":14016,"Ġsecured":14017,"æĵģæľī":14018,"Ġparliamentary":14019,"ĠRace":14020,"è½¨":14021,"åıĽ":14022,"Ġcenters":14023,"iciency":14024,"ç¶±":14025,"Ġdoesn":14026,"ĠEvery":14027,"åıįå¯¾":14028,"uits":14029,"äººé¡ŀ":14030,"ĠRio":14031,"ãģ®ä¸Ģãģ¤":14032,"high":14033,"ä¸»æ¼Ķ":14034,"çĲĥéļĬ":14035,"Ġdebt":14036,"åīĬ":14037,"ãĤĴåıĹãģĳãģ¦":14038,"atched":14039,"åĿª":14040,"Ġexcess":14041,"ĠAgricult":14042,"åĲ¹":14043,"è³ĵ":14044,"Ġdetailed":14045,"ecess":14046,"ëŀľ":14047,"ĠFather":14048,"body":14049,"ĠWindows":14050,"Ġviewers":14051,"åĽ½çİĭ":14052,"åĩºä»»":14053,"æ¨¡å¼ı":14054,"åĪĹè½¦":14055,"åħ¹":14056,"ĠWorks":14057,"åĲįåŃĹ":14058,"Ġgenus":14059,"Hz":14060,"å¤º":14061,"ãĥ¬ãĥ³":14062,"Ġscholarship":14063,"è¡ĮæĺŁ":14064,"åħ¨ä½ĵ":14065,"æĿĲæĸĻ":14066,"Ġinsurance":14067,"ĠMovement":14068,"ĠManh":14069,"å¹»":14070,"åľ°ä¸Ĭ":14071,"åĿĬ":14072,"onomy":14073,"ĠMetropolitan":14074,"Ġvalid":14075,"ĠGlasgow":14076,"äº¨":14077,"Ġdriven":14078,"ä»ª":14079,"ĠStory":14080,"ĠKevin":14081,"çģ¯":14082,"Ġmatters":14083,"ä½Ĩåľ¨":14084,"Ġtrap":14085,"ĠYugoslav":14086,"éĽĨåľĺ":14087,"çĽ®æ¨Ļ":14088,"éĢĻä¸Ģ":14089,"Ġrecovered":14090,"ĠPatri":14091,"Ġscientists":14092,"Ġportrayed":14093,"encing":14094,"ĠTig":14095,"çłģ":14096,"çĽĹ":14097,"æĹłæ³ķ":14098,"Ġdepict":14099,"Ġkit":14100,"Ġswit":14101,"äºĭãģĮ":14102,"Ġdiameter":14103,"èĭ±è¯Ń":14104,"Car":14105,"oga":14106,"Ġconvention":14107,"Ġprocessing":14108,"Ġexists":14109,"Ġinfl":14110,"ì¿ł":14111,"ĠHungarian":14112,"Eng":14113,"æĮ¥":14114,"Ġinstrumental":14115,"çī¹åĪ«":14116,"shaped":14117,"ĠPrior":14118,"Ġadults":14119,"ĠPittsburgh":14120,"len":14121,"ä¾Ĩèĩª":14122,"ĠCer":14123,"ëĥ":14124,"ãģļãĤĮ":14125,"éĺµ":14126,"ĠUC":14127,"Ġsignificance":14128,"æ±Ĺ":14129,"åĮºåŁŁ":14130,"roc":14131,"åĲĦç¨®":14132,"Ġshock":14133,"ĠLimited":14134,"ç²Ĵ":14135,"Ġdeck":14136,"ĠFellow":14137,"Ġimmigrants":14138,"leton":14139,"Ġë³µ":14140,"ãģ«åŁº":14141,"ç»ľ":14142,"reck":14143,"ãĥ«ãĥī":14144,"Ġfarmers":14145,"ĠMaj":14146,"ç»§ç»Ń":14147,"Ġexplo":14148,"åģ´ãģ®":14149,"Ġdomain":14150,"ĠPrincess":14151,"ĠDead":14152,"è¿Ļä¸Ģ":14153,"1943":14154,"æºĸåĤĻ":14155,"çĲĥéĺŁ":14156,"Ġdiscussed":14157,"æº¶":14158,"Ġcann":14159,"çĺ":14160,"å·´å£«":14161,"åľĵ":14162,"ãĢĤãĢİ":14163,"è¡¨æĺİ":14164,"ĠRepresentatives":14165,"å¼·ãģĦ":14166,"ĠAgain":14167,"ãĤ¢ãĥ©":14168,"ĠBomb":14169,"Ġë²ķ":14170,"æħ®":14171,"éĩĩçĶ¨":14172,"ĠëĨ":14173,"Ġremove":14174,"æķĻåłĤ":14175,"CO":14176,"Ġintellectual":14177,"ä¸Ńæľī":14178,"ristol":14179,"ĠMurray":14180,"cht":14181,"ĠUEFA":14182,"Ġproport":14183,"SW":14184,"æķĮ":14185,"çĽ¸æīĭ":14186,"Ġidentify":14187,"Ġindigenous":14188,"Ġnormally":14189,"Ġì¡´":14190,"ĠChand":14191,"jamin":14192,"oples":14193,"ĠSin":14194,"ĠVeg":14195,"Ġspeaking":14196,"æŁ¯":14197,"Ġgay":14198,"acks":14199,"bat":14200,"Ġfunded":14201,"ãĥ´ãĤ©":14202,"Ġterritories":14203,"KO":14204,"BE":14205,"ĠLeban":14206,"rock":14207,"å½ĵãģŁ":14208,"fire":14209,"ãģĹãģŁãģŁãĤģ":14210,"éĿŀå¸¸ãģ«":14211,"ãģ¯ãģĿãģ®":14212,"æĶ¿æ¨©":14213,"ê´ĳ":14214,"ãĤ¯ãĥ¬":14215,"oom":14216,"Ġneither":14217,"Ġtrail":14218,"ewhere":14219,"ouses":14220,"ä»Ķ":14221,"Ġstable":14222,"iterranean":14223,"ç¹¼çºĮ":14224,"æĹ¨":14225,"Ġstim":14226,"ä¼ļéķ·":14227,"Ġadvice":14228,"è¡ĮæĶ¿åĮºåĪĴ":14229,"ï¼ħ":14230,"åľ°ãģ«":14231,"æ°§":14232,"ãĤªãĥªãĥ³ãĥĶ":14233,"ãģĦãģŁãĤģ":14234,"ç©ºéĸĵ":14235,"å®ļç¾©":14236,"Ġgate":14237,"riel":14238,"ç®¡è¾ĸ":14239,"itual":14240,"ricted":14241,"Ġdominated":14242,"antasy":14243,"Ġcorporate":14244,"è¡ĮæĶ¿åįĢåĬĥ":14245,"roid":14246,"ä¸ĬãģĮ":14247,"ãĤĴãģ¤":14248,"ĠìĿĺíķ´":14249,"ï¼ĮãĢĮ":14250,"esc":14251,"Ġarc":14252,"ëĦĪ":14253,"lades":14254,"Ġdisplayed":14255,"Ġguilty":14256,"ĠCre":14257,"ĠìĦ¸ê³Ħ":14258,"Ġcompeting":14259,"geon":14260,"Ġmines":14261,"opes":14262,"å½°":14263,"æľĭ":14264,"å½¢ãģ§":14265,"ä¸Ńå±±":14266,"ãģĽãģŁ":14267,"1953":14268,"æĭĨ":14269,"ãģĹãģ¾ãģ£ãģŁ":14270,"Ġalcohol":14271,"ç»ĵæĿŁ":14272,"nce":14273,"ãĤµãĤ¤ãĥĪ":14274,"Ġforests":14275,"igible":14276,"Ġwire":14277,"iÃ³n":14278,"acts":14279,"Ġreven":14280,"closed":14281,"Ġ1899":14282,"Ġsubst":14283,"éĻ©":14284,"Ġversus":14285,"illo":14286,"æĿ¥èĩª":14287,"ï¼ĮâĢľ":14288,"Ġevac":14289,"GP":14290,"First":14291,"ç§»æ°ĳ":14292,"Ġprofit":14293,"å¤§ä½¿":14294,"ĠGon":14295,"å½ĵåĪĿãģ¯":14296,"Ġceased":14297,"ĠMarshall":14298,"Sup":14299,"Ġdispute":14300,"ãĥ¼ãĤĴ":14301,"éĮ¦":14302,"owed":14303,"åħĥåīį":14304,"ìĶ":14305,"Ġretreat":14306,"RO":14307,"Ġsight":14308,"Ġrepresentatives":14309,"ĠMack":14310,"ä¸ĢåĲį":14311,"oj":14312,"ãĥĩãĥ¼ãĤ¿":14313,"Ġstrict":14314,"èĭ±æĸĩ":14315,"ç¤¾ãģ®":14316,"Ġpossession":14317,"éĥµ":14318,"åĬłä¸Ĭ":14319,"lik":14320,"ĠVic":14321,"Ġrepresentation":14322,"Ġwel":14323,"éģĶæĪĲ":14324,"çµĲæ§ĭ":14325,"orous":14326,"ë¹":14327,"Ġoperational":14328,"Ġphr":14329,"Ġlose":14330,"Ġcompens":14331,"ĠBible":14332,"Ġê°Ģìŀ¥":14333,"feld":14334,"çµĦåĲĪ":14335,"May":14336,")ï¼Į":14337,"è¨Ģèĳī":14338,"èµµ":14339,"éģ¸èĪī":14340,"ĠKit":14341,"ĠHend":14342,"Ġcompla":14343,"è¨Ĥ":14344,"ipped":14345,"ĠRand":14346,"æĶ¹åĸĦ":14347,"ĠCapital":14348,"åħ±åĴĮåĽ½":14349,"tical":14350,"Ġestablishing":14351,"Ġthrone":14352,"çĢ¬":14353,"è¯ĳ":14354,"ĠSi":14355,"ä¸ŃåŃ¦æł¡":14356,"è²ŀ":14357,"Ġmonitor":14358,"kW":14359,"ãģĽãģļ":14360,"ìĺ¨":14361,"Ġmovies":14362,"Ġearning":14363,"Ġvenue":14364,"mentary":14365,"åĩºãģĹ":14366,"æľĢæĹ©":14367,"ĠìĨį":14368,"Ġclearly":14369,"åįµ":14370,"æĹ¶ä»£":14371,"ĠVik":14372,"Ġdraf":14373,"dy":14374,"ĠFel":14375,"åģ¥åº·":14376,"ê²ĥ":14377,"ĠEqu":14378,"èĢĮåľ¨":14379,"ãĥľãĥ¼ãĥ«":14380,"Ġseeing":14381,"ĠAR":14382,"Ġagree":14383,"éĿĸ":14384,"acle":14385,"ä¿ĿåŃĺ":14386,"ĠíĻľëıĻ":14387,"Ġpartners":14388,"å«Į":14389,"ãĥ¯ãĥ¼ãĥ«ãĥī":14390,"contin":14391,"Ġresemb":14392,"Ġconservative":14393,"å¤ķ":14394,"Go":14395,"æºĿ":14396,"è´Ī":14397,"Ġpremiere":14398,"Ġinitiated":14399,"Ġsentence":14400,"åĲĮæĦı":14401,"åı²ä¸Ĭ":14402,"ä¸ĭè½Ħ":14403,"èĢħãĤĴ":14404,"ĠMong":14405,"hammad":14406,"Ġweekend":14407,"Ġspaces":14408,"Ġassisted":14409,"CM":14410,"abor":14411,"ç»ĵæŀĦ":14412,"Ġrequested":14413,"Ġmissed":14414,"Ġapply":14415,"æĥĳ":14416,"James":14417,"DE":14418,"rose":14419,"Ġ1000":14420,"ä¸ĭè¾ĸ":14421,"Ġpartly":14422,"Ġassemb":14423,"Ġprinciples":14424,"ĠStanley":14425,"Sch":14426,"cover":14427,"Ġfacilit":14428,"èģĶèµĽ":14429,"ĠPortland":14430,"itable":14431,"å¹´èµ·":14432,"é¡ŀä¼¼":14433,"Ġmusician":14434,"ãģĮåĩº":14435,"æĹ¦":14436,"æĪĲéķ·":14437,"Ġmart":14438,"åĩ¡":14439,"Ġindicate":14440,"ì§ĢëĬĶ":14441,"ä¹Ŀå·ŀ":14442,"äººåĳĺ":14443,"è¦ĭãĤīãĤĮãĤĭ":14444,"Ġdeaths":14445,"Ġpatron":14446,"hour":14447,"ĠFood":14448,"Ġfile":14449,"è¿ĳãģı":14450,"ĠTournament":14451,"Ġwearing":14452,"Ġintersection":14453,"è·³":14454,"è£½åĵģ":14455,"ĠCole":14456,"1938":14457,"orial":14458,"çįĦ":14459,"ãĤĴåıĹè³ŀ":14460,"ĠRichmond":14461,"è²¿æĺĵ":14462,"castle":14463,"ĠTamil":14464,"ĠJosÃ©":14465,"GM":14466,"person":14467,"Ġyield":14468,"ĠGraham":14469,"ĠHorn":14470,"ĠRena":14471,"ë¦¬ëĬĶ":14472,"éĽ»æ°Ĺ":14473,"Ġstring":14474,"ëª©":14475,"ĠBeck":14476,"Ġ~":14477,"è®¨":14478,"ãĤ¹ãĤĴ":14479,"ãĤĬãģ«":14480,"ĠNBA":14481,"ancouver":14482,"ĠJimmy":14483,"éĢīä¸¾":14484,"å¤ļæ¬¡":14485,"Ġsteps":14486,"Ġassets":14487,"åı¤å±ĭ":14488,"Ġmarry":14489,"ĠFine":14490,"è¾¼ãģ¿":14491,"Ġliberal":14492,"Ġwinners":14493,"Ġintegrated":14494,"Ġholid":14495,"æĬķè³ĩ":14496,"Ġsimultane":14497,"Ġpredomin":14498,"èªķçĶŁ":14499,"ãģ«åŁºãģ¥":14500,"åİŁæľ¬":14501,"ĠWing":14502,"ĠíĨµíķ´":14503,"Ġastron":14504,"íĹĺ":14505,"oni":14506,"ĠApple":14507,"away":14508,"çĻ»éĮ²":14509,"Ġcompleting":14510,"èĹį":14511,"Ġguitarist":14512,"Ġfitted":14513,"athered":14514,"æµħ":14515,"ĠSuch":14516,"Ġcash":14517,"Ġtravelled":14518,"Ġbid":14519,"Ġcoff":14520,"Ġchannels":14521,"æ²»çĻĤ":14522,"ĠPlayer":14523,"æĿ¥ãģ®":14524,"Ġnurs":14525,"Ġì¡°ìĦł":14526,"ãĤ¢ãĥ¡ãĥªãĤ«åĲĪè¡ĨåĽ½":14527,"Ġtanks":14528,"ĠHold":14529,"Ġcircumstances":14530,"çĩķ":14531,"arged":14532,"Ġconcentration":14533,"ĠPun":14534,"ãĤ¤ãĥĻãĥ³ãĥĪ":14535,"borne":14536,"è¨Ĺ":14537,"Ġdismissed":14538,"ĠLank":14539,"ĠChampion":14540,"å¸ģ":14541,"åıĳè¡Į":14542,"ĠLud":14543,"ivan":14544,"Ġcharity":14545,"Ġinitiative":14546,"èĸĦ":14547,"Ġlanded":14548,"iop":14549,"ãģ«ä¼´ãģĦ":14550,"Ġlabour":14551,"ĠChem":14552,"urst":14553,"Ġbelieves":14554,"osph":14555,"David":14556,"Ġthereafter":14557,"è®²":14558,"ê°Ĳ":14559,"Ġmarine":14560,"Ġsoundtrack":14561,"Ġëĵľ":14562,"Ġë¨":14563,"æ²ī":14564,"Ġmoves":14565,"Ġpull":14566,"ì¡Įëĭ¤":14567,"Ġunsuccessful":14568,"Ġë°ķ":14569,"ubb":14570,"CP":14571,"ĠEU":14572,"åįĵ":14573,"ĠPad":14574,"ç¶ĵéģİ":14575,"ç»ıè¿ĩ":14576,"Ġtunnel":14577,"ãĥ¼ãĤ«ãĥ¼":14578,"ĠAlbum":14579,"Ġrising":14580,"ĠAP":14581,"ĠMess":14582,"Ġcredits":14583,"Ġsurvive":14584,"Ġtie":14585,"ĠLuther":14586,"elected":14587,"Ġimplemented":14588,"é¤Ĳ":14589,"uable":14590,"å®¹æĺĵ":14591,"Ġcattle":14592,"ĠCass":14593,"ä¿ĿæĬ¤":14594,"Ġcharts":14595,"Ġhear":14596,"Ġchampions":14597,"ugs":14598,"ĠStev":14599,"Ġaudio":14600,"opal":14601,"ìĬµ":14602,"Ġdetail":14603,"èģ¯è³½":14604,"åŁºéĩĳ":14605,"ĠWa":14606,"åĲ«ãģ¾":14607,"Distribution":14608,"ethe":14609,"aments":14610,"Ġmo":14611,"quir":14612,"åŁĶ":14613,"case":14614,"ãĥĢãĥ«":14615,"Ġtouring":14616,"åĬłæĭ¿å¤§":14617,"Ġsigns":14618,"_ãĢĮ":14619,"ĠMediterranean":14620,"ÃŁ":14621,"å®ĥçļĦ":14622,"Ġsang":14623,"ãĤĦãģĻ":14624,"ãĤ¦ãĥ³ãĥī":14625,"ä»ĺè¿ĳ":14626,"åľ°åħĥ":14627,"ä¾ĨçļĦ":14628,"phan":14629,"scale":14630,"Ġstyles":14631,"Ġpermission":14632,"Ġdangerous":14633,"Public":14634,"agre":14635,"Ġtraditions":14636,"Phil":14637,"hythm":14638,"ĠíķĦ":14639,"çĤ¹ãĤĴ":14640,"Ġnegotiations":14641,"æ¯«ç±³":14642,"ĠRain":14643,"Ġfalling":14644,"ãģĦãģ®":14645,"ãĥ¼ãĥľ":14646,"ĠLithuan":14647,"issue":14648,"ĠLast":14649,"ĠAld":14650,"SD":14651,"ĠBris":14652,"eton":14653,"Ġelevation":14654,"inating":14655,"è¥¿æ´ĭ":14656,"íķĺìĺĢê³ł":14657,"ĠConserv":14658,"Ġhonorary":14659,"Ġacknowled":14660,"plicit":14661,"Ġadmin":14662,"ãģ«ãģĤãģ£ãģŁ":14663,"ĠIndonesia":14664,"ĠFr":14665,"æİª":14666,"çİ°åľ¨":14667,"amo":14668,"lete":14669,"å¦ĥ":14670,"è¦º":14671,"åįģåŃĹ":14672,"Ġbalance":14673,"ãĥĢãĥł":14674,"Ġinterpre":14675,"åĩºäºĨ":14676,"äººæ°ĳåħ±åĴĮåľĭ":14677,"ĠíķĺëĤĺ":14678,"ugu":14679,"Ġsatellite":14680,"Ġeldest":14681,"Ġunderw":14682,"gate":14683,"é¦ĸçĽ¸":14684,"Ġì£":14685,"ãģ®ãģĨãģ¡":14686,"Ġ1850":14687,"ãĤªãĥªãĥ³ãĥĶãĥĥãĤ¯":14688,"Ġappropriate":14689,"èŃ¯":14690,"emed":14691,"ĠByz":14692,"?\"":14693,"ĠManhattan":14694,"ĠMalaysia":14695,"Ġhat":14696,"Ġï¼ī":14697,"å¾ĮåįĬ":14698,"Ġcloser":14699,"Ġdoors":14700,"Ġ1895":14701,"Â³":14702,"Me":14703,"ãĤ®ãĥ¥":14704,"Club":14705,"ĠCamer":14706,"Ġtransmission":14707,"anner":14708,"Ġeat":14709,"æİ¥è¿ĳ":14710,"Ġcharacterized":14711,"ĠAbbey":14712,"Ġsuitable":14713,"ĠêµŃê°Ģ":14714,"åĽºå®ļ":14715,"Family":14716,"Ġê²Į":14717,"Ġfalse":14718,"äºĤ":14719,"Pre":14720,"Ġextreme":14721,"ĠRegister":14722,"æĿĳåĴĮ":14723,"olition":14724,"çķ¶åľ°":14725,"Ġslaves":14726,"åĳĤ":14727,"éĻĲå®ļ":14728,"ĠMilan":14729,"Ġtreaty":14730,"boy":14731,"ä¸»äºº":14732,"Ġneuro":14733,"çĶŁãģ¾ãĤĮãģŁ":14734,"Ġinvent":14735,"ĠPsych":14736,"uction":14737,"ĠAllied":14738,"ä¸¾è¡Į":14739,"Ġconservation":14740,"éĥ¨éĺŁ":14741,"æŃ³ãģ®":14742,"Ġnotice":14743,"ĠUkrainian":14744,"Ġwealthy":14745,"ç¾Ĭ":14746,"ĠìŀĪìľ¼ë©°":14747,"atab":14748,"ĠëıĮ":14749,"Ġapproached":14750,"Ġê·¸ë¦¬ê³ł":14751,"ingham":14752,"1951":14753,"ĠOur":14754,"Ġsuperior":14755,"Ġsubmitted":14756,"ãĥķãĥ«":14757,"ĠTrump":14758,"Ġmal":14759,"ĠFinland":14760,"è¿ĳä»£":14761,"ĠKan":14762,"Ġì²ľ":14763,"Ġexceed":14764,"éĺ²è¡Ľ":14765,"sters":14766,"Ġliquid":14767,"èĴ¸":14768,"å°ıåŀĭ":14769,"iph":14770,"ãĥķãĥª":14771,"æ¶ħ":14772,"Ġcamps":14773,"Ġbattalion":14774,"iliar":14775,"Ġsponsored":14776,"pent":14777,"è¨Ģèªŀ":14778,"æľŁãģ®":14779,"äºŃ":14780,"ĠEmer":14781,"ĠCarm":14782,"Ġ53":14783,"è¨Īç®Ĺ":14784,"Ġdeparted":14785,"è¼Ľ":14786,"ãģĻãĤĭãģŁãĤģãģ«":14787,"ãĤĪãģı":14788,"ĠExt":14789,"Ġpredecess":14790,"Ġtribe":14791,"Ġ1896":14792,"éłĺåŁŁ":14793,"ãģªãģĳãĤĮãģ°":14794,"Ġdefinition":14795,"avan":14796,"Ġmathematics":14797,"Ġincreases":14798,"å§Ĳ":14799,"å³¶ãģ®":14800,"Ġid":14801,"'d":14802,"gun":14803,"Ġdemonstrated":14804,"ĠíķĺëĬĶ":14805,"urers":14806,"æ³ķäºº":14807,"å½¢æħĭ":14808,"éĥĳ":14809,"æŀł":14810,"éĽĩ":14811,"aku":14812,"Ġsculpture":14813,"onian":14814,"ĠCrit":14815,"èĪīè¡Į":14816,"Ġcivilian":14817,"style":14818,"icate":14819,"ĠGill":14820,"Ġrevenue":14821,"Ġranks":14822,"Ġprovision":14823,"æĹ¥åľ¨":14824,"ĠDefence":14825,"Ġfee":14826,"Ġouter":14827,"Ġ1897":14828,"ĠMadrid":14829,"ĠReform":14830,"Ġsympt":14831,"ĠSoon":14832,"Ġvoting":14833,"ĠíķľêµŃ":14834,"æĹģ":14835,"Dr":14836,"ãĥ¼ãĥŁ":14837,"minute":14838,"Ġpartially":14839,"aced":14840,"ser":14841,"ĠNorm":14842,"cribed":14843,"æĿ±éĥ¨":14844,"rama":14845,"oda":14846,"ĠíĮĲ":14847,"Ġattorney":14848,"ãģ«ãĤĪãĤĮãģ°":14849,"çĻ¼è¡Į":14850,"Ġì¦Ŀ":14851,"ancellor":14852,"GO":14853,"æľĪåı°":14854,"æµ·åĨĽ":14855,"Ġê²ĥìĿ´ëĭ¤":14856,"bane":14857,"æŁĦ":14858,"ductions":14859,"ç¦Ħ":14860,"æĨ²æ³ķ":14861,"åĭĥ":14862,"ĠNon":14863,"Ġ54":14864,"ĠBristol":14865,"graph":14866,"Ġwet":14867,"Ġmor":14868,"Ġmonastery":14869,"ĠBilly":14870,"æīķ":14871,"Ġì²Ń":14872,"Ġsisters":14873,"è±Ĩ":14874,"Ġradical":14875,"è·ĳ":14876,"ãģłãģĳãģ§":14877,"Political":14878,"Ġcondem":14879,"rena":14880,"Ġlooked":14881,"åıĤçħ§":14882,"ĠMans":14883,"ãĤ¦ãĥł":14884,"Ġhighlight":14885,"DVD":14886,"åĨĴ":14887,"Ġprinciple":14888,"Ġtort":14889,"Ġcabinet":14890,"Ġclothing":14891,"EE":14892,"ovo":14893,"ç¸ģ":14894,"åĪĨé¡ŀ":14895,"ĠWho":14896,"å¹«":14897,"asi":14898,"ĠFace":14899,"making":14900,"atin":14901,"ãģ«ãĤĪãĤĭãģ¨":14902,"rams":14903,"ãģ«ãģ¨ãģ£ãģ¦":14904,"final":14905,"Ġinnings":14906,"arma":14907,";_":14908,"ãģ«ä½įç½®":14909,"mo":14910,"Ġelectrical":14911,"ĠEgyptian":14912,"Ġexperimental":14913,"estyle":14914,"ãĤ¶ãĥ¼":14915,"ĠRest":14916,"South":14917,"ĠVancouver":14918,"Ġtrials":14919,"ĠHud":14920,"Donald":14921,"éŁĭ":14922,"Ġroots":14923,"bel":14924,"ä½ľæ¥Ń":14925,"Ġeggs":14926,"ĠHispanic":14927,"è¶ħéģİ":14928,"Ġhelicop":14929,"ĠIns":14930,"Ġë³ĳ":14931,"Bar":14932,"æĢ§èĥ½":14933,"åĭ¢åĬĽ":14934,"éĽ»è©±":14935,"è¿ħ":14936,"âĢĺ":14937,"eta":14938,"sson":14939,"ì¼Ģ":14940,"ĠMotor":14941,"folk":14942,"Before":14943,"Ġpetition":14944,"cho":14945,"ãģĦãģļãĤĮ":14946,"çļĦä¸»è¦ģ":14947,"è§ī":14948,"NC":14949,"åĽĽå·Ŀ":14950,"ëŁ½":14951,"ãĥ³ãĥľ":14952,"Ġcompetitive":14953,"Ġtexts":14954,"Ġessential":14955,"Ġparent":14956,"Ġbreaking":14957,"Ġgenerated":14958,"Ã©n":14959,"ãĥĨãĥ³":14960,"ographics":14961,"éĢĤ":14962,"åįģåħŃ":14963,"Sw":14964,"ĠBenn":14965,"Ġlin":14966,"å¤ªåŃĲ":14967,"åīįèº«":14968,"month":14969,"ĠRound":14970,"Ġopponent":14971,"åİ³":14972,"Ġemperor":14973,"Ġhoused":14974,"ì°°":14975,"Ġdecisions":14976,"ictional":14977,"åĲįåı¤å±ĭ":14978,"ãģĵãģ¨ãģ«":14979,"Ġschedule":14980,"éĸ¢éĢ£":14981,"ĠBanglades":14982,"Ġcrossed":14983,"Ġ1861":14984,"íıī":14985,
[...]
